[PAD]	0
[UNK]	0
[BOS]	0
[EOS]	0
[SEP]	0
[CLS]	0
[MASK]	0
▁2	-0
▁a	-1
02	-2
pl	-3
1-	-4
in	-5
▁s	-6
apl	-7
▁aapl	-8
▁202	-9
▁t	-10
on	-11
▁2021-	-12
▁c	-13
re	-14
ing	-15
▁b	-16
er	-17
ar	-18
▁m	-19
▁p	-20
▁g	-21
ll	-22
▁l	-23
es	-24
ti	-25
▁h	-26
01-	-27
▁2021-01-	-28
▁d	-29
-1	-30
en	-31
▁w	-32
▁f	-33
▁2021-02	-34
or	-35
ed	-36
an	-37
▁27	-38
:1	-39
:3	-40
:5	-41
:4	-42
et	-43
:2	-44
ck	-45
om	-46
:0	-47
ay	-48
st	-49
▁e	-50
▁n	-51
ou	-52
ra	-53
it	-54
al	-55
▁26	-56
op	-57
▁2021-02-	-58
at	-59
▁st	-60
-12	-61
tion	-62
▁2021-01-2	-63
▁re	-64
ow	-65
▁2020	-66
▁2020-12	-67
▁28	-68
ol	-69
▁go	-70
ri	-71
ple	-72
ee	-73
▁29	-74
ce	-75
la	-76
15	-77
▁ap	-78
▁bu	-79
all	-80
ock	-81
14	-82
ig	-83
▁ne	-84
od	-85
one	-86
ch	-87
ps	-88
16	-89
tt	-90
id	-91
▁2020-12-	-92
rad	-93
art	-94
▁am	-95
22	-96
19	-97
im	-98
ke	-99
17	-100
▁apple	-101
20	-102
▁sh	-103
ot	-104
ve	-105
23	-106
tions	-107
18	-108
us	-109
▁in	-110
le	-111
un	-112
▁sp	-113
as	-114
21	-115
is	-116
ver	-117
ad	-118
os	-119
um	-120
▁trad	-121
▁th	-122
▁ts	-123
am	-124
13	-125
▁htt	-126
ont	-127
ent	-128
▁2021-02-1	-129
▁tsla	-130
04	-131
ell	-132
ct	-133
▁stock	-134
ly	-135
03	-136
ap	-137
▁com	-138
▁https	-139
ut	-140
est	-141
options	-142
ort	-143
oo	-144
09	-145
ic	-146
▁buy	-147
▁y	-148
05	-149
ark	-150
08	-151
▁k	-152
ro	-153
06	-154
com	-155
▁spy	-156
ws	-157
ht	-158
ip	-159
ear	-160
ers	-161
▁v	-162
qu	-163
▁li	-164
arket	-165
12	-166
ld	-167
07	-168
nt	-169
▁ch	-170
▁call	-171
ge	-172
▁al	-173
old	-174
▁de	-175
ur	-176
24	-177
ill	-178
▁market	-179
▁2020-12-1	-180
01	-181
ak	-182
25	-183
res	-184
mart	-185
ww	-186
ning	-187
ook	-188
▁an	-189
▁ex	-190
87	-191
eek	-192
26	-193
▁ba	-194
▁httpsww	-195
▁week	-196
▁r	-197
ong	-198
▁day	-199
▁266	-200
▁trade	-201
▁tim	-202
ant	-203
oday	-204
martoptions	-205
29	-206
▁get	-207
▁today	-208
▁like	-209
▁pri	-210
ai	-211
up	-212
▁j	-213
ast	-214
▁calls	-215
row	-216
28	-217
ould	-218
ion	-219
▁sell	-220
zn	-221
oney	-222
00	-223
▁ear	-224
▁ri	-225
35	-226
▁amzn	-227
▁money	-228
ake	-229
ght	-230
45	-231
ter	-232
▁see	-233
▁im	-234
th	-235
pe	-236
▁pl	-237
39	-238
46	-239
49	-240
amp	-241
▁price	-242
27	-243
▁going	-244
86	-245
36	-246
ess	-247
11	-248
og	-249
:16	-250
47	-251
▁ar	-252
ul	-253
37	-254
▁gre	-255
▁comp	-256
:02	-257
ost	-258
89	-259
▁earning	-260
ft	-261
end	-262
▁ac	-263
▁httpswww	-264
▁2021-01-27	-265
xt	-266
ity	-267
and	-268
▁ev	-269
▁o	-270
▁ever	-271
▁sha	-272
el	-273
▁look	-274
ab	-275
▁time	-276
day	-277
me	-278
59	-279
▁tom	-280
57	-281
▁options	-282
▁un	-283
ry	-284
▁pro	-285
▁qu	-286
▁cl	-287
▁earnings	-288
oll	-289
▁short	-290
orrow	-291
oun	-292
56	-293
▁q	-294
▁te	-295
▁new	-296
▁big	-297
▁tomorrow	-298
▁276	-299
io	-300
▁next	-301
ally	-302
▁us	-303
▁dont	-304
▁back	-305
▁mo	-306
▁hold	-307
eep	-308
:00	-309
▁fb	-310
ink	-311
ate	-312
ets	-313
▁year	-314
ue	-315
any	-316
ir	-317
48	-318
port	-319
her	-320
ac	-321
▁le	-322
▁smartoptions	-323
▁277	-324
38	-325
▁2021-01-28	-326
ff	-327
:05	-328
:01	-329
se	-330
10	-331
▁op	-332
:06	-333
▁279	-334
▁long	-335
:03	-336
ne	-337
▁car	-338
▁cont	-339
▁every	-340
▁amp	-341
▁hig	-342
out	-343
:13	-344
:04	-345
ump	-346
▁pr	-347
▁sti	-348
ment	-349
▁good	-350
:57	-351
:14	-352
:10	-353
:12	-354
:09	-355
tic	-356
:33	-357
▁wor	-358
ain	-359
:40	-360
:49	-361
ard	-362
▁267	-363
:58	-364
now	-365
:20	-366
:11	-367
:15	-368
:38	-369
:19	-370
▁2021-01-29	-371
:07	-372
:37	-373
ial	-374
:53	-375
il	-376
:36	-377
:41	-378
:56	-379
:51	-380
:34	-381
:32	-382
:21	-383
:59	-384
:35	-385
:47	-386
its	-387
illion	-388
uck	-389
:08	-390
:55	-391
:27	-392
:42	-393
:31	-394
ose	-395
eo	-396
:18	-397
:43	-398
:39	-399
:54	-400
:50	-401
:44	-402
:30	-403
:45	-404
:25	-405
:17	-406
:48	-407
:23	-408
ure	-409
:52	-410
:24	-411
:28	-412
:29	-413
:46	-414
▁se	-415
:22	-416
▁pre	-417
▁con	-418
:26	-419
vest	-420
our	-421
ie	-422
▁int	-423
▁think	-424
▁tech	-425
31	-426
▁bull	-427
▁tw	-428
58	-429
▁269	-430
ub	-431
ish	-432
▁exp	-433
ays	-434
▁would	-435
▁vol	-436
rent	-437
utm	-438
tr	-439
30	-440
aly	-441
aapl	-442
ight	-443
ert	-444
▁2020-12-22	-445
dd	-446
▁he	-447
si	-448
▁2021-02-23	-449
ting	-450
▁one	-451
▁sw	-452
▁ms	-453
▁know	-454
44	-455
iv	-456
▁shares	-457
▁goog	-458
app	-459
arg	-460
▁pos	-461
ies	-462
atch	-463
▁be	-464
▁msft	-465
▁news	-466
▁ra	-467
▁bear	-468
cts	-469
▁stocks	-470
ba	-471
ought	-472
ollow	-473
oin	-474
▁lo	-475
ume	-476
▁follow	-477
sh	-478
ick	-479
ia	-480
amputm	-481
▁make	-482
ine	-483
▁last	-484
55	-485
▁volume	-486
▁need	-487
und	-488
ence	-489
▁cur	-490
▁lets	-491
▁green	-492
34	-493
▁gu	-494
▁2021-02-25	-495
▁qq	-496
▁qqq	-497
▁invest	-498
stock	-499
▁so	-500
▁bo	-501
ah	-502
ble	-503
▁company	-504
▁peo	-505
ag	-506
wsmartoptions	-507
ase	-508
ation	-509
reak	-510
▁ip	-511
▁people	-512
79	-513
▁want	-514
▁put	-515
hone	-516
▁tr	-517
ber	-518
▁wh	-519
▁current	-520
ats	-521
ide	-522
ren	-523
ual	-524
ks	-525
age	-526
▁bl	-527
▁2021-01-25	-528
▁2020-12-21	-529
▁still	-530
cre	-531
▁2021-01-22	-532
▁sup	-533
ign	-534
69	-535
88	-536
▁mu	-537
▁2021-02-03	-538
▁gme	-539
▁2021-02-24	-540
▁sa	-541
▁run	-542
onth	-543
▁buying	-544
▁break	-545
ord	-546
▁alert	-547
▁happ	-548
tif	-549
na	-550
ady	-551
news	-552
67	-553
▁2021-02-17	-554
tiv	-555
54	-556
red	-557
▁lol	-558
ous	-559
▁man	-560
▁2021-02-04	-561
▁any	-562
orm	-563
esla	-564
ts	-565
▁even	-566
▁2787	-567
▁u	-568
▁high	-569
▁month	-570
ance	-571
ice	-572
▁co	-573
▁2021-01-06	-574
▁2021-01-21	-575
▁dip	-576
▁ro	-577
▁dr	-578
▁close	-579
▁prof	-580
ound	-581
ind	-582
em	-583
▁nio	-584
▁2021-02-22	-585
33	-586
▁right	-587
ull	-588
ys	-589
ors	-590
▁del	-591
ype	-592
▁red	-593
▁contra	-594
so	-595
▁2021-02-18	-596
▁coming	-597
▁2021-02-26	-598
▁2021-01-26	-599
ium	-600
▁tesla	-601
▁fuck	-602
fe	-603
▁268	-604
▁could	-605
tive	-606
▁trading	-607
▁dis	-608
he	-609
hing	-610
▁che	-611
apple	-612
▁start	-613
▁great	-614
tivity	-615
▁cra	-616
▁rev	-617
▁2021-02-19	-618
ist	-619
▁watch	-620
▁low	-621
▁move	-622
▁wa	-623
▁en	-624
▁drop	-625
▁contracts	-626
▁bought	-627
▁rec	-628
97	-629
rong	-630
▁traded	-631
ive	-632
▁days	-633
iz	-634
ount	-635
▁2021-02-16	-636
▁cap	-637
ayed	-638
▁do	-639
▁bet	-640
ore	-641
da	-642
quot	-643
▁activity	-644
erm	-645
▁come	-646
▁294	-647
▁x	-648
▁type	-649
alyst	-650
ated	-651
▁2021-02-01	-652
icial	-653
usual	-654
aking	-655
▁unusual	-656
▁hop	-657
▁bears	-658
▁soon	-659
▁295	-660
66	-661
▁add	-662
ree	-663
▁278	-664
▁fa	-665
ellig	-666
▁take	-667
ust	-668
ens	-669
▁well	-670
▁delayed	-671
▁may	-672
▁wait	-673
▁som	-674
▁2020-12-15	-675
▁intellig	-676
▁much	-677
▁artif	-678
▁posi	-679
are	-680
▁intelligence	-681
▁artificial	-682
odu	-683
▁selling	-684
▁me	-685
▁287	-686
▁er	-687
tw	-688
▁way	-689
▁264	-690
▁end	-691
▁up	-692
▁targ	-693
▁per	-694
▁part	-695
▁iphone	-696
▁min	-697
▁2021-01-11	-698
▁keep	-699
▁cant	-700
▁2021-01-12	-701
▁say	-702
▁mor	-703
▁reven	-704
▁2021-01-13	-705
be	-706
other	-707
▁puts	-708
▁twtr	-709
▁sweep	-710
▁amc	-711
▁as	-712
▁years	-713
vel	-714
▁2021-01-04	-715
▁got	-716
53	-717
▁di	-718
ction	-719
▁2021-02-08	-720
gh	-721
wsmartoptionsai	-722
▁open	-723
pt	-724
▁2021-02-11	-725
96	-726
ms	-727
▁fri	-728
▁fl	-729
▁293	-730
▁2020-12-23	-731
able	-732
▁fut	-733
cial	-734
▁2021-01-08	-735
▁thing	-736
▁wall	-737
pect	-738
▁gon	-739
eb	-740
ond	-741
▁sold	-742
▁2021-02-02	-743
▁looking	-744
▁holding	-745
aip	-746
ash	-747
▁share	-748
ving	-749
▁bt	-750
▁prem	-751
▁2021-02-10	-752
▁ret	-753
▁never	-754
▁revenue	-755
▁billion	-756
aipost	-757
oss	-758
ank	-759
▁gonna	-760
▁produ	-761
84	-762
de	-763
76	-764
▁2020-12-29	-765
▁target	-766
▁appl	-767
▁higher	-768
form	-769
ans	-770
fl	-771
▁amd	-772
ite	-773
▁shit	-774
▁275	-775
ounce	-776
▁quot	-777
▁report	-778
▁hu	-779
anies	-780
▁cr	-781
▁mon	-782
▁2021-01-14	-783
▁2021-01-15	-784
▁cons	-785
pr	-786
▁play	-787
▁2021-01-20	-788
▁top	-789
▁hope	-790
▁post	-791
▁fir	-792
▁real	-793
85	-794
ways	-795
cl	-796
ob	-797
▁term	-798
▁bullish	-799
ail	-800
ticle	-801
ones	-802
▁2021-01-19	-803
▁million	-804
99	-805
▁2020-12-28	-806
own	-807
ang	-808
ary	-809
med	-810
▁gain	-811
ame	-812
▁hour	-813
▁2021-02-05	-814
▁286	-815
▁the	-816
az	-817
▁2021-02-09	-818
iss	-819
▁expect	-820
▁sm	-821
▁tri	-822
▁another	-823
amputmc	-824
▁companies	-825
▁better	-826
go	-827
▁sc	-828
▁best	-829
▁sl	-830
twits	-831
▁thats	-832
ince	-833
▁2021-01-07	-834
int	-835
▁2020-12-16	-836
▁stop	-837
ough	-838
atter	-839
▁app	-840
fa	-841
▁support	-842
43	-843
:16:02	-844
ug	-845
▁over	-846
ade	-847
bc	-848
▁huge	-849
▁profit	-850
▁happen	-851
▁cor	-852
▁since	-853
▁283	-854
▁guys	-855
▁strong	-856
▁getting	-857
ood	-858
▁btc	-859
▁288	-860
▁fin	-861
▁hit	-862
ready	-863
▁2021-02-12	-864
▁bid	-865
▁really	-866
rend	-867
▁chart	-868
▁many	-869
▁2020-12-09	-870
▁2020-12-31	-871
▁bit	-872
▁el	-873
king	-874
ush	-875
▁ann	-876
▁nice	-877
ax	-878
▁tra	-879
▁already	-880
ory	-881
thing	-882
▁br	-883
▁everyone	-884
▁2020-12-30	-885
▁article	-886
▁ind	-887
▁looks	-888
▁grow	-889
▁morning	-890
▁also	-891
▁trump	-892
te	-893
▁acc	-894
98	-895
▁baba	-896
▁265	-897
erv	-898
▁res	-899
▁first	-900
77	-901
▁274	-902
▁2021-01-05	-903
▁we	-904
▁z	-905
urn	-906
▁lit	-907
ml	-908
▁sal	-909
▁lot	-910
reet	-911
▁2021-01-10	-912
▁friday	-913
▁btcx	-914
▁not	-915
▁hy	-916
▁months	-917
ced	-918
▁fund	-919
oy	-920
▁cash	-921
▁val	-922
▁goes	-923
▁ad	-924
▁jan	-925
outub	-926
▁you	-927
▁no	-928
▁weeks	-929
▁googl	-930
▁always	-931
oc	-932
av	-933
▁let	-934
ect	-935
▁premium	-936
ange	-937
▁load	-938
▁analyst	-939
▁http	-940
▁296	-941
▁mar	-942
arter	-943
ach	-944
ious	-945
83	-946
mul	-947
▁said	-948
▁bad	-949
65	-950
ating	-951
▁eas	-952
▁around	-953
▁pa	-954
▁pow	-955
tle	-956
▁tal	-957
▁2020-12-18	-958
market	-959
ith	-960
▁dec	-961
▁ple	-962
▁head	-963
ces	-964
mulus	-965
▁monday	-966
▁anyone	-967
▁poin	-968
▁world	-969
▁love	-970
eel	-971
ital	-972
▁httpswwwst	-973
▁bulls	-974
olid	-975
ud	-976
iti	-977
95	-978
les	-979
ason	-980
▁techn	-981
▁for	-982
▁try	-983
▁please	-984
68	-985
78	-986
▁check	-987
ures	-988
▁quarter	-989
enti	-990
ping	-991
ins	-992
youtub	-993
vid	-994
onews	-995
▁hand	-996
▁pull	-997
ckpr	-998
ckpronews	-999
mber	-1000
ckpronewsaapl	-1001
sour	-1002
acc	-1003
ev	-1004
lect	-1005
▁made	-1006
94	-1007
▁shorts	-1008
nbc	-1009
64	-1010
▁273	-1011
ester	-1012
▁cook	-1013
▁stimulus	-1014
▁free	-1015
akes	-1016
▁pump	-1017
▁clos	-1018
▁hard	-1019
▁id	-1020
▁pay	-1021
▁pt	-1022
▁apples	-1023
▁set	-1024
▁ris	-1025
html	-1026
esterday	-1027
umb	-1028
75	-1029
olog	-1030
▁yesterday	-1031
ize	-1032
wh	-1033
eez	-1034
▁2802	-1035
hones	-1036
▁making	-1037
▁partn	-1038
daq	-1039
esnt	-1040
▁sure	-1041
undai	-1042
▁amaz	-1043
ric	-1044
▁nfl	-1045
74	-1046
▁dump	-1047
ollar	-1048
▁doesnt	-1049
93	-1050
asdaq	-1051
▁la	-1052
▁284	-1053
▁level	-1054
edge	-1055
▁nflx	-1056
▁contin	-1057
▁ins	-1058
▁squ	-1059
▁tick	-1060
▁position	-1061
▁feel	-1062
▁might	-1063
▁ste	-1064
cking	-1065
▁ready	-1066
ec	-1067
▁cc	-1068
orth	-1069
ress	-1070
▁chin	-1071
aily	-1072
ild	-1073
▁dollar	-1074
▁ill	-1075
ere	-1076
iness	-1077
▁some	-1078
estock	-1079
▁trend	-1080
▁aw	-1081
▁spl	-1082
amputmmed	-1083
▁sign	-1084
▁show	-1085
tf	-1086
ually	-1087
ased	-1088
▁cheap	-1089
▁2020-12-17	-1090
ues	-1091
▁feb	-1092
comstock	-1093
▁ab	-1094
uc	-1095
ma	-1096
▁gains	-1097
chart	-1098
▁give	-1099
▁i	-1100
▁block	-1101
ann	-1102
ates	-1103
▁bro	-1104
▁trader	-1105
ss	-1106
▁2021-01-09	-1107
iew	-1108
63	-1109
by	-1110
▁wow	-1111
▁aver	-1112
amputmmedium	-1113
ix	-1114
▁ent	-1115
▁conf	-1116
elie	-1117
▁263	-1118
▁2020-12-24	-1119
ace	-1120
anks	-1121
als	-1122
vers	-1123
▁profits	-1124
tra	-1125
▁wont	-1126
lation	-1127
▁read	-1128
▁out	-1129
▁aut	-1130
▁investors	-1131
sive	-1132
▁reason	-1133
▁2020-12-10	-1134
▁gam	-1135
ampa	-1136
▁dem	-1137
▁bb	-1138
▁ca	-1139
bin	-1140
fin	-1141
ire	-1142
▁win	-1143
▁2835	-1144
▁und	-1145
▁split	-1146
ped	-1147
ves	-1148
back	-1149
ething	-1150
itter	-1151
▁act	-1152
ampaign	-1153
▁maybe	-1154
▁nothing	-1155
▁cciv	-1156
fil	-1157
▁nasdaq	-1158
▁something	-1159
73	-1160
▁incre	-1161
ents	-1162
▁squeez	-1163
erest	-1164
ations	-1165
▁sec	-1166
▁et	-1167
▁smart	-1168
▁bus	-1169
if	-1170
▁yet	-1171
con	-1172
▁print	-1173
▁sales	-1174
▁little	-1175
▁traders	-1176
per	-1177
▁sn	-1178
▁hours	-1179
ass	-1180
▁growth	-1181
▁pe	-1182
ontent	-1183
▁two	-1184
▁work	-1185
bl	-1186
▁pltr	-1187
eric	-1188
uary	-1189
▁biden	-1190
▁289	-1191
▁needs	-1192
▁hyundai	-1193
▁pop	-1194
▁interest	-1195
▁disc	-1196
filter	-1197
▁fall	-1198
▁bigg	-1199
▁httpsnews	-1200
▁is	-1201
▁whats	-1202
▁did	-1203
▁bounce	-1204
eeps	-1205
▁possi	-1206
▁sur	-1207
▁kill	-1208
▁daily	-1209
▁youre	-1210
▁dou	-1211
filterio	-1212
▁des	-1213
▁future	-1214
cy	-1215
come	-1216
trad	-1217
▁easy	-1218
▁worth	-1219
▁didnt	-1220
▁fucking	-1221
ward	-1222
▁httpst	-1223
▁jo	-1224
▁says	-1225
sis	-1226
bab	-1227
▁loss	-1228
▁stay	-1229
ny	-1230
tim	-1231
▁miss	-1232
youtube	-1233
ful	-1234
ole	-1235
ology	-1236
▁belie	-1237
▁280	-1238
51	-1239
ath	-1240
fol	-1241
arge	-1242
▁lower	-1243
comnews	-1244
▁par	-1245
coin	-1246
▁gen	-1247
41	-1248
less	-1249
▁guess	-1250
book	-1251
ider	-1252
▁markets	-1253
key	-1254
▁ass	-1255
▁tot	-1256
▁2786	-1257
▁point	-1258
▁dam	-1259
▁thought	-1260
▁em	-1261
appl	-1262
▁americ	-1263
amputmcampaign	-1264
▁nv	-1265
lectric	-1266
▁wallst	-1267
▁2020-12-11	-1268
▁ah	-1269
sourc	-1270
▁2020-12-14	-1271
zy	-1272
▁war	-1273
ices	-1274
▁cover	-1275
▁285	-1276
▁deal	-1277
crets	-1278
▁crash	-1279
▁power	-1280
alysis	-1281
ata	-1282
▁weekly	-1283
ical	-1284
▁business	-1285
estocktwits	-1286
▁average	-1287
ph	-1288
sourcestocktwits	-1289
▁270	-1290
▁gr	-1291
▁manip	-1292
hood	-1293
▁corre	-1294
ments	-1295
▁analysts	-1296
▁hel	-1297
▁off	-1298
social	-1299
▁squeeze	-1300
▁taking	-1301
▁lose	-1302
ved	-1303
ater	-1304
▁ide	-1305
▁least	-1306
▁futures	-1307
▁2021-01-23	-1308
fb	-1309
most	-1310
▁div	-1311
▁dri	-1312
▁tell	-1313
▁march	-1314
ise	-1315
over	-1316
▁happy	-1317
▁ago	-1318
▁bla	-1319
▁comm	-1320
▁record	-1321
▁271	-1322
ody	-1323
▁cry	-1324
▁gap	-1325
▁risk	-1326
▁hist	-1327
▁covid	-1328
▁option	-1329
▁nvda	-1330
▁ath	-1331
binhood	-1332
81	-1333
folio	-1334
▁they	-1335
▁2702	-1336
unch	-1337
▁wtf	-1338
invest	-1339
amputmcontent	-1340
40	-1341
head	-1342
portun	-1343
mill	-1344
ons	-1345
▁use	-1346
▁port	-1347
hip	-1348
ued	-1349
tracking	-1350
sist	-1351
▁pot	-1352
▁doge	-1353
gg	-1354
▁es	-1355
▁everything	-1356
hic	-1357
▁with	-1358
50	-1359
▁gl	-1360
▁mom	-1361
▁less	-1362
▁reme	-1363
▁opportun	-1364
ool	-1365
▁sen	-1366
▁thanks	-1367
chartmill	-1368
socialtracking	-1369
vehic	-1370
aj	-1371
▁past	-1372
▁turn	-1373
▁rel	-1374
▁announce	-1375
fact	-1376
▁rem	-1377
▁2715	-1378
▁total	-1379
▁oh	-1380
▁china	-1381
ident	-1382
ttom	-1383
▁reg	-1384
▁hedge	-1385
oth	-1386
▁trying	-1387
▁2939	-1388
▁buff	-1389
▁retail	-1390
▁ic	-1391
▁done	-1392
▁believe	-1393
▁trades	-1394
ily	-1395
▁waiting	-1396
▁beat	-1397
llion	-1398
91	-1399
▁mas	-1400
▁lead	-1401
▁probab	-1402
ute	-1403
sc	-1404
▁else	-1405
32	-1406
▁isnt	-1407
▁remember	-1408
▁2021-01-30	-1409
80	-1410
▁face	-1411
▁large	-1412
▁street	-1413
▁2021-01-31	-1414
▁under	-1415
▁bottom	-1416
lly	-1417
▁wrong	-1418
▁wed	-1419
ufact	-1420
▁list	-1421
▁weak	-1422
▁290	-1423
▁far	-1424
▁funds	-1425
▁crazy	-1426
▁robinhood	-1427
ene	-1428
pri	-1429
▁sim	-1430
▁moving	-1431
71	-1432
61	-1433
ga	-1434
▁someone	-1435
aps	-1436
ards	-1437
▁small	-1438
ulation	-1439
▁build	-1440
ome	-1441
▁ord	-1442
ential	-1443
▁sol	-1444
▁join	-1445
ahah	-1446
▁2759	-1447
▁sub	-1448
kt	-1449
ile	-1450
90	-1451
▁ob	-1452
ering	-1453
▁probably	-1454
70	-1455
watch	-1456
▁2716	-1457
▁rip	-1458
▁buffet	-1459
▁early	-1460
▁2803	-1461
▁went	-1462
▁stra	-1463
▁action	-1464
▁fun	-1465
▁bearish	-1466
view	-1467
▁amount	-1468
▁2907	-1469
▁game	-1470
▁nok	-1471
no	-1472
▁near	-1473
▁saying	-1474
▁account	-1475
▁capital	-1476
▁trillion	-1477
▁damn	-1478
▁makes	-1479
erg	-1480
ctor	-1481
▁eod	-1482
▁mean	-1483
▁tickers	-1484
alth	-1485
▁pick	-1486
▁almost	-1487
▁2788	-1488
▁inst	-1489
▁technology	-1490
ully	-1491
▁ive	-1492
▁2757	-1493
▁pres	-1494
▁highs	-1495
▁times	-1496
▁anything	-1497
60	-1498
cess	-1499
grad	-1500
▁electric	-1501
oooo	-1502
▁pen	-1503
42	-1504
▁los	-1505
▁partners	-1506
sr	-1507
xy	-1508
▁ok	-1509
time	-1510
▁rum	-1511
▁value	-1512
▁quick	-1513
▁portfolio	-1514
ave	-1515
▁2021-01-24	-1516
iot	-1517
▁ye	-1518
cast	-1519
▁vehic	-1520
▁icar	-1521
▁ahead	-1522
▁super	-1523
▁manufact	-1524
ier	-1525
▁kia	-1526
▁hal	-1527
82	-1528
▁massive	-1529
ack	-1530
alyz	-1531
▁cnbc	-1532
▁moon	-1533
▁all	-1534
analyst	-1535
ete	-1536
▁med	-1537
idend	-1538
▁rest	-1539
tit	-1540
▁cars	-1541
▁away	-1542
coming	-1543
▁fol	-1544
mm	-1545
▁compl	-1546
▁inc	-1547
utions	-1548
▁opportunity	-1549
▁ser	-1550
▁2709	-1551
▁products	-1552
▁bring	-1553
act	-1554
▁added	-1555
fd	-1556
▁gm	-1557
▁beg	-1558
▁fast	-1559
▁test	-1560
▁thank	-1561
▁plan	-1562
▁it	-1563
ler	-1564
min	-1565
stand	-1566
▁2646	-1567
▁2703	-1568
▁find	-1569
ention	-1570
ited	-1571
▁wants	-1572
▁biggest	-1573
▁blow	-1574
▁maj	-1575
▁enough	-1576
▁mod	-1577
▁side	-1578
▁swing	-1579
▁folks	-1580
▁rally	-1581
▁ag	-1582
▁help	-1583
▁breakout	-1584
▁job	-1585
52	-1586
▁line	-1587
▁count	-1588
bt	-1589
▁pati	-1590
▁giv	-1591
mp	-1592
upid	-1593
▁dips	-1594
dl	-1595
vis	-1596
▁hear	-1597
▁dividend	-1598
bo	-1599
▁goev	-1600
▁possible	-1601
▁gi	-1602
stocks	-1603
for	-1604
ines	-1605
▁phone	-1606
▁potential	-1607
ubl	-1608
▁pm	-1609
▁serv	-1610
▁major	-1611
mer	-1612
▁seen	-1613
▁lost	-1614
▁seems	-1615
▁history	-1616
ci	-1617
▁yes	-1618
▁yall	-1619
▁fly	-1620
▁slow	-1621
▁whole	-1622
▁elon	-1623
car	-1624
▁wond	-1625
▁continue	-1626
▁indust	-1627
▁resist	-1628
▁2714	-1629
bu	-1630
▁care	-1631
▁stupid	-1632
▁sk	-1633
▁baby	-1634
▁things	-1635
▁batter	-1636
ared	-1637
▁old	-1638
▁google	-1639
72	-1640
▁jump	-1641
▁scre	-1642
▁bitcoin	-1643
▁ws	-1644
▁lear	-1645
▁rele	-1646
▁air	-1647
▁form	-1648
▁imag	-1649
▁actually	-1650
velop	-1651
▁recent	-1652
▁twitter	-1653
▁tax	-1654
▁moment	-1655
how	-1656
mas	-1657
▁pat	-1658
▁cle	-1659
▁thinking	-1660
▁att	-1661
▁dow	-1662
▁expl	-1663
▁push	-1664
rs	-1665
▁ups	-1666
▁dumb	-1667
mt	-1668
▁rais	-1669
▁amazon	-1670
▁ride	-1671
▁half	-1672
▁theres	-1673
▁httpswwwc	-1674
▁2717	-1675
▁2789	-1676
92	-1677
▁sit	-1678
mc	-1679
ati	-1680
▁mm	-1681
▁bur	-1682
▁pol	-1683
▁upd	-1684
ips	-1685
62	-1686
comp	-1687
▁equ	-1688
▁net	-1689
▁2724	-1690
▁hell	-1691
▁return	-1692
my	-1693
▁af	-1694
▁upgrad	-1695
▁sy	-1696
ahoo	-1697
▁adv	-1698
▁cou	-1699
▁av	-1700
▁ww	-1701
▁2687	-1702
ament	-1703
fully	-1704
▁industry	-1705
▁likely	-1706
gt	-1707
new	-1708
ject	-1709
▁down	-1710
▁late	-1711
▁leg	-1712
▁2906	-1713
▁gla	-1714
▁mac	-1715
▁luck	-1716
▁change	-1717
▁2946	-1718
▁coll	-1719
ike	-1720
uss	-1721
▁positive	-1722
▁mr	-1723
▁boys	-1724
▁incl	-1725
ition	-1726
▁2645	-1727
▁rock	-1728
read	-1729
▁comes	-1730
▁due	-1731
▁cla	-1732
get	-1733
tire	-1734
▁must	-1735
▁roll	-1736
▁crypt	-1737
▁size	-1738
ities	-1739
▁pred	-1740
▁took	-1741
▁range	-1742
▁imagine	-1743
▁resistance	-1744
▁finally	-1745
here	-1746
▁2719	-1747
▁2908	-1748
▁sweeps	-1749
the	-1750
▁etc	-1751
▁imp	-1752
ned	-1753
▁life	-1754
▁till	-1755
co	-1756
ream	-1757
▁vid	-1758
▁2706	-1759
atform	-1760
▁mic	-1761
ner	-1762
▁fsr	-1763
▁idiot	-1764
▁happened	-1765
▁lma	-1766
ffe	-1767
▁though	-1768
rist	-1769
▁2704	-1770
▁correction	-1771
▁vacc	-1772
▁weekend	-1773
▁theyre	-1774
▁recover	-1775
▁facebook	-1776
hold	-1777
▁291	-1778
▁2938	-1779
utes	-1780
▁pass	-1781
▁video	-1782
ik	-1783
ye	-1784
ead	-1785
ply	-1786
option	-1787
tty	-1788
▁uv	-1789
aire	-1790
▁inf	-1791
▁flow	-1792
▁matter	-1793
▁january	-1794
▁consolid	-1795
use	-1796
▁2686	-1797
▁pullback	-1798
vious	-1799
▁team	-1800
▁expected	-1801
▁gt	-1802
▁later	-1803
estop	-1804
▁held	-1805
▁joke	-1806
▁2647	-1807
▁investment	-1808
▁bank	-1809
▁hands	-1810
▁understand	-1811
▁amazing	-1812
▁started	-1813
▁2663	-1814
▁2727	-1815
▁suck	-1816
ouse	-1817
earch	-1818
comm	-1819
▁based	-1820
▁serious	-1821
org	-1822
▁reach	-1823
bdd	-1824
▁fore	-1825
▁mess	-1826
comar	-1827
ither	-1828
▁develop	-1829
▁perform	-1830
▁2945	-1831
▁gets	-1832
▁related	-1833
▁premarket	-1834
ness	-1835
▁watching	-1836
af	-1837
usk	-1838
▁dj	-1839
▁starting	-1840
strad	-1841
▁2913	-1842
▁pretty	-1843
▁working	-1844
▁2729	-1845
▁left	-1846
▁uvxy	-1847
ict	-1848
▁281	-1849
▁2627	-1850
▁cong	-1851
▁god	-1852
▁ton	-1853
ublic	-1854
ration	-1855
▁positions	-1856
▁2914	-1857
▁su	-1858
rats	-1859
ros	-1860
▁marg	-1861
▁platform	-1862
val	-1863
▁fe	-1864
▁todays	-1865
of	-1866
cing	-1867
▁eff	-1868
▁spe	-1869
▁2804	-1870
▁closed	-1871
ddit	-1872
▁inter	-1873
cap	-1874
▁2937	-1875
others	-1876
▁double	-1877
comapple	-1878
▁pers	-1879
bba	-1880
ult	-1881
ility	-1882
▁chance	-1883
▁2728	-1884
▁wish	-1885
▁product	-1886
▁investing	-1887
▁fed	-1888
ticles	-1889
▁happens	-1890
omo	-1891
▁ph	-1892
▁tank	-1893
▁breaking	-1894
▁larg	-1895
▁using	-1896
▁can	-1897
▁wonder	-1898
cle	-1899
ases	-1900
▁mms	-1901
▁media	-1902
trading	-1903
aa	-1904
▁max	-1905
▁vot	-1906
▁black	-1907
▁adding	-1908
▁kid	-1909
▁contr	-1910
▁christ	-1911
▁cre	-1912
▁talking	-1913
▁couple	-1914
rr	-1915
cent	-1916
▁launch	-1917
▁httpswwwcnbc	-1918
▁ceo	-1919
▁gold	-1920
▁lmao	-1921
▁manipulation	-1922
ng	-1923
▁boom	-1924
▁health	-1925
▁battery	-1926
▁data	-1927
▁exce	-1928
▁revers	-1929
nd	-1930
ware	-1931
▁httpsyoutube	-1932
we	-1933
▁pan	-1934
▁2659	-1935
▁2725	-1936
▁entry	-1937
▁stocktwits	-1938
off	-1939
▁increase	-1940
air	-1941
▁wmt	-1942
hy	-1943
itch	-1944
▁live	-1945
▁dig	-1946
▁tues	-1947
▁prices	-1948
▁partnership	-1949
ugg	-1950
▁qcom	-1951
accbdd	-1952
ds	-1953
ope	-1954
▁2956	-1955
▁djia	-1956
keybba	-1957
▁confir	-1958
accbddfb	-1959
▁production	-1960
accbddfbamputm	-1961
▁cat	-1962
▁without	-1963
▁solutions	-1964
▁2021-02-07	-1965
▁vs	-1966
▁mid	-1967
▁demand	-1968
ty	-1969
▁2920	-1970
▁store	-1971
▁hopefully	-1972
wor	-1973
▁iphones	-1974
uation	-1975
▁either	-1976
▁ques	-1977
▁292	-1978
▁2718	-1979
▁fact	-1980
▁cross	-1981
▁worst	-1982
▁investor	-1983
man	-1984
ution	-1985
▁full	-1986
▁secrets	-1987
oom	-1988
ral	-1989
itic	-1990
▁2815	-1991
▁plug	-1992
ox	-1993
bit	-1994
▁gra	-1995
▁stri	-1996
rating	-1997
straders	-1998
▁control	-1999
oup	-2000
fund	-2001
▁dead	-2002
▁seem	-2003
ode	-2004
tes	-2005
▁ge	-2006
onom	-2007
▁2628	-2008
ulated	-2009
▁broke	-2010
▁diffe	-2011
▁gamestop	-2012
▁levels	-2013
▁sense	-2014
▁announ	-2015
analysis	-2016
▁shorting	-2017
fr	-2018
▁abs	-2019
▁2713	-2020
▁26615	-2021
▁phones	-2022
▁2726	-2023
▁fill	-2024
▁tuesday	-2025
▁analysis	-2026
stem	-2027
▁dogex	-2028
▁penny	-2029
▁2020-12-20	-2030
000	-2031
▁numb	-2032
secrets	-2033
▁dollars	-2034
ese	-2035
▁httpsqu	-2036
▁announcement	-2037
▁minutes	-2038
vr	-2039
att	-2040
▁fr	-2041
▁crap	-2042
▁dire	-2043
▁kind	-2044
▁instead	-2045
ield	-2046
▁cal	-2047
▁flo	-2048
▁rich	-2049
▁told	-2050
more	-2051
▁begin	-2052
▁numbers	-2053
▁cy	-2054
▁beh	-2055
▁mark	-2056
ular	-2057
abits	-2058
▁rela	-2059
▁2021-01-16	-2060
ane	-2061
▁2739	-2062
▁chang	-2063
▁currently	-2064
▁dev	-2065
▁2916	-2066
▁friend	-2067
▁millions	-2068
287	-2069
▁surpri	-2070
▁vehicle	-2071
youtubecom	-2072
▁happening	-2073
ns	-2074
▁exc	-2075
▁mind	-2076
▁2021-01-18	-2077
▁2021-02-15	-2078
ied	-2079
nes	-2080
idar	-2081
line	-2082
▁2708	-2083
optionstraders	-2084
▁ask	-2085
▁rid	-2086
▁tur	-2087
▁order	-2088
▁talks	-2089
aiposthow	-2090
▁dra	-2091
▁cour	-2092
▁appro	-2093
▁manufacture	-2094
aipostsecrets	-2095
▁wwwsmartoptions	-2096
eet	-2097
▁sel	-2098
▁crypto	-2099
▁others	-2100
oft	-2101
ted	-2102
▁qs	-2103
▁ext	-2104
▁imo	-2105
▁2903	-2106
ta	-2107
▁prot	-2108
ouch	-2109
▁sale	-2110
▁means	-2111
▁2021-02-06	-2112
sp	-2113
amps	-2114
▁2756	-2115
▁christmas	-2116
▁2902	-2117
▁yeah	-2118
▁board	-2119
insider	-2120
▁seeing	-2121
ker	-2122
▁2735	-2123
▁2919	-2124
▁2959	-2125
ending	-2126
▁charts	-2127
au	-2128
fc	-2129
urs	-2130
▁rep	-2131
▁buys	-2132
▁mvis	-2133
▁democ	-2134
▁upside	-2135
fect	-2136
▁2021-02-20	-2137
tech	-2138
▁eow	-2139
▁goo	-2140
ether	-2141
▁rise	-2142
▁solid	-2143
perform	-2144
▁2836	-2145
▁cost	-2146
youtubecomwatch	-2147
uz	-2148
ants	-2149
berg	-2150
▁talk	-2151
▁minim	-2152
▁wouldnt	-2153
▁profitable	-2154
▁case	-2155
▁includ	-2156
▁parler	-2157
conom	-2158
▁sndl	-2159
▁are	-2160
▁expi	-2161
▁28349	-2162
you	-2163
▁fail	-2164
ude	-2165
quote	-2166
▁2957	-2167
▁hate	-2168
finance	-2169
▁called	-2170
▁bas	-2171
▁2736	-2172
▁2915	-2173
▁flat	-2174
▁night	-2175
▁manage	-2176
▁social	-2177
▁largest	-2178
▁partner	-2179
▁question	-2180
▁2021-01-03	-2181
sw	-2182
▁po	-2183
▁bub	-2184
▁knows	-2185
▁intc	-2186
usnews	-2187
▁defin	-2188
fer	-2189
gra	-2190
▁pur	-2191
▁bs	-2192
▁2749	-2193
▁2758	-2194
nesday	-2195
ex	-2196
ero	-2197
▁dd	-2198
▁mul	-2199
▁2748	-2200
▁used	-2201
▁closing	-2202
▁sq	-2203
down	-2204
eech	-2205
▁wel	-2206
▁margin	-2207
rum	-2208
ruary	-2209
▁bill	-2210
▁plus	-2211
oot	-2212
asnt	-2213
ults	-2214
▁room	-2215
▁econom	-2216
▁mag	-2217
▁pain	-2218
▁reversal	-2219
ever	-2220
▁clear	-2221
▁compe	-2222
▁place	-2223
▁three	-2224
▁mention	-2225
▁running	-2226
quoteaapl	-2227
▁aal	-2228
▁ark	-2229
▁2909	-2230
data	-2231
▁2922	-2232
rosoft	-2233
aker	-2234
▁hey	-2235
▁2904	-2236
▁heav	-2237
▁link	-2238
▁patter	-2239
▁guy	-2240
▁sept	-2241
hs	-2242
way	-2243
▁2705	-2244
▁able	-2245
▁politic	-2246
nn	-2247
▁fu	-2248
▁eps	-2249
ision	-2250
▁2944	-2251
▁chip	-2252
176	-2253
▁sor	-2254
▁indic	-2255
lo	-2256
ically	-2257
▁person	-2258
▁complete	-2259
pp	-2260
joy	-2261
ancial	-2262
▁absol	-2263
▁entire	-2264
ately	-2265
onomous	-2266
▁fla	-2267
▁suc	-2268
▁2837	-2269
▁2838	-2270
▁glad	-2271
▁wednesday	-2272
ames	-2273
▁idea	-2274
▁qual	-2275
antdata	-2276
▁perfect	-2277
antdatausnews	-2278
cer	-2279
where	-2280
▁should	-2281
▁2021-01-17	-2282
net	-2283
ott	-2284
ster	-2285
▁movement	-2286
▁learn	-2287
▁absolute	-2288
▁bn	-2289
uring	-2290
▁dest	-2291
▁enjoy	-2292
▁vaccine	-2293
cks	-2294
ubo	-2295
erally	-2296
▁bitch	-2297
▁speech	-2298
▁warren	-2299
188	-2300
tta	-2301
▁iv	-2302
ores	-2303
▁mkt	-2304
▁2879	-2305
▁musk	-2306
▁sorry	-2307
▁space	-2308
youtubecomwatchv	-2309
127	-2310
202	-2311
▁26613	-2312
▁trash	-2313
▁america	-2314
stockaapl	-2315
▁confident	-2316
from	-2317
▁shop	-2318
▁crush	-2319
▁multi	-2320
▁2722	-2321
▁corp	-2322
▁true	-2323
cember	-2324
▁forget	-2325
▁losses	-2326
▁points	-2327
189	-2328
▁hes	-2329
▁2887	-2330
▁plays	-2331
ru	-2332
▁2955	-2333
▁safe	-2334
▁drops	-2335
▁heres	-2336
ampp	-2337
▁hon	-2338
▁pfe	-2339
▁2021-02-21	-2340
sold	-2341
▁reddit	-2342
▁american	-2343
▁fear	-2344
▁fubo	-2345
▁2021-02-13	-2346
analyz	-2347
▁moves	-2348
▁forward	-2349
▁spx	-2350
▁tre	-2351
▁snap	-2352
▁lidar	-2353
▁trending	-2354
166	-2355
aha	-2356
rup	-2357
▁main	-2358
▁2746	-2359
▁volati	-2360
214	-2361
219	-2362
▁inde	-2363
▁trap	-2364
ertain	-2365
▁event	-2366
▁hur	-2367
▁spread	-2368
▁reported	-2369
▁.	-2370
ech	-2371
▁2626	-2372
▁2947	-2373
▁microsoft	-2374
ib	-2375
ung	-2376
▁keeps	-2377
▁become	-2378
ok	-2379
ios	-2380
nov	-2381
yahoo	-2382
▁strike	-2383
169	-2384
ius	-2385
body	-2386
▁saw	-2387
▁tow	-2388
▁spec	-2389
▁buyers	-2390
▁february	-2391
177	-2392
coms	-2393
▁boy	-2394
▁2657	-2395
▁2021-01-02	-2396
▁ya	-2397
▁2644	-2398
▁2648	-2399
▁cents	-2400
▁bubble	-2401
▁incoming	-2402
▁vix	-2403
▁hahah	-2404
▁house	-2405
apps	-2406
umps	-2407
▁26614	-2408
analyzer	-2409
▁interesting	-2410
179	-2411
ensus	-2412
▁2856	-2413
▁meet	-2414
witter	-2415
▁second	-2416
▁results	-2417
▁services	-2418
comstockanalyzer	-2419
▁tm	-2420
short	-2421
▁2720	-2422
▁2936	-2423
▁riot	-2424
077	-2425
▁bra	-2426
▁jun	-2427
▁mem	-2428
filterioa	-2429
▁consensus	-2430
pos	-2431
▁lim	-2432
▁luc	-2433
▁2666	-2434
▁2857	-2435
▁nega	-2436
▁sleep	-2437
178	-2438
scri	-2439
▁reb	-2440
umber	-2441
▁2825	-2442
▁2826	-2443
▁cand	-2444
▁gener	-2445
▁handle	-2446
▁sector	-2447
▁oversold	-2448
▁literally	-2449
▁at	-2450
▁nd	-2451
▁cup	-2452
▁2769	-2453
▁losing	-2454
▁feeling	-2455
▁expecting	-2456
▁2021-01-01	-2457
21:00	-2458
▁2723	-2459
▁update	-2460
▁2020-12-27	-2461
▁wk	-2462
▁fam	-2463
www	-2464
▁sing	-2465
▁reports	-2466
▁success	-2467
▁dropping	-2468
ril	-2469
top	-2470
▁own	-2471
▁gone	-2472
▁fight	-2473
▁december	-2474
▁straight	-2475
▁financial	-2476
obal	-2477
▁2658	-2478
▁allow	-2479
▁touch	-2480
▁loaded	-2481
▁autonomous	-2482
ku	-2483
mb	-2484
066	-2485
129	-2486
ired	-2487
▁leaps	-2488
▁reasons	-2489
▁patience	-2490
▁bond	-2491
▁worri	-2492
▁thoughts	-2493
167	-2494
rence	-2495
▁innov	-2496
▁genius	-2497
ator	-2498
itely	-2499
▁along	-2500
▁press	-2501
▁president	-2502
099	-2503
why	-2504
▁jp	-2505
▁lots	-2506
▁loading	-2507
186	-2508
ered	-2509
▁2747	-2510
▁percent	-2511
cc	-2512
102	-2513
187	-2514
▁gar	-2515
asing	-2516
ative	-2517
stocktwits	-2518
nb	-2519
▁crm	-2520
▁eur	-2521
▁possib	-2522
▁wallstreet	-2523
▁httpsyoutub	-2524
gn	-2525
057	-2526
ling	-2527
▁2929	-2528
riving	-2529
199	-2530
▁ble	-2531
▁rsi	-2532
14:50	-2533
akers	-2534
▁sampp	-2535
hh	-2536
183	-2537
annel	-2538
▁2839	-2539
▁jobs	-2540
▁within	-2541
▁following	-2542
vern	-2543
▁det	-2544
▁key	-2545
▁2639	-2546
▁april	-2547
▁takes	-2548
▁2020-12-19	-2549
184	-2550
▁2655	-2551
▁hoping	-2552
▁research	-2553
159	-2554
ergy	-2555
quid	-2556
iting	-2557
▁2679	-2558
▁2795	-2559
▁clim	-2560
▁consider	-2561
▁sharehold	-2562
128	-2563
▁aff	-2564
▁mer	-2565
▁2635	-2566
▁obvious	-2567
▁playing	-2568
▁momentum	-2569
anna	-2570
iring	-2571
oring	-2572
▁2643	-2573
▁2677	-2574
▁name	-2575
▁longer	-2576
bets	-2577
▁definitely	-2578
146	-2579
cel	-2580
gth	-2581
▁pie	-2582
▁cause	-2583
oog	-2584
ven	-2585
side	-2586
▁area	-2587
▁save	-2588
▁scal	-2589
▁longs	-2590
▁lucid	-2591
▁proble	-2592
▁subscri	-2593
▁00	-2594
ging	-2595
izer	-2596
▁anymore	-2597
▁tonight	-2598
▁2020-12-26	-2599
ian	-2600
roy	-2601
▁ai	-2602
ains	-2603
conn	-2604
▁fav	-2605
cially	-2606
▁welcome	-2607
zz	-2608
pro	-2609
▁eoy	-2610
▁sch	-2611
▁blue	-2612
▁home	-2613
▁system	-2614
173	-2615
used	-2616
▁ele	-2617
21:01	-2618
▁2664	-2619
▁estim	-2620
▁screw	-2621
▁commun	-2622
▁negative	-2623
▁fundament	-2624
079	-2625
oly	-2626
▁acqu	-2627
▁ways	-2628
▁design	-2629
▁posted	-2630
▁outperform	-2631
156	-2632
▁tv	-2633
▁dep	-2634
▁iss	-2635
▁2824	-2636
▁deep	-2637
▁fell	-2638
▁agree	-2639
▁panic	-2640
▁worry	-2641
▁analyz	-2642
055	-2643
174	-2644
apples	-2645
▁single	-2646
122	-2647
kng	-2648
▁how	-2649
14:48	-2650
▁hits	-2651
▁falling	-2652
bb	-2653
mo	-2654
acy	-2655
gan	-2656
ties	-2657
▁sky	-2658
uters	-2659
▁fake	-2660
▁rate	-2661
▁gotta	-2662
▁yield	-2663
▁listen	-2664
▁message	-2665
185	-2666
197	-2667
▁wsb	-2668
▁2629	-2669
▁purch	-2670
▁raised	-2671
▁discord	-2672
▁stockmarket	-2673
073	-2674
096	-2675
155	-2676
roll	-2677
▁hav	-2678
14:49	-2679
▁2665	-2680
▁2689	-2681
▁2935	-2682
▁2949	-2683
▁behind	-2684
▁instit	-2685
▁heading	-2686
▁4	-2687
▁sil	-2688
▁sla	-2689
▁kids	-2690
▁priv	-2691
▁prop	-2692
ooo	-2693
utt	-2694
▁fil	-2695
capital	-2696
▁global	-2697
▁govern	-2698
168	-2699
ands	-2700
goog	-2701
▁liquid	-2702
▁missed	-2703
investing	-2704
089	-2705
pod	-2706
▁on	-2707
20:53	-2708
▁2649	-2709
▁cann	-2710
▁fool	-2711
▁pton	-2712
▁roku	-2713
▁thurs	-2714
▁bigger	-2715
▁number	-2716
▁announced	-2717
▁seriously	-2718
bush	-2719
21:02	-2720
▁2958	-2721
▁4000	-2722
▁holid	-2723
▁opening	-2724
▁project	-2725
069	-2726
▁cho	-2727
▁2765	-2728
▁group	-2729
▁rates	-2730
▁predic	-2731
wm	-2732
ird	-2733
ley	-2734
teg	-2735
lity	-2736
▁eng	-2737
ember	-2738
▁after	-2739
▁trans	-2740
003	-2741
uff	-2742
bage	-2743
vered	-2744
▁2766	-2745
▁dkng	-2746
▁easily	-2747
087	-2748
ams	-2749
inion	-2750
▁2676	-2751
▁2813	-2752
▁came	-2753
▁party	-2754
▁discount	-2755
14:42	-2756
14:55	-2757
ratings	-2758
▁europe	-2759
▁pattern	-2760
002	-2761
086	-2762
124	-2763
147	-2764
ages	-2765
▁est	-2766
14:56	-2767
▁2688	-2768
▁spce	-2769
▁killing	-2770
▁different	-2771
▁robinhooders	-2772
113	-2773
▁boo	-2774
▁hot	-2775
▁exact	-2776
▁ticker	-2777
▁chinese	-2778
▁thursday	-2779
148	-2780
163	-2781
mon	-2782
▁prin	-2783
▁climb	-2784
▁havent	-2785
▁destroy	-2786
▁consolidation	-2787
059	-2788
076	-2789
144	-2790
mac	-2791
▁hc	-2792
▁via	-2793
14:45	-2794
▁fomo	-2795
google	-2796
▁names	-2797
▁energy	-2798
▁garbage	-2799
▁surpris	-2800
▁catalyst	-2801
013	-2802
088	-2803
377	-2804
ilar	-2805
aring	-2806
ording	-2807
▁rating	-2808
▁2020-12-12	-2809
056	-2810
126	-2811
175	-2812
▁bag	-2813
14:57	-2814
tiful	-2815
▁faang	-2816
▁rumors	-2817
004	-2818
095	-2819
103	-2820
149	-2821
oud	-2822
▁cri	-2823
14:41	-2824
15:09	-2825
▁sound	-2826
▁finish	-2827
▁httpstwitter	-2828
fs	-2829
097	-2830
120	-2831
195	-2832
▁zm	-2833
14:58	-2834
▁morgan	-2835
▁rocket	-2836
165	-2837
299	-2838
477	-2839
▁ep	-2840
▁ib	-2841
irus	-2842
with	-2843
▁beau	-2844
oomberg	-2845
pecially	-2846
▁buffett	-2847
▁recently	-2848
▁september	-2849
pev	-2850
▁tl	-2851
reed	-2852
15:01	-2853
▁steve	-2854
▁stores	-2855
▁country	-2856
▁release	-2857
065	-2858
157	-2859
▁wtr	-2860
ustom	-2861
▁paid	-2862
▁channel	-2863
buy	-2864
orn	-2865
▁sad	-2866
▁wal	-2867
▁2737	-2868
▁2923	-2869
▁fire	-2870
rength	-2871
123	-2872
125	-2873
▁ver	-2874
▁wtrh	-2875
▁float	-2876
▁idiots	-2877
lier	-2878
shit	-2879
▁nak	-2880
14:43	-2881
14:52	-2882
▁aint	-2883
▁kick	-2884
▁especially	-2885
026	-2886
196	-2887
456	-2888
ense	-2889
▁send	-2890
▁xpev	-2891
▁bleed	-2892
▁sideways	-2893
financeyahoo	-2894
399	-2895
▁vi	-2896
▁soft	-2897
▁course	-2898
▁buyback	-2899
▁dumping	-2900
▁upgrades	-2901
▁including	-2902
▁2021-02-14	-2903
▁performance	-2904
067	-2905
ism	-2906
14:40	-2907
20:57	-2908
ulous	-2909
▁mrna	-2910
▁chips	-2911
▁driving	-2912
▁ur	-2913
ners	-2914
14:46	-2915
▁2777	-2916
▁blood	-2917
▁senti	-2918
▁strength	-2919
▁millionaire	-2920
gr	-2921
058	-2922
085	-2923
164	-2924
488	-2925
▁and	-2926
▁inv	-2927
▁mot	-2928
20:56	-2929
▁2694	-2930
▁2954	-2931
▁dropped	-2932
▁according	-2933
▁beautiful	-2934
068	-2935
ific	-2936
▁lock	-2937
▁norm	-2938
▁wkhs	-2939
▁stand	-2940
markets	-2941
ogether	-2942
▁supply	-2943
458	-2944
14:53	-2945
allst	-2946
▁stan	-2947
report	-2948
▁powell	-2949
applecar	-2950
comarticles	-2951
075	-2952
▁fox	-2953
14:38	-2954
ators	-2955
▁wanted	-2956
▁targets	-2957
047	-2958
209	-2959
366	-2960
emic	-2961
reme	-2962
▁cool	-2963
▁zero	-2964
ushing	-2965
▁arent	-2966
▁opinion	-2967
br	-2968
083	-2969
198	-2970
▁or	-2971
▁bri	-2972
20:59	-2973
▁2656	-2974
▁itll	-2975
▁model	-2976
▁honest	-2977
▁public	-2978
▁starts	-2979
▁sitting	-2980
▁volatility	-2981
aut	-2982
post	-2983
▁str	-2984
▁bidu	-2985
▁custom	-2986
074	-2987
193	-2988
▁bar	-2989
▁strateg	-2990
▁continues	-2991
▁httpswwwcnbccom	-2992
078	-2993
194	-2994
▁ref	-2995
▁tsm	-2996
creen	-2997
phone	-2998
▁2849	-2999
▁date	-3000
▁funny	-3001
▁works	-3002
▁unless	-3003
▁sellers	-3004
▁building	-3005
▁sentiment	-3006
459	-3007
ots	-3008
know	-3009
15:07	-3010
berry	-3011
▁bngo	-3012
▁catch	-3013
▁wanna	-3014
▁together	-3015
015	-3016
098	-3017
fit	-3018
tom	-3019
▁ign	-3020
14:47	-3021
ature	-3022
ently	-3023
rency	-3024
trend	-3025
▁fcel	-3026
should	-3027
▁insane	-3028
297	-3029
ret	-3030
▁vw	-3031
eeee	-3032
▁smh	-3033
▁2695	-3034
▁mins	-3035
▁ones	-3036
▁found	-3037
▁billions	-3038
▁compared	-3039
▁2020-12-13	-3040
analystratings	-3041
217	-3042
ploy	-3043
▁mil	-3044
14:36	-3045
15:03	-3046
16:10	-3047
▁lows	-3048
million	-3049
▁technical	-3050
▁government	-3051
226	-3052
▁acce	-3053
▁breaks	-3054
▁cramer	-3055
▁printed	-3056
▁valuation	-3057
115	-3058
289	-3059
14:54	-3060
15:29	-3061
▁2667	-3062
▁fucked	-3063
▁analyzed	-3064
ca	-3065
nx	-3066
049	-3067
213	-3068
215	-3069
▁dia	-3070
▁2654	-3071
▁ipad	-3072
▁alerts	-3073
206	-3074
466	-3075
499	-3076
▁py	-3077
ther	-3078
▁alg	-3079
14:37	-3080
14:51	-3081
20:58	-3082
▁fine	-3083
▁wake	-3084
▁drive	-3085
umm	-3086
▁fra	-3087
14:39	-3088
▁sour	-3089
▁view	-3090
utting	-3091
▁timmy	-3092
▁import	-3093
fdriving	-3094
bs	-3095
455	-3096
869	-3097
▁gs	-3098
aged	-3099
work	-3100
21:03	-3101
▁cred	-3102
▁step	-3103
▁correct	-3104
yy	-3105
867	-3106
15:16	-3107
15:19	-3108
istic	-3109
▁2867	-3110
▁pand	-3111
▁plans	-3112
▁state	-3113
▁vehicles	-3114
033	-3115
054	-3116
kes	-3117
▁laz	-3118
15:05	-3119
15:13	-3120
15:27	-3121
▁posts	-3122
▁rumor	-3123
▁everyday	-3124
036	-3125
145	-3126
276	-3127
▁nob	-3128
▁ter	-3129
16:40	-3130
▁2683	-3131
▁2823	-3132
▁2858	-3133
▁2859	-3134
▁prom	-3135
▁shut	-3136
▁decision	-3137
045	-3138
267	-3139
279	-3140
469	-3141
899	-3142
eth	-3143
▁hor	-3144
20:54	-3145
source	-3146
▁priced	-3147
▁confirm	-3148
▁friends	-3149
038	-3150
134	-3151
▁log	-3152
▁pel	-3153
15:17	-3154
▁bene	-3155
▁boun	-3156
▁hcmc	-3157
▁shows	-3158
▁youll	-3159
▁economy	-3160
▁recovery	-3161
▁surprised	-3162
216	-3163
bad	-3164
15:10	-3165
▁2899	-3166
▁decl	-3167
▁guid	-3168
▁piece	-3169
▁users	-3170
▁towards	-3171
▁congrats	-3172
046	-3173
093	-3174
207	-3175
218	-3176
227	-3177
266	-3178
343	-3179
pha	-3180
tis	-3181
▁eu	-3182
▁ty	-3183
tick	-3184
▁bun	-3185
15:04	-3186
ocket	-3187
▁coin	-3188
▁gift	-3189
eeking	-3190
wallst	-3191
▁enter	-3192
▁ridic	-3193
▁orders	-3194
053	-3195
143	-3196
296	-3197
eri	-3198
15:06	-3199
15:18	-3200
15:28	-3201
▁whos	-3202
▁ideas	-3203
▁competi	-3204
▁httpswwwb	-3205
011	-3206
084	-3207
277	-3208
357	-3209
369	-3210
bers	-3211
15:14	-3212
atest	-3213
enews	-3214
▁haha	-3215
▁favor	-3216
064	-3217
388	-3218
484	-3219
897	-3220
enz	-3221
iver	-3222
▁bre	-3223
▁fit	-3224
▁mob	-3225
15:02	-3226
▁pypl	-3227
▁spot	-3228
▁earlier	-3229
▁service	-3230
▁worried	-3231
▁absolutely	-3232
133	-3233
▁fk	-3234
▁td	-3235
adem	-3236
ides	-3237
15:26	-3238
21:08	-3239
night	-3240
▁2764	-3241
▁auto	-3242
▁snow	-3243
▁sugg	-3244
▁heard	-3245
▁suppl	-3246
amental	-3247
▁discuss	-3248
▁bullshit	-3249
▁multiple	-3250
024	-3251
029	-3252
239	-3253
che	-3254
isk	-3255
oof	-3256
▁ju	-3257
▁om	-3258
16:13	-3259
never	-3260
▁hype	-3261
▁disapp	-3262
▁minute	-3263
▁holders	-3264
▁2020-12-25	-3265
027	-3266
028	-3267
138	-3268
139	-3269
257	-3270
298	-3271
457	-3272
ldr	-3273
▁bi	-3274
▁zom	-3275
14:44	-3276
15:22	-3277
137	-3278
359	-3279
▁ub	-3280
load	-3281
14:34	-3282
15:00	-3283
erval	-3284
▁brok	-3285
▁sens	-3286
▁stud	-3287
▁extreme	-3288
fundamental	-3289
▁ridiculous	-3290
amputmmediumfa	-3291
208	-3292
comc	-3293
▁repe	-3294
▁expiring	-3295
analysiskeybba	-3296
116	-3297
288	-3298
367	-3299
tice	-3300
▁rot	-3301
20:55	-3302
▁2768	-3303
▁2779	-3304
▁effect	-3305
▁httpss	-3306
▁senate	-3307
136	-3308
236	-3309
285	-3310
iny	-3311
▁ru	-3312
rupt	-3313
15:25	-3314
board	-3315
▁2866	-3316
▁2918	-3317
▁charg	-3318
▁trust	-3319
▁problem	-3320
▁pandemic	-3321
249	-3322
483	-3323
866	-3324
▁wr	-3325
15:15	-3326
▁cent	-3327
▁remo	-3328
▁underval	-3329
▁manufacturer	-3330
dy	-3331
237	-3332
▁lt	-3333
just	-3334
ooks	-3335
15:11	-3336
15:12	-3337
aster	-3338
iphone	-3339
▁train	-3340
259	-3341
ross	-3342
▁jpm	-3343
▁obs	-3344
14:59	-3345
15:30	-3346
20:47	-3347
▁2846	-3348
▁checks	-3349
▁posting	-3350
▁shorted	-3351
▁beginning	-3352
▁important	-3353
035	-3354
385	-3355
but	-3356
▁mc	-3357
aken	-3358
hare	-3359
▁foc	-3360
15:20	-3361
20:40	-3362
▁2953	-3363
▁mara	-3364
▁class	-3365
▁index	-3366
▁moved	-3367
▁needed	-3368
stockaaplview	-3369
▁manufacturing	-3370
286	-3371
496	-3372
▁ot	-3373
▁ps	-3374
▁iwm	-3375
15:23	-3376
15:35	-3377
▁bell	-3378
▁vote	-3379
ession	-3380
▁heavy	-3381
amputmmediumta	-3382
je	-3383
063	-3384
▁dom	-3385
▁fis	-3386
16:06	-3387
17:23	-3388
20:52	-3389
21:09	-3390
▁dark	-3391
▁ston	-3392
▁cannot	-3393
▁growing	-3394
▁software	-3395
009	-3396
037	-3397
376	-3398
379	-3399
898	-3400
ief	-3401
▁ir	-3402
▁cut	-3403
15:24	-3404
amsung	-3405
▁uptrend	-3406
▁undervalued	-3407
247	-3408
356	-3409
373	-3410
abor	-3411
fort	-3412
21:06	-3413
▁anti	-3414
▁brand	-3415
▁sells	-3416
▁corpor	-3417
▁recomm	-3418
▁rising	-3419
▁stream	-3420
▁however	-3421
▁showing	-3422
▁wedbush	-3423
▁shareholders	-3424
105	-3425
283	-3426
873	-3427
aila	-3428
▁mad	-3429
esome	-3430
▁2817	-3431
▁vers	-3432
▁given	-3433
▁greed	-3434
▁initi	-3435
▁leave	-3436
▁giving	-3437
▁nobody	-3438
▁exactly	-3439
▁pumping	-3440
mw	-3441
044	-3442
876	-3443
21:04	-3444
▁knew	-3445
▁bunch	-3446
▁canoo	-3447
▁dream	-3448
▁raise	-3449
illions	-3450
▁rebound	-3451
▁returns	-3452
ha	-3453
238	-3454
284	-3455
454	-3456
▁dog	-3457
▁fig	-3458
16:07	-3459
20:43	-3460
21:05	-3461
▁epic	-3462
118	-3463
158	-3464
233	-3465
476	-3466
877	-3467
896	-3468
ula	-3469
lose	-3470
▁evs	-3471
▁ppl	-3472
minim	-3473
▁base	-3474
▁cens	-3475
▁poor	-3476
▁stuff	-3477
▁usually	-3478
▁mentioned	-3479
258	-3480
378	-3481
ings	-3482
outh	-3483
15:33	-3484
20:39	-3485
▁2816	-3486
▁holy	-3487
▁boost	-3488
▁doubt	-3489
▁story	-3490
▁active	-3491
▁habits	-3492
▁devices	-3493
▁hitting	-3494
▁realize	-3495
▁testing	-3496
▁guidance	-3497
▁minimize	-3498
017	-3499
478	-3500
igh	-3501
rat	-3502
▁ban	-3503
▁def	-3504
15:08	-3505
15:40	-3506
16:15	-3507
20:51	-3508
▁2754	-3509
▁dems	-3510
▁cycle	-3511
▁excited	-3512
▁predict	-3513
106	-3514
225	-3515
255	-3516
355	-3517
363	-3518
474	-3519
▁vis	-3520
▁apps	-3521
▁spike	-3522
▁invested	-3523
▁recommend	-3524
025	-3525
295	-3526
443	-3527
▁usa	-3528
17:20	-3529
▁2869	-3530
▁clown	-3531
▁normal	-3532
▁scared	-3533
▁awesome	-3534
illionaire	-3535
018	-3536
204	-3537
358	-3538
453	-3539
fri	-3540
mic	-3541
▁2775	-3542
▁self	-3543
phones	-3544
▁heads	-3545
▁cheaper	-3546
youshould	-3547
ii	-3548
034	-3549
254	-3550
354	-3551
498	-3552
rely	-3553
ught	-3554
▁pig	-3555
15:21	-3556
17:16	-3557
anage	-3558
madem	-3559
verse	-3560
▁burn	-3561
izerisk	-3562
▁covered	-3563
▁forever	-3564
aipostminim	-3565
019	-3566
023	-3567
039	-3568
229	-3569
364	-3570
397	-3571
uri	-3572
yond	-3573
▁hmm	-3574
techn	-3575
▁june	-3576
▁note	-3577
▁27875	-3578
▁stanley	-3579
nevershort	-3580
▁democrats	-3581
aipostmillion	-3582
aipostnevershort	-3583
135	-3584
396	-3585
479	-3586
cal	-3587
ron	-3588
list	-3589
▁tit	-3590
15:47	-3591
21:12	-3592
▁2767	-3593
▁abnb	-3594
▁ball	-3595
▁merg	-3596
fromam	-3597
▁except	-3598
▁simple	-3599
applecom	-3600
tomanage	-3601
▁keeping	-3602
aipostwhy	-3603
▁direction	-3604
mademillions	-3605
youshouldknow	-3606
tomanagecapital	-3607
py	-3608
048	-3609
094	-3610
244	-3611
384	-3612
398	-3613
arth	-3614
badh	-3615
14:35	-3616
20:10	-3617
20:46	-3618
21:10	-3619
▁2796	-3620
▁debt	-3621
▁prep	-3622
▁vldr	-3623
▁throw	-3624
▁experi	-3625
badhabits	-3626
aipostbadhabits	-3627
fromamillionaire	-3628
008	-3629
107	-3630
117	-3631
223	-3632
365	-3633
16:51	-3634
▁2855	-3635
▁quite	-3636
▁stuck	-3637
▁blowout	-3638
formation	-3639
▁contract	-3640
▁disappoin	-3641
203	-3642
234	-3643
235	-3644
256	-3645
278	-3646
14:32	-3647
15:37	-3648
16:00	-3649
17:19	-3650
▁beyond	-3651
▁raises	-3652
▁foxconn	-3653
▁blackberry	-3654
119	-3655
353	-3656
465	-3657
sth	-3658
▁fck	-3659
15:41	-3660
15:49	-3661
16:14	-3662
17:24	-3663
20:45	-3664
20:50	-3665
▁upward	-3666
▁crossed	-3667
▁overall	-3668
▁pressure	-3669
014	-3670
114	-3671
333	-3672
863	-3673
ized	-3674
▁pin	-3675
15:38	-3676
15:42	-3677
16:01	-3678
16:33	-3679
alpha	-3680
▁flag	-3681
▁wasnt	-3682
▁httpswwwgoogle	-3683
108	-3684
263	-3685
275	-3686
473	-3687
yes	-3688
16:28	-3689
16:31	-3690
20:05	-3691
21:07	-3692
21:16	-3693
▁ship	-3694
usiness	-3695
▁explain	-3696
▁manipul	-3697
▁samsung	-3698
▁inflation	-3699
▁fundamentals	-3700
eg	-3701
393	-3702
497	-3703
865	-3704
894	-3705
iod	-3706
ury	-3707
▁now	-3708
15:50	-3709
21:32	-3710
▁2753	-3711
▁alpp	-3712
▁retest	-3713
nk	-3714
224	-3715
264	-3716
375	-3717
▁oc	-3718
▁web	-3719
16:24	-3720
16:38	-3721
17:14	-3722
ticip	-3723
▁2668	-3724
▁2699	-3725
▁2805	-3726
▁uber	-3727
valued	-3728
▁autom	-3729
▁holds	-3730
▁patient	-3731
eekingalpha	-3732
879	-3733
look	-3734
▁vuz	-3735
15:46	-3736
15:48	-3737
16:30	-3738
21:11	-3739
organ	-3740
▁exec	-3741
action	-3742
▁histor	-3743
▁httpsm	-3744
▁selloff	-3745
▁competition	-3746
154	-3747
269	-3748
566	-3749
878	-3750
895	-3751
flix	-3752
fore	-3753
play	-3754
stat	-3755
▁joe	-3756
15:32	-3757
15:57	-3758
16:12	-3759
17:18	-3760
▁2794	-3761
▁conne	-3762
ational	-3763
▁calling	-3764
▁reality	-3765
▁political	-3766
016	-3767
245	-3768
577	-3769
uts	-3770
15:52	-3771
16:04	-3772
16:05	-3773
19:16	-3774
▁2678	-3775
ensive	-3776
▁shake	-3777
▁airpod	-3778
comarticle	-3779
444	-3780
485	-3781
15:39	-3782
15:58	-3783
16:18	-3784
21:13	-3785
ctive	-3786
tives	-3787
▁nakd	-3788
▁bucks	-3789
▁maint	-3790
▁concer	-3791
006	-3792
248	-3793
395	-3794
ich	-3795
led	-3796
▁don	-3797
15:34	-3798
15:54	-3799
16:32	-3800
21:33	-3801
enzing	-3802
▁availa	-3803
▁rather	-3804
▁holiday	-3805
▁previous	-3806
▁overvalued	-3807
104	-3808
109	-3809
153	-3810
274	-3811
383	-3812
475	-3813
875	-3814
gen	-3815
ics	-3816
▁hd	-3817
16:19	-3818
16:55	-3819
17:40	-3820
anned	-3821
228	-3822
868	-3823
ici	-3824
ring	-3825
▁mel	-3826
▁ndx	-3827
▁omg	-3828
14:33	-3829
16:21	-3830
20:21	-3831
20:44	-3832
20:49	-3833
▁cmon	-3834
▁turd	-3835
▁equity	-3836
▁period	-3837
▁afterno	-3838
▁upgrade	-3839
243	-3840
▁bc	-3841
roid	-3842
15:31	-3843
16:09	-3844
16:44	-3845
▁among	-3846
earning	-3847
viewcom	-3848
▁across	-3849
▁meeting	-3850
▁possibly	-3851
246	-3852
268	-3853
273	-3854
293	-3855
368	-3856
evo	-3857
erve	-3858
ured	-3859
▁bye	-3860
16:27	-3861
16:37	-3862
▁2698	-3863
▁penn	-3864
▁tlry	-3865
▁alone	-3866
▁games	-3867
▁steady	-3868
▁suggest	-3869
cb	-3870
uy	-3871
205	-3872
16:34	-3873
▁2778	-3874
▁2799	-3875
▁butt	-3876
▁mist	-3877
▁shoot	-3878
▁tight	-3879
▁certain	-3880
▁httpsstocktwits	-3881
007	-3882
294	-3883
▁ed	-3884
15:36	-3885
17:17	-3886
19:57	-3887
20:33	-3888
20:38	-3889
21:34	-3890
▁2707	-3891
▁lunch	-3892
▁yahoo	-3893
▁boards	-3894
▁candle	-3895
▁remind	-3896
▁couldnt	-3897
▁httpsthe	-3898
▁daytrading	-3899
043	-3900
467	-3901
ship	-3902
▁non	-3903
15:53	-3904
16:16	-3905
16:58	-3906
17:28	-3907
tical	-3908
▁2697	-3909
▁2763	-3910
▁2818	-3911
▁lazr	-3912
▁spac	-3913
applet	-3914
▁focus	-3915
▁sucks	-3916
▁common	-3917
▁afternoon	-3918
tradingviewcom	-3919
374	-3920
15:51	-3921
16:26	-3922
20:27	-3923
▁bets	-3924
▁brain	-3925
enzinga	-3926
hyundai	-3927
▁comput	-3928
▁healthy	-3929
▁released	-3930
▁republic	-3931
aw	-3932
cu	-3933
005	-3934
495	-3935
ged	-3936
rele	-3937
15:45	-3938
20:14	-3939
20:24	-3940
20:29	-3941
20:37	-3942
while	-3943
▁2934	-3944
▁gevo	-3945
▁credit	-3946
▁similar	-3947
▁available	-3948
▁expectations	-3949
pa	-3950
tics	-3951
15:44	-3952
17:15	-3953
20:09	-3954
20:11	-3955
▁dist	-3956
▁zone	-3957
atever	-3958
▁consum	-3959
▁family	-3960
▁netflix	-3961
▁process	-3962
▁setting	-3963
▁forecast	-3964
464	-3965
493	-3966
874	-3967
16:47	-3968
17:22	-3969
20:41	-3970
▁2917	-3971
▁ford	-3972
trader	-3973
▁accum	-3974
▁claim	-3975
▁asking	-3976
▁leader	-3977
▁slowly	-3978
▁monthly	-3979
253	-3980
▁ke	-3981
▁xl	-3982
rade	-3983
16:23	-3984
17:26	-3985
19:58	-3986
▁2834	-3987
▁2912	-3988
▁ocgn	-3989
▁hasnt	-3990
▁steal	-3991
▁stick	-3992
▁taxes	-3993
▁worse	-3994
▁privacy	-3995
▁congress	-3996
▁interested	-3997
di	-3998
irt	-3999
opy	-4000
lies	-4001
ries	-4002
▁emo	-4003
15:43	-4004
16:02	-4005
16:03	-4006
17:30	-4007
18:03	-4008
sweep	-4009
times	-4010
▁2755	-4011
▁2905	-4012
▁2933	-4013
reedom	-4014
▁opens	-4015
▁relax	-4016
▁telling	-4017
▁overnight	-4018
▁httpswwwmarket	-4019
to	-4020
265	-4021
468	-4022
not	-4023
ails	-4024
gram	-4025
wave	-4026
▁sun	-4027
16:08	-4028
16:17	-4029
17:25	-4030
19:59	-4031
20:13	-4032
20:42	-4033
20:48	-4034
▁pure	-4035
▁feels	-4036
castcom	-4037
▁broken	-4038
▁dividends	-4039
sm	-4040
864	-4041
eng	-4042
ided	-4043
ored	-4044
sses	-4045
16:41	-4046
21:14	-4047
erved	-4048
▁2845	-4049
▁gave	-4050
599	-4051
▁ce	-4052
ules	-4053
▁bal	-4054
16:35	-4055
16:45	-4056
16:46	-4057
17:42	-4058
17:47	-4059
20:35	-4060
21:31	-4061
▁2721	-4062
▁2889	-4063
▁algos	-4064
▁beats	-4065
▁final	-4066
▁flying	-4067
▁digital	-4068
▁election	-4069
569	-4070
big	-4071
orb	-4072
▁eye	-4073
▁tmr	-4074
16:11	-4075
17:01	-4076
17:11	-4077
17:13	-4078
20:15	-4079
urity	-4080
▁rati	-4081
▁word	-4082
▁earth	-4083
▁tanking	-4084
▁fan	-4085
17:02	-4086
▁27874	-4087
▁futes	-4088
▁screen	-4089
▁thinks	-4090
▁selfdriving	-4091
qq	-4092
597	-4093
abb	-4094
ows	-4095
▁fy	-4096
will	-4097
16:36	-4098
17:00	-4099
17:39	-4100
17:58	-4101
18:37	-4102
20:20	-4103
20:28	-4104
▁2776	-4105
▁india	-4106
▁closes	-4107
▁members	-4108
▁whatever	-4109
▁httpswwwmac	-4110
sa	-4111
494	-4112
579	-4113
what	-4114
15:56	-4115
16:22	-4116
16:57	-4117
19:10	-4118
20:34	-4119
20:36	-4120
▁eyes	-4121
:16:01	-4122
idence	-4123
▁broker	-4124
▁slight	-4125
▁everybody	-4126
▁manipulated	-4127
394	-4128
mtf	-4129
▁box	-4130
▁eat	-4131
15:59	-4132
17:04	-4133
17:10	-4134
17:41	-4135
17:57	-4136
17:59	-4137
18:01	-4138
20:12	-4139
20:23	-4140
bling	-4141
ption	-4142
▁domin	-4143
▁quott	-4144
▁popular	-4145
▁weeklies	-4146
applecomus	-4147
ndm	-4148
16:20	-4149
16:56	-4150
17:12	-4151
17:21	-4152
18:55	-4153
19:13	-4154
orgia	-4155
▁2675	-4156
▁2785	-4157
▁freak	-4158
▁setup	-4159
▁expire	-4160
▁giants	-4161
▁reward	-4162
▁content	-4163
▁quickly	-4164
▁strategy	-4165
121	-4166
463	-4167
565	-4168
588	-4169
▁jd	-4170
ears	-4171
onav	-4172
16:43	-4173
16:59	-4174
17:34	-4175
18:15	-4176
19:15	-4177
20:06	-4178
21:18	-4179
▁2636	-4180
▁2744	-4181
▁mach	-4182
friend	-4183
▁26616	-4184
▁latest	-4185
▁turned	-4186
▁quality	-4187
kk	-4188
568	-4189
893	-4190
oard	-4191
▁bio	-4192
16:39	-4193
17:53	-4194
18:56	-4195
20:22	-4196
20:31	-4197
▁fair	-4198
▁pack	-4199
▁capit	-4200
▁gives	-4201
▁deliver	-4202
▁holdings	-4203
wallstreet	-4204
uu	-4205
575	-4206
ura	-4207
comr	-4208
iott	-4209
17:35	-4210
18:18	-4211
20:19	-4212
20:26	-4213
20:32	-4214
antly	-4215
▁intel	-4216
ference	-4217
▁picked	-4218
▁youtub	-4219
▁pushing	-4220
▁downside	-4221
ari	-4222
▁vx	-4223
▁rvr	-4224
16:54	-4225
17:32	-4226
17:51	-4227
18:20	-4228
18:26	-4229
20:03	-4230
20:30	-4231
story	-4232
▁valu	-4233
▁hymtf	-4234
▁secre	-4235
▁usual	-4236
ability	-4237
▁killer	-4238
▁mobile	-4239
▁patents	-4240
▁putting	-4241
▁honestly	-4242
▁httpsapps	-4243
▁httpswwwre	-4244
596	-4245
14:30	-4246
15:55	-4247
17:46	-4248
18:39	-4249
18:59	-4250
19:33	-4251
20:00	-4252
▁desp	-4253
▁shot	-4254
▁viol	-4255
▁giant	-4256
▁light	-4257
▁limit	-4258
▁censor	-4259
▁online	-4260
▁regard	-4261
▁remain	-4262
▁collaps	-4263
▁completely	-4264
gu	-4265
598	-4266
kia	-4267
pre	-4268
▁hi	-4269
▁har	-4270
▁sum	-4271
16:29	-4272
16:52	-4273
17:03	-4274
18:17	-4275
18:35	-4276
▁idex	-4277
▁mine	-4278
▁advice	-4279
iottwave	-4280
▁version	-4281
▁winning	-4282
▁addition	-4283
▁watchlist	-4284
ls	-4285
677	-4286
ape	-4287
ris	-4288
▁lag	-4289
16:25	-4290
17:07	-4291
17:29	-4292
18:48	-4293
19:43	-4294
20:04	-4295
eless	-4296
▁2745	-4297
▁2829	-4298
▁2848	-4299
▁nndm	-4300
▁thre	-4301
▁wast	-4302
▁watt	-4303
▁cares	-4304
▁advant	-4305
▁repeat	-4306
▁android	-4307
▁careful	-4308
▁conserv	-4309
▁georgia	-4310
▁leading	-4311
▁printing	-4312
▁institutions	-4313
022	-4314
bled	-4315
bull	-4316
ined	-4317
16:42	-4318
17:49	-4319
18:44	-4320
19:12	-4321
▁dude	-4322
▁decade	-4323
▁wealth	-4324
▁attention	-4325
oe	-4326
oke	-4327
16:53	-4328
17:27	-4329
18:24	-4330
19:08	-4331
19:32	-4332
▁2808	-4333
▁click	-4334
▁maker	-4335
▁speak	-4336
▁tweet	-4337
▁comments	-4338
▁signific	-4339
▁relations	-4340
applecomusapp	-4341
--	-4342
gi	-4343
fir	-4344
▁ug	-4345
▁ell	-4346
▁jus	-4347
16:49	-4348
17:09	-4349
17:37	-4350
17:38	-4351
17:44	-4352
19:05	-4353
19:52	-4354
21:30	-4355
21:35	-4356
anced	-4357
▁oper	-4358
comamp	-4359
▁beast	-4360
▁ratio	-4361
▁titan	-4362
▁greedy	-4363
▁patent	-4364
▁macbook	-4365
▁worthless	-4366
ugh	-4367
ites	-4368
▁ish	-4369
14:28	-4370
14:29	-4371
18:00	-4372
18:10	-4373
18:41	-4374
19:14	-4375
19:44	-4376
19:50	-4377
ances	-4378
ended	-4379
usion	-4380
▁2738	-4381
▁okay	-4382
▁requ	-4383
▁weve	-4384
▁paying	-4385
▁extremely	-4386
np	-4387
itid	-4388
ivot	-4389
real	-4390
rrrr	-4391
ying	-4392
18:25	-4393
19:18	-4394
19:55	-4395
20:08	-4396
21:15	-4397
rible	-4398
▁2673	-4399
▁2774	-4400
▁feed	-4401
▁hurt	-4402
▁laws	-4403
▁falls	-4404
▁surge	-4405
orbitid	-4406
▁access	-4407
▁boring	-4408
▁direct	-4409
▁signal	-4410
business	-4411
▁crushed	-4412
stockorbitid	-4413
fut	-4414
ife	-4415
▁hed	-4416
17:08	-4417
18:11	-4418
19:03	-4419
right	-4420
▁king	-4421
▁piss	-4422
▁resp	-4423
▁runs	-4424
▁retire	-4425
567	-4426
ales	-4427
anta	-4428
comd	-4429
sequ	-4430
17:31	-4431
19:22	-4432
19:45	-4433
20:25	-4434
21:38	-4435
utral	-4436
▁hang	-4437
▁downt	-4438
▁rules	-4439
▁theyll	-4440
entially	-4441
▁anybody	-4442
oh	-4443
181	-4444
ift	-4445
ilt	-4446
ney	-4447
beat	-4448
like	-4449
▁hod	-4450
▁jim	-4451
16:48	-4452
18:09	-4453
18:19	-4454
18:22	-4455
18:33	-4456
20:01	-4457
▁2773	-4458
▁2847	-4459
▁exit	-4460
▁sick	-4461
▁liber	-4462
▁shouldnt	-4463
htmlsource	-4464
543	-4465
576	-4466
oti	-4467
▁sr	-4468
aper	-4469
eral	-4470
oung	-4471
part	-4472
this	-4473
14:12	-4474
17:43	-4475
18:14	-4476
18:23	-4477
18:27	-4478
18:43	-4479
18:49	-4480
19:40	-4481
19:56	-4482
20:17	-4483
21:20	-4484
produ	-4485
▁2783	-4486
▁2828	-4487
▁2886	-4488
▁book	-4489
▁taken	-4490
▁tried	-4491
▁expiry	-4492
▁filled	-4493
appshare	-4494
▁monster	-4495
▁updates	-4496
▁accounts	-4497
▁eventually	-4498
eta	-4499
osi	-4500
17:45	-4501
17:48	-4502
18:36	-4503
19:01	-4504
19:09	-4505
19:30	-4506
20:07	-4507
21:19	-4508
21:54	-4509
▁2693	-4510
▁mega	-4511
▁wins	-4512
▁merger	-4513
▁trumps	-4514
▁valued	-4515
onavirus	-4516
▁despite	-4517
▁freedom	-4518
▁neutral	-4519
▁youtube	-4520
▁observed	-4521
▁successful	-4522
dc	-4523
ges	-4524
ram	-4525
mbol	-4526
▁hum	-4527
▁qtr	-4528
17:52	-4529
19:00	-4530
19:07	-4531
19:51	-4532
19:53	-4533
aging	-4534
ected	-4535
hetic	-4536
▁lott	-4537
▁firms	-4538
isition	-4539
statuss	-4540
▁office	-4541
articles	-4542
oooooooo	-4543
ov	-4544
▁ul	-4545
face	-4546
term	-4547
16:50	-4548
17:50	-4549
17:55	-4550
19:31	-4551
21:24	-4552
21:29	-4553
▁2814	-4554
▁land	-4555
rumors	-4556
▁engine	-4557
▁sounds	-4558
▁produce	-4559
▁customers	-4560
▁experience	-4561
appleinsider	-4562
▁information	-4563
nj	-4564
010	-4565
090	-4566
141	-4567
190	-4568
594	-4569
ior	-4570
▁lm	-4571
▁to	-4572
▁tru	-4573
18:02	-4574
18:29	-4575
19:21	-4576
20:18	-4577
21:17	-4578
21:21	-4579
▁2684	-4580
▁2793	-4581
▁shes	-4582
▁bonds	-4583
▁laugh	-4584
▁buyout	-4585
bloomberg	-4586
filterioad	-4587
▁advantage	-4588
211	-4589
▁je	-4590
▁kn	-4591
idel	-4592
14:21	-4593
17:06	-4594
18:13	-4595
19:35	-4596
19:42	-4597
19:54	-4598
ining	-4599
▁2806	-4600
▁boat	-4601
▁five	-4602
▁road	-4603
▁sees	-4604
▁young	-4605
▁failed	-4606
▁killed	-4607
▁explode	-4608
▁complain	-4609
▁upcoming	-4610
▁ny	-4611
ocur	-4612
wise	-4613
▁typ	-4614
17:36	-4615
18:34	-4616
18:40	-4617
18:51	-4618
19:19	-4619
▁2674	-4620
▁2812	-4621
▁2827	-4622
▁infl	-4623
▁spend	-4624
▁create	-4625
▁nicely	-4626
▁by	-4627
17:56	-4628
18:12	-4629
18:58	-4630
19:34	-4631
20:02	-4632
21:37	-4633
21:40	-4634
▁2734	-4635
▁2901	-4636
▁four	-4637
▁lift	-4638
ctions	-4639
▁immin	-4640
▁annual	-4641
▁barely	-4642
▁season	-4643
ications	-4644
▁httpsws	-4645
▁sweepcast	-4646
els	-4647
nam	-4648
▁row	-4649
14:27	-4650
14:31	-4651
17:33	-4652
17:54	-4653
18:46	-4654
19:04	-4655
19:39	-4656
19:41	-4657
19:48	-4658
orbit	-4659
▁aths	-4660
▁exam	-4661
▁wear	-4662
▁tired	-4663
comamps	-4664
▁timber	-4665
▁united	-4666
earnings	-4667
▁smartphone	-4668
▁httpswsfriend	-4669
▁httpstwittercom	-4670
rt	-4671
uh	-4672
584	-4673
696	-4674
oop	-4675
ming	-4676
▁ber	-4677
▁col	-4678
▁ctr	-4679
14:25	-4680
20:16	-4681
21:22	-4682
21:25	-4683
erman	-4684
ished	-4685
veral	-4686
▁wave	-4687
▁santa	-4688
▁track	-4689
▁headed	-4690
▁losers	-4691
▁nearly	-4692
▁source	-4693
▁teslas	-4694
▁minimum	-4695
▁several	-4696
appsharec	-4697
▁buybacks	-4698
▁covering	-4699
▁expensive	-4700
▁simulated	-4701
iosappsharec	-4702
021	-4703
112	-4704
595	-4705
▁gn	-4706
14:07	-4707
14:09	-4708
14:26	-4709
17:05	-4710
18:21	-4711
18:31	-4712
18:45	-4713
19:23	-4714
▁2797	-4715
▁2943	-4716
▁will	-4717
▁26435	-4718
▁elect	-4719
▁anyway	-4720
▁provid	-4721
▁competit	-4722
▁httpssweep	-4723
▁stockorbit	-4724
td	-4725
aug	-4726
icy	-4727
uth	-4728
▁ios	-4729
19:38	-4730
19:49	-4731
belie	-4732
▁2807	-4733
▁2833	-4734
▁arkk	-4735
▁grab	-4736
▁ugly	-4737
▁wild	-4738
rocket	-4739
▁regret	-4740
▁reverse	-4741
▁screwed	-4742
▁dogecoin	-4743
▁security	-4744
▁innovation	-4745
▁predictions	-4746
uit	-4747
ists	-4748
18:06	-4749
18:50	-4750
19:17	-4751
arant	-4752
▁chat	-4753
▁diver	-4754
▁faster	-4755
▁benefit	-4756
▁bleeding	-4757
▁americans	-4758
▁increased	-4759
▁difference	-4760
578	-4761
abl	-4762
ton	-4763
▁pc	-4764
aked	-4765
medi	-4766
18:38	-4767
after	-4768
ening	-4769
▁vuzi	-4770
▁moder	-4771
▁words	-4772
olution	-4773
▁afford	-4774
▁dumped	-4775
▁ground	-4776
▁income	-4777
investor	-4778
▁airpods	-4779
▁blocked	-4780
▁capitol	-4781
▁changes	-4782
▁comment	-4783
▁confirmed	-4784
▁estimates	-4785
▁prediction	-4786
▁considering	-4787
gl	-4788
alk	-4789
asc	-4790
der	-4791
jan	-4792
par	-4793
asty	-4794
name	-4795
▁gir	-4796
▁ont	-4797
▁rad	-4798
14:24	-4799
18:52	-4800
19:11	-4801
19:20	-4802
sible	-4803
▁2696	-4804
▁fort	-4805
▁jack	-4806
▁cloud	-4807
▁compar	-4808
▁makers	-4809
▁actions	-4810
▁fitness	-4811
▁players	-4812
▁imminent	-4813
▁pathetic	-4814
vs	-4815
180	-4816
351	-4817
sif	-4818
▁ha	-4819
▁aug	-4820
▁rob	-4821
18:32	-4822
19:26	-4823
lines	-4824
saapl	-4825
▁2896	-4826
▁ctrm	-4827
▁flip	-4828
▁kore	-4829
▁scam	-4830
▁aapls	-4831
▁white	-4832
creener	-4833
▁device	-4834
▁secret	-4835
▁yields	-4836
▁bankrupt	-4837
▁basically	-4838
▁streaming	-4839
▁elliottwave	-4840
564	-4841
oid	-4842
ony	-4843
ote	-4844
▁asi	-4845
▁die	-4846
14:14	-4847
18:08	-4848
18:42	-4849
▁thru	-4850
ership	-4851
▁27879	-4852
▁death	-4853
▁lesson	-4854
▁states	-4855
▁balance	-4856
▁glasses	-4857
▁guarant	-4858
▁turning	-4859
▁supplier	-4860
▁surprise	-4861
ka	-4862
wd	-4863
553	-4864
563	-4865
585	-4866
593	-4867
dle	-4868
ees	-4869
pat	-4870
cted	-4871
echn	-4872
▁oil	-4873
▁pip	-4874
18:04	-4875
18:16	-4876
18:30	-4877
19:37	-4878
▁2897	-4879
▁2925	-4880
▁abml	-4881
▁rule	-4882
▁wood	-4883
▁flush	-4884
▁stops	-4885
▁excell	-4886
▁impact	-4887
▁changed	-4888
▁indices	-4889
▁learned	-4890
▁internet	-4891
031	-4892
583	-4893
inc	-4894
call	-4895
ency	-4896
vrit	-4897
▁ten	-4898
14:22	-4899
18:05	-4900
19:24	-4901
21:46	-4902
▁2798	-4903
▁2948	-4904
▁wind	-4905
▁27877	-4906
ologies	-4907
pective	-4908
▁combin	-4909
▁decline	-4910
▁ripping	-4911
▁trumpers	-4912
▁quarterly	-4913
▁management	-4914
160	-4915
170	-4916
200	-4917
ety	-4918
ify	-4919
ceiv	-4920
ison	-4921
ondu	-4922
vide	-4923
18:07	-4924
18:53	-4925
19:28	-4926
19:47	-4927
▁chase	-4928
▁chill	-4929
▁picks	-4930
omotive	-4931
▁employ	-4932
▁figure	-4933
otherwise	-4934
▁hardware	-4935
▁revenues	-4936
▁rotation	-4937
tradingviewcomx	-4938
050	-4939
080	-4940
673	-4941
aff	-4942
fla	-4943
war	-4944
tify	-4945
▁ham	-4946
18:57	-4947
19:06	-4948
19:25	-4949
19:29	-4950
21:23	-4951
21:28	-4952
▁caps	-4953
▁shor	-4954
ective	-4955
ication	-4956
▁crying	-4957
▁pelosi	-4958
▁sooner	-4959
▁reading	-4960
▁rolling	-4961
▁consolidating	-4962
▁opportunities	-4963
▁wallstreetbets	-4964
rx	-4965
140	-4966
mar	-4967
esus	-4968
ples	-4969
▁arg	-4970
▁fac	-4971
▁men	-4972
▁tgt	-4973
14:10	-4974
19:36	-4975
21:48	-4976
▁goal	-4977
▁star	-4978
▁known	-4979
▁micro	-4980
▁study	-4981
▁bidens	-4982
▁strugg	-4983
▁consist	-4984
▁special	-4985
cominvesting	-4986
vp	-4987
051	-4988
070	-4989
554	-4990
box	-4991
eed	-4992
▁oi	-4993
▁pi	-4994
enty	-4995
iter	-4996
▁bat	-4997
▁dan	-4998
▁oct	-4999
▁til	-5000
14:05	-5001
14:08	-5002
18:54	-5003
19:27	-5004
21:26	-5005
▁algo	-5006
▁cult	-5007
▁27876	-5008
▁oppos	-5009
▁simply	-5010
▁protect	-5011
▁charging	-5012
applestock	-5013
574	-5014
676	-5015
fly	-5016
qqq	-5017
▁rd	-5018
olic	-5019
▁bac	-5020
▁ers	-5021
▁rkt	-5022
13:56	-5023
21:41	-5024
could	-5025
house	-5026
light	-5027
▁2809	-5028
dlvrit	-5029
▁appre	-5030
▁prior	-5031
micondu	-5032
▁attack	-5033
comstory	-5034
▁excellent	-5035
▁expiration	-5036
▁httpdlvrit	-5037
ux	-5038
041	-5039
350	-5040
461	-5041
799	-5042
php	-5043
por	-5044
▁mus	-5045
14:23	-5046
19:02	-5047
21:42	-5048
using	-5049
▁2637	-5050
▁2784	-5051
▁2819	-5052
▁2822	-5053
▁2888	-5054
▁2921	-5055
▁buck	-5056
▁code	-5057
▁none	-5058
▁pros	-5059
▁filed	-5060
▁shall	-5061
ressive	-5062
▁acting	-5063
▁accumul	-5064
▁betting	-5065
▁present	-5066
investors	-5067
comnewsapple	-5068
nh	-5069
042	-5070
162	-5071
191	-5072
360	-5073
ding	-5074
13:58	-5075
21:51	-5076
22:00	-5077
▁2669	-5078
▁tsnp	-5079
▁facts	-5080
▁nokia	-5081
▁rough	-5082
▁score	-5083
▁thous	-5084
▁winners	-5085
portfolio	-5086
▁otherwise	-5087
▁development	-5088
wr	-5089
092	-5090
171	-5091
pay	-5092
hips	-5093
▁mov	-5094
14:01	-5095
21:27	-5096
21:39	-5097
arget	-5098
eline	-5099
place	-5100
▁2653	-5101
nasdaq	-5102
▁saving	-5103
▁offering	-5104
filterioab	-5105
▁batteries	-5106
▁bloomberg	-5107
▁downtrend	-5108
▁platforms	-5109
▁automotive	-5110
▁relationship	-5111
061	-5112
131	-5113
151	-5114
152	-5115
192	-5116
870	-5117
ops	-5118
▁hr	-5119
▁nk	-5120
dden	-5121
▁joh	-5122
▁ran	-5123
▁sat	-5124
allen	-5125
trust	-5126
ystem	-5127
▁actual	-5128
▁choice	-5129
▁hahaha	-5130
▁morons	-5131
▁opened	-5132
▁signals	-5133
▁favorite	-5134
▁purchase	-5135
030	-5136
060	-5137
678	-5138
699	-5139
796	-5140
gre	-5141
▁avg	-5142
▁jag	-5143
14:13	-5144
21:47	-5145
ories	-5146
▁cell	-5147
▁fang	-5148
▁sake	-5149
▁clean	-5150
▁const	-5151
▁impro	-5152
▁issue	-5153
▁truly	-5154
utional	-5155
▁charge	-5156
▁inside	-5157
▁stonks	-5158
▁doubled	-5159
▁general	-5160
▁economic	-5161
▁reporting	-5162
020	-5163
062	-5164
072	-5165
130	-5166
391	-5167
491	-5168
798	-5169
ares	-5170
year	-5171
14:20	-5172
19:46	-5173
21:36	-5174
22:56	-5175
issan	-5176
izing	-5177
vable	-5178
▁2685	-5179
▁blnk	-5180
▁fuel	-5181
▁26617	-5182
▁clearly	-5183
▁httpswwwf	-5184
▁skyrocket	-5185
▁acquisition	-5186
wallstreetbets	-5187
ae	-5188
ki	-5189
132	-5190
555	-5191
885	-5192
ili	-5193
ror	-5194
▁tp	-5195
illy	-5196
ised	-5197
▁bmw	-5198
▁dad	-5199
23:15	-5200
aving	-5201
▁2634	-5202
ension	-5203
▁extra	-5204
▁pivot	-5205
▁smell	-5206
▁units	-5207
▁water	-5208
▁highly	-5209
▁example	-5210
▁goldman	-5211
▁whether	-5212
▁collapse	-5213
▁increasing	-5214
cf	-5215
cx	-5216
mg	-5217
161	-5218
452	-5219
573	-5220
ira	-5221
▁ec	-5222
▁od	-5223
▁nik	-5224
13:49	-5225
13:59	-5226
14:00	-5227
21:53	-5228
22:06	-5229
maker	-5230
rough	-5231
▁2874	-5232
▁gnus	-5233
▁nons	-5234
▁temp	-5235
▁child	-5236
▁wedge	-5237
tically	-5238
▁corner	-5239
▁fisker	-5240
▁ignore	-5241
▁passed	-5242
▁sudden	-5243
▁democra	-5244
▁session	-5245
▁manufacturers	-5246
ze	-5247
220	-5248
230	-5249
795	-5250
888	-5251
mod	-5252
erty	-5253
week	-5254
14:02	-5255
21:57	-5256
22:21	-5257
▁cath	-5258
▁info	-5259
fortun	-5260
▁grand	-5261
▁scare	-5262
▁weird	-5263
▁notice	-5264
▁highest	-5265
▁insider	-5266
▁machine	-5267
▁reuters	-5268
ocurrency	-5269
▁approach	-5270
▁followed	-5271
▁sometimes	-5272
fg	-5273
150	-5274
201	-5275
chin	-5276
land	-5277
ours	-5278
rypt	-5279
vent	-5280
▁idk	-5281
14:15	-5282
18:47	-5283
23:04	-5284
▁nkla	-5285
active	-5286
▁chain	-5287
▁parab	-5288
▁youve	-5289
uration	-5290
▁issues	-5291
▁played	-5292
activity	-5293
▁unbelie	-5294
▁collabor	-5295
▁crashing	-5296
▁european	-5297
▁slightly	-5298
▁obviously	-5299
▁businesses	-5300
▁censorship	-5301
bloombergcomnews	-5302
081	-5303
221	-5304
450	-5305
hhh	-5306
hor	-5307
vin	-5308
gger	-5309
unda	-5310
▁cli	-5311
▁qnx	-5312
▁sus	-5313
▁whe	-5314
00:27	-5315
13:53	-5316
14:11	-5317
14:18	-5318
21:43	-5319
ather	-5320
gging	-5321
iforn	-5322
iling	-5323
▁fully	-5324
▁motor	-5325
▁signs	-5326
▁treas	-5327
▁retard	-5328
▁consumer	-5329
▁fighting	-5330
▁longterm	-5331
▁wondering	-5332
182	-5333
361	-5334
382	-5335
472	-5336
482	-5337
698	-5338
891	-5339
dis	-5340
feb	-5341
ota	-5342
▁os	-5343
ston	-5344
▁tho	-5345
22:16	-5346
22:57	-5347
23:06	-5348
ubble	-5349
▁banks	-5350
▁jesus	-5351
▁truth	-5352
▁voted	-5353
▁shitty	-5354
▁switch	-5355
▁acceler	-5356
▁politics	-5357
▁semicondu	-5358
▁smartoptionsai	-5359
gs	-5360
371	-5361
481	-5362
860	-5363
ulu	-5364
arra	-5365
bies	-5366
ires	-5367
▁mis	-5368
▁slv	-5369
18:28	-5370
21:49	-5371
21:50	-5372
23:16	-5373
▁2875	-5374
▁2877	-5375
▁crow	-5376
ashing	-5377
change	-5378
▁likes	-5379
▁immedi	-5380
▁plenty	-5381
▁winner	-5382
▁forming	-5383
▁anywhere	-5384
▁companys	-5385
▁premiums	-5386
▁followers	-5387
▁confirmation	-5388
040	-5389
142	-5390
250	-5391
381	-5392
390	-5393
471	-5394
793	-5395
wag	-5396
▁vz	-5397
clos	-5398
wide	-5399
▁ibm	-5400
▁who	-5401
13:52	-5402
14:17	-5403
22:08	-5404
22:18	-5405
aming	-5406
covid	-5407
▁btfd	-5408
▁dang	-5409
▁dold	-5410
▁mode	-5411
▁tqqq	-5412
▁force	-5413
▁kinda	-5414
▁nissan	-5415
▁compare	-5416
▁doldrum	-5417
▁mistake	-5418
technical	-5419
▁currency	-5420
▁destroyed	-5421
▁parabolic	-5422
▁coronavirus	-5423
▁technologies	-5424
vl	-5425
460	-5426
666	-5427
mes	-5428
▁rh	-5429
stop	-5430
tten	-5431
▁cir	-5432
▁mun	-5433
14:16	-5434
21:56	-5435
22:47	-5436
22:58	-5437
amond	-5438
icals	-5439
pects	-5440
▁answ	-5441
▁gsat	-5442
▁kept	-5443
▁trim	-5444
▁vwap	-5445
▁26624	-5446
▁frust	-5447
▁lines	-5448
▁crooks	-5449
▁motors	-5450
▁anticip	-5451
▁deserve	-5452
▁details	-5453
▁httpwww	-5454
▁missing	-5455
filterioac	-5456
▁hahahahah	-5457
▁httpswwwth	-5458
db	-5459
111	-5460
341	-5461
451	-5462
ksh	-5463
▁da	-5464
iest	-5465
rons	-5466
ttps	-5467
▁mix	-5468
22:59	-5469
23:08	-5470
23:09	-5471
23:14	-5472
ouble	-5473
▁2638	-5474
▁gang	-5475
weight	-5476
▁balls	-5477
▁expos	-5478
▁manag	-5479
▁offer	-5480
▁trial	-5481
icially	-5482
▁caught	-5483
▁mother	-5484
▁alerted	-5485
▁heavily	-5486
▁planning	-5487
▁spending	-5488
▁countries	-5489
stockaaplkeybba	-5490
wy	-5491
210	-5492
231	-5493
290	-5494
490	-5495
can	-5496
ckt	-5497
▁mf	-5498
copy	-5499
date	-5500
ower	-5501
says	-5502
▁saf	-5503
▁wip	-5504
13:17	-5505
13:19	-5506
14:04	-5507
14:06	-5508
14:19	-5509
ables	-5510
peach	-5511
▁most	-5512
▁tmrw	-5513
▁floor	-5514
▁owned	-5515
▁theta	-5516
▁summer	-5517
facebook	-5518
ulations	-5519
▁compete	-5520
▁package	-5521
▁greatest	-5522
comcontent	-5523
▁realistic	-5524
▁yesterdays	-5525
▁unbelievable	-5526
▁institutional	-5527
mi	-5528
222	-5529
694	-5530
tig	-5531
ups	-5532
▁yo	-5533
gged	-5534
▁ino	-5535
21:52	-5536
22:05	-5537
22:14	-5538
▁2712	-5539
▁card	-5540
▁citi	-5541
▁core	-5542
▁ends	-5543
▁fing	-5544
▁hund	-5545
▁meme	-5546
▁pool	-5547
▁reve	-5548
▁user	-5549
▁27718	-5550
▁avoid	-5551
▁merry	-5552
▁virus	-5553
▁banned	-5554
▁clowns	-5555
▁appreci	-5556
applenews	-5557
▁averaged	-5558
▁nonsense	-5559
▁speculation	-5560
091	-5561
462	-5562
470	-5563
794	-5564
797	-5565
871	-5566
872	-5567
cor	-5568
uik	-5569
iers	-5570
pass	-5571
wire	-5572
▁cow	-5573
▁roy	-5574
▁yea	-5575
13:34	-5576
21:55	-5577
22:09	-5578
22:12	-5579
arent	-5580
raday	-5581
▁2733	-5582
▁race	-5583
▁site	-5584
vember	-5585
▁27878	-5586
▁third	-5587
▁waste	-5588
▁battle	-5589
▁relief	-5590
▁created	-5591
▁provide	-5592
▁totally	-5593
▁intraday	-5594
▁performing	-5595
861	-5596
itx	-5597
▁ow	-5598
▁rn	-5599
enar	-5600
13:12	-5601
13:30	-5602
13:41	-5603
13:50	-5604
21:44	-5605
22:01	-5606
22:10	-5607
22:11	-5608
22:13	-5609
22:19	-5610
23:02	-5611
23:07	-5612
23:10	-5613
23:13	-5614
▁2801	-5615
▁sckt	-5616
▁tons	-5617
bubble	-5618
▁troll	-5619
▁desper	-5620
▁expand	-5621
▁threat	-5622
▁anytime	-5623
▁decided	-5624
▁program	-5625
ampkeybba	-5626
stocksequ	-5627
▁californ	-5628
▁freaking	-5629
▁unfortun	-5630
xp	-5631
052	-5632
110	-5633
232	-5634
892	-5635
978	-5636
ald	-5637
olo	-5638
une	-5639
▁si	-5640
▁cuz	-5641
▁toy	-5642
13:37	-5643
22:03	-5644
uikit	-5645
▁dear	-5646
▁park	-5647
▁tele	-5648
▁yell	-5649
▁hello	-5650
▁recap	-5651
▁sweet	-5652
▁techs	-5653
company	-5654
▁decent	-5655
▁brought	-5656
▁hundred	-5657
▁impeach	-5658
▁spreads	-5659
▁entering	-5660
▁antitrust	-5661
▁regardless	-5662
▁outperforms	-5663
comappleuikit	-5664
hx	-5665
032	-5666
890	-5667
ale	-5668
eee	-5669
idi	-5670
▁vr	-5671
resh	-5672
▁bed	-5673
▁nov	-5674
▁usd	-5675
13:47	-5676
14:03	-5677
22:20	-5678
22:35	-5679
dible	-5680
▁2743	-5681
▁2820	-5682
▁2865	-5683
▁2898	-5684
▁mini	-5685
▁pict	-5686
▁plac	-5687
▁sink	-5688
▁26628	-5689
▁heart	-5690
▁scale	-5691
▁accept	-5692
standing	-5693
▁diamond	-5694
▁pulling	-5695
▁increases	-5696
▁developing	-5697
▁revolution	-5698
▁supporters	-5699
071	-5700
291	-5701
370	-5702
697	-5703
▁tt	-5704
long	-5705
00:11	-5706
13:01	-5707
23:00	-5708
23:33	-5709
trade	-5710
▁mill	-5711
▁path	-5712
▁tsmc	-5713
▁walk	-5714
▁invol	-5715
▁moron	-5716
▁round	-5717
▁shock	-5718
billion	-5719
traders	-5720
▁digest	-5721
▁forced	-5722
▁lately	-5723
▁challen	-5724
▁regular	-5725
▁conference	-5726
▁republicans	-5727
241	-5728
260	-5729
272	-5730
963	-5731
976	-5732
977	-5733
unk	-5734
▁xx	-5735
raid	-5736
▁acb	-5737
▁ali	-5738
▁met	-5739
▁occ	-5740
▁son	-5741
01:01	-5742
13:10	-5743
13:55	-5744
21:45	-5745
22:17	-5746
angle	-5747
▁2844	-5748
▁calc	-5749
▁lmfa	-5750
▁virt	-5751
▁blame	-5752
▁lucky	-5753
▁shift	-5754
futures	-5755
▁theyve	-5756
▁willing	-5757
▁personal	-5758
auguration	-5759
▁incredible	-5760
ef	-5761
252	-5762
675	-5763
ems	-5764
imi	-5765
lol	-5766
osp	-5767
ades	-5768
gtgt	-5769
ikes	-5770
▁fat	-5771
▁itm	-5772
▁pod	-5773
13:09	-5774
13:39	-5775
21:59	-5776
22:22	-5777
22:41	-5778
23:11	-5779
23:35	-5780
23:42	-5781
asteb	-5782
comes	-5783
▁2701	-5784
▁bout	-5785
▁forg	-5786
▁admin	-5787
▁exist	-5788
▁lives	-5789
▁match	-5790
▁silly	-5791
▁stays	-5792
copytop	-5793
asteboard	-5794
▁crossing	-5795
▁equities	-5796
▁shopping	-5797
production	-5798
▁meanwhile	-5799
▁comparison	-5800
▁investments	-5801
activitycopytop	-5802
va	-5803
251	-5804
270	-5805
362	-5806
380	-5807
480	-5808
ama	-5809
ola	-5810
hium	-5811
orts	-5812
well	-5813
▁ang	-5814
▁btw	-5815
▁hub	-5816
13:29	-5817
13:57	-5818
22:34	-5819
▁2876	-5820
▁26618	-5821
▁26623	-5822
▁28019	-5823
▁table	-5824
estreet	-5825
▁presid	-5826
▁triple	-5827
▁remains	-5828
companies	-5829
▁diversif	-5830
▁historic	-5831
▁official	-5832
▁conservative	-5833
082	-5834
282	-5835
340	-5836
442	-5837
693	-5838
843	-5839
cou	-5840
set	-5841
wed	-5842
▁ol	-5843
ends	-5844
icon	-5845
izon	-5846
▁bes	-5847
▁sma	-5848
13:15	-5849
13:36	-5850
22:31	-5851
23:34	-5852
cedes	-5853
https	-5854
▁2711	-5855
▁band	-5856
▁soar	-5857
▁tdoc	-5858
▁26626	-5859
▁goooo	-5860
▁north	-5861
▁paper	-5862
ression	-5863
▁affect	-5864
▁gaming	-5865
▁result	-5866
▁hearing	-5867
▁lithium	-5868
▁reached	-5869
▁november	-5870
▁communist	-5871
▁corporate	-5872
▁retailers	-5873
▁california	-5874
▁confidence	-5875
▁httpsapplenews	-5876
ey	-5877
hc	-5878
sn	-5879
440	-5880
664	-5881
asp	-5882
cra	-5883
itt	-5884
edly	-5885
mark	-5886
ober	-5887
▁aim	-5888
▁den	-5889
▁pls	-5890
▁rug	-5891
▁sos	-5892
▁yup	-5893
22:07	-5894
23:05	-5895
23:26	-5896
price	-5897
▁2928	-5898
▁matt	-5899
▁pray	-5900
▁smash	-5901
▁decide	-5902
▁holder	-5903
▁mostly	-5904
▁respon	-5905
▁beating	-5906
▁brainer	-5907
▁leaving	-5908
▁approval	-5909
▁bouncing	-5910
▁computer	-5911
▁download	-5912
▁treasury	-5913
▁hyundaikia	-5914
dx	-5915
uv	-5916
292	-5917
695	-5918
765	-5919
883	-5920
975	-5921
ino	-5922
▁dry	-5923
▁ema	-5924
▁gay	-5925
▁ipo	-5926
▁nas	-5927
▁yep	-5928
13:33	-5929
13:35	-5930
22:25	-5931
22:29	-5932
22:38	-5933
23:27	-5934
crypt	-5935
▁2924	-5936
▁2926	-5937
▁firm	-5938
▁july	-5939
▁publ	-5940
▁27873	-5941
▁29406	-5942
▁bless	-5943
▁lotto	-5944
▁stake	-5945
▁upper	-5946
▁afraid	-5947
▁assets	-5948
▁closer	-5949
▁review	-5950
▁signed	-5951
▁worlds	-5952
▁fridays	-5953
▁letting	-5954
▁outlook	-5955
▁stopped	-5956
▁apparent	-5957
▁continued	-5958
▁reportedly	-5959
df	-5960
gm	-5961
172	-5962
352	-5963
dem	-5964
vol	-5965
▁fs	-5966
ably	-5967
ffic	-5968
lcom	-5969
▁emb	-5970
13:05	-5971
13:25	-5972
13:40	-5973
22:04	-5974
22:32	-5975
ctors	-5976
▁2868	-5977
▁calm	-5978
▁fade	-5979
▁nuts	-5980
▁page	-5981
▁redu	-5982
▁vent	-5983
priced	-5984
▁26627	-5985
▁fraud	-5986
▁loser	-5987
▁shame	-5988
▁spent	-5989
▁storm	-5990
▁twice	-5991
▁choose	-5992
▁pissed	-5993
▁travel	-5994
▁visual	-5995
comments	-5996
▁alltime	-5997
▁amongst	-5998
▁lagging	-5999
▁outside	-6000
▁private	-6001
▁maintain	-6002
▁indicator	-6003
▁tomorrows	-6004
▁immediately	-6005
watchcomstory	-6006
▁unfortunately	-6007
bn	-6008
fu	-6009
lk	-6010
342	-6011
392	-6012
763	-6013
768	-6014
bla	-6015
nnn	-6016
yyy	-6017
▁yr	-6018
oton	-6019
▁dil	-6020
▁nan	-6021
13:20	-6022
13:45	-6023
21:58	-6024
22:30	-6025
22:37	-6026
23:50	-6027
ading	-6028
money	-6029
rated	-6030
▁aabb	-6031
▁food	-6032
▁lulu	-6033
▁mass	-6034
▁peak	-6035
▁pins	-6036
▁26612	-6037
▁basis	-6038
▁fools	-6039
▁front	-6040
▁terms	-6041
▁tough	-6042
comtick	-6043
▁fellow	-6044
ailynews	-6045
electric	-6046
▁greater	-6047
▁combined	-6048
▁holidays	-6049
▁weakness	-6050
▁headphones	-6051
▁retirement	-6052
do	-6053
jp	-6054
▁pf	-6055
clus	-6056
cott	-6057
haps	-6058
▁bon	-6059
▁hom	-6060
▁lie	-6061
13:11	-6062
13:18	-6063
13:23	-6064
13:43	-6065
22:26	-6066
22:44	-6067
23:23	-6068
astic	-6069
refer	-6070
ucker	-6071
▁2864	-6072
▁ives	-6073
▁quit	-6074
▁sent	-6075
▁built	-6076
▁scalp	-6077
bitcoin	-6078
quarter	-6079
sources	-6080
timulus	-6081
▁disney	-6082
▁include	-6083
▁network	-6084
▁pennies	-6085
▁picture	-6086
▁trouble	-6087
▁warning	-6088
▁qualcomm	-6089
▁sleeping	-6090
alkmarkets	-6091
▁interview	-6092
bubbleboard	-6093
▁potentially	-6094
▁significant	-6095
▁subscription	-6096
441	-6097
571	-6098
572	-6099
580	-6100
mit	-6101
fall	-6102
fits	-6103
ivid	-6104
wing	-6105
▁tag	-6106
13:16	-6107
13:51	-6108
22:27	-6109
break	-6110
cture	-6111
▁atle	-6112
▁ecos	-6113
▁xmas	-6114
velody	-6115
▁26622	-6116
▁27956	-6117
ization	-6118
▁berksh	-6119
▁cathie	-6120
▁tempor	-6121
▁unlike	-6122
▁wheres	-6123
▁margins	-6124
▁perhaps	-6125
▁announces	-6126
stockmarket	-6127
▁personally	-6128
cr	-6129
261	-6130
aiw	-6131
rac	-6132
yle	-6133
▁cb	-6134
▁cs	-6135
omac	-6136
room	-6137
▁otc	-6138
00:35	-6139
00:36	-6140
13:06	-6141
13:31	-6142
13:38	-6143
13:44	-6144
22:02	-6145
22:55	-6146
▁hott	-6147
▁26947	-6148
▁29405	-6149
▁optim	-6150
▁stonk	-6151
▁truck	-6152
ilities	-6153
▁golden	-6154
▁protot	-6155
▁reiter	-6156
▁scenar	-6157
▁jumping	-6158
▁limited	-6159
▁october	-6160
istration	-6161
▁reaction	-6162
▁ecosystem	-6163
▁outstanding	-6164
▁semiconductor	-6165
▁httpswwwreddit	-6166
212	-6167
240	-6168
280	-6169
372	-6170
492	-6171
665	-6172
674	-6173
862	-6174
884	-6175
965	-6176
cri	-6177
rec	-6178
▁ou	-6179
iled	-6180
inst	-6181
▁etf	-6182
▁gov	-6183
▁sht	-6184
00:03	-6185
00:37	-6186
13:07	-6187
13:48	-6188
22:15	-6189
23:20	-6190
23:37	-6191
aters	-6192
▁2631	-6193
though	-6194
ustain	-6195
▁music	-6196
▁silver	-6197
ilarious	-6198
▁atleast	-6199
▁collect	-6200
▁individ	-6201
▁staying	-6202
chartaapl	-6203
financeio	-6204
▁approved	-6205
comtickers	-6206
▁breakdown	-6207
▁inauguration	-6208
wk	-6209
262	-6210
281	-6211
560	-6212
570	-6213
973	-6214
ada	-6215
chs	-6216
rest	-6217
▁cit	-6218
00:54	-6219
13:28	-6220
13:32	-6221
22:36	-6222
aires	-6223
cycle	-6224
rades	-6225
▁junk	-6226
▁macd	-6227
▁ramp	-6228
bought	-6229
▁peers	-6230
▁plant	-6231
▁turns	-6232
▁fuckin	-6233
▁stable	-6234
▁wallet	-6235
▁advance	-6236
▁although	-6237
▁everyones	-6238
▁officially	-6239
764	-6240
968	-6241
rel	-6242
zos	-6243
▁dy	-6244
when	-6245
▁lad	-6246
00:16	-6247
01:38	-6248
13:14	-6249
22:33	-6250
22:40	-6251
22:54	-6252
23:01	-6253
23:36	-6254
23:49	-6255
23:58	-6256
share	-6257
▁aitx	-6258
▁glta	-6259
▁ibio	-6260
▁reco	-6261
▁yolo	-6262
▁29313	-6263
▁cance	-6264
▁lever	-6265
▁accura	-6266
▁answer	-6267
▁begins	-6268
▁former	-6269
▁panick	-6270
▁pulled	-6271
▁search	-6272
▁boycott	-6273
▁continu	-6274
▁matters	-6275
▁respect	-6276
▁slaught	-6277
▁patterns	-6278
▁payments	-6279
comampswww	-6280
▁hilarious	-6281
▁thousands	-6282
▁guaranteed	-6283
▁possibility	-6284
▁shareholder	-6285
▁httpsinsider	-6286
ji	-6287
pk	-6288
vi	-6289
591	-6290
668	-6291
was	-6292
chie	-6293
comn	-6294
ften	-6295
iews	-6296
pose	-6297
sthe	-6298
uses	-6299
▁aud	-6300
▁gun	-6301
00:24	-6302
13:21	-6303
22:23	-6304
22:24	-6305
23:22	-6306
23:39	-6307
first	-6308
rader	-6309
▁2863	-6310
▁2927	-6311
▁educ	-6312
▁maga	-6313
▁wire	-6314
▁wise	-6315
employ	-6316
rading	-6317
tional	-6318
▁27649	-6319
▁execu	-6320
▁ultim	-6321
▁burned	-6322
▁factor	-6323
▁worked	-6324
▁changing	-6325
▁estimate	-6326
▁opposite	-6327
▁volatile	-6328
▁httpstomac	-6329
▁individual	-6330
▁recommendations	-6331
bh	-6332
sk	-6333
332	-6334
561	-6335
663	-6336
ery	-6337
▁tf	-6338
▁uk	-6339
anti	-6340
core	-6341
▁ccl	-6342
▁yrs	-6343
13:27	-6344
23:19	-6345
23:24	-6346
entum	-6347
ising	-6348
▁dick	-6349
▁rare	-6350
▁26629	-6351
▁26635	-6352
▁alive	-6353
▁buyer	-6354
▁tells	-6355
jection	-6356
▁hourly	-6357
▁settle	-6358
▁spring	-6359
▁becoming	-6360
▁shouldve	-6361
▁catalysts	-6362
▁challenge	-6363
▁employees	-6364
▁liquidity	-6365
▁maintains	-6366
▁purchased	-6367
▁technicals	-6368
ep	-6369
012	-6370
271	-6371
562	-6372
ogn	-6373
onm	-6374
▁ry	-6375
argo	-6376
inal	-6377
ions	-6378
link	-6379
ural	-6380
utal	-6381
▁btd	-6382
▁law	-6383
▁mat	-6384
▁club	-6385
▁fold	-6386
▁hill	-6387
▁math	-6388
▁prog	-6389
▁zoom	-6390
▁movie	-6391
▁phase	-6392
▁quoti	-6393
▁sheet	-6394
▁someb	-6395
▁stage	-6396
▁receiv	-6397
▁school	-6398
▁yearly	-6399
▁controll	-6400
▁terrible	-6401
▁tracking	-6402
▁valuable	-6403
▁effective	-6404
▁situation	-6405
▁trillions	-6406
fo	-6407
582	-6408
ias	-6409
rit	-6410
acks	-6411
rodu	-6412
stay	-6413
ussi	-6414
vere	-6415
00:53	-6416
12:44	-6417
22:28	-6418
22:46	-6419
22:48	-6420
22:53	-6421
23:28	-6422
23:43	-6423
▁bias	-6424
▁bump	-6425
▁ethx	-6426
▁fasc	-6427
▁impl	-6428
▁meas	-6429
▁stag	-6430
▁taiw	-6431
atives	-6432
essage	-6433
▁cases	-6434
▁inves	-6435
▁lolol	-6436
▁loves	-6437
▁often	-6438
▁scary	-6439
▁south	-6440
urities	-6441
▁intern	-6442
▁living	-6443
▁secure	-6444
▁timing	-6445
▁sustain	-6446
▁bringing	-6447
▁climbing	-6448
▁liberals	-6449
▁mercedes	-6450
▁triangle	-6451
▁community	-6452
▁indicates	-6453
▁quotapple	-6454
▁subscribe	-6455
▁worldwide	-6456
▁additional	-6457
▁partnering	-6458
gc	-6459
bes	-6460
ampt	-6461
lets	-6462
▁gas	-6463
▁tie	-6464
▁yoy	-6465
00:25	-6466
12:30	-6467
13:00	-6468
13:46	-6469
13:54	-6470
22:39	-6471
22:43	-6472
arily	-6473
▁gene	-6474
▁leap	-6475
▁tiny	-6476
▁blast	-6477
▁broad	-6478
▁crack	-6479
▁equal	-6480
▁field	-6481
▁human	-6482
▁insur	-6483
▁separ	-6484
▁there	-6485
▁compon	-6486
▁fiscal	-6487
▁loving	-6488
▁symbol	-6489
▁toyota	-6490
▁sources	-6491
▁worries	-6492
▁realtime	-6493
▁vaccines	-6494
▁somewhere	-6495
stockscreen	-6496
▁partnerships	-6497
wb	-6498
307	-6499
542	-6500
581	-6501
amer	-6502
axis	-6503
feed	-6504
▁bec	-6505
▁jnj	-6506
▁nat	-6507
▁opp	-6508
▁pts	-6509
00:33	-6510
01:12	-6511
01:32	-6512
12:51	-6513
22:51	-6514
23:18	-6515
erves	-6516
ooooo	-6517
▁2873	-6518
▁2931	-6519
▁char	-6520
▁foot	-6521
▁onto	-6522
▁owns	-6523
▁wimi	-6524
ummary	-6525
▁attem	-6526
▁crook	-6527
▁crowd	-6528
▁bright	-6529
▁distri	-6530
▁middle	-6531
▁mining	-6532
▁suppos	-6533
▁advanced	-6534
▁majority	-6535
▁shortage	-6536
mostactive	-6537
▁securities	-6538
ailynewsaapl	-6539
▁httpdlvritr	-6540
▁administration	-6541
comdailynewsaapl	-6542
avs	-6543
vir	-6544
baba	-6545
ceed	-6546
cook	-6547
deal	-6548
eets	-6549
site	-6550
▁fyi	-6551
▁jer	-6552
▁six	-6553
00:49	-6554
00:50	-6555
12:57	-6556
13:03	-6557
13:04	-6558
23:46	-6559
ledge	-6560
▁barg	-6561
▁conv	-6562
▁wide	-6563
ancing	-6564
mented	-6565
▁chief	-6566
▁ended	-6567
▁quots	-6568
clusive	-6569
▁backed	-6570
▁cancer	-6571
▁allowed	-6572
▁factory	-6573
▁httpsfa	-6574
▁huberty	-6575
▁removed	-6576
▁exciting	-6577
▁gambling	-6578
▁somebody	-6579
▁everywhere	-6580
▁overpriced	-6581
▁struggling	-6582
▁manipulating	-6583
uterscomarticle	-6584
gf	-6585
540	-6586
541	-6587
bon	-6588
cept	-6589
ival	-6590
obuy	-6591
▁alp	-6592
▁cas	-6593
▁pal	-6594
▁unc	-6595
00:08	-6596
00:43	-6597
00:59	-6598
22:42	-6599
23:12	-6600
23:25	-6601
23:32	-6602
23:59	-6603
▁amid	-6604
▁asse	-6605
▁cond	-6606
▁wife	-6607
atures	-6608
ressed	-6609
▁mouth	-6610
▁retra	-6611
▁upset	-6612
▁august	-6613
▁reveal	-6614
▁trends	-6615
▁classic	-6616
▁picking	-6617
▁creating	-6618
▁agreement	-6619
▁berkshire	-6620
xx	-6621
323	-6622
gac	-6623
ktw	-6624
may	-6625
mom	-6626
blog	-6627
▁uni	-6628
00:01	-6629
00:18	-6630
12:32	-6631
23:31	-6632
23:40	-6633
23:44	-6634
23:51	-6635
kswag	-6636
▁tool	-6637
▁drama	-6638
▁grabb	-6639
▁jones	-6640
▁sidel	-6641
▁stell	-6642
project	-6643
▁cheers	-6644
▁models	-6645
▁sunday	-6646
▁rockets	-6647
▁systems	-6648
utmsources	-6649
▁overweight	-6650
uk	-6651
841	-6652
851	-6653
bid	-6654
gam	-6655
ger	-6656
ball	-6657
ests	-6658
next	-6659
omen	-6660
▁deb	-6661
▁fix	-6662
▁kod	-6663
▁wre	-6664
00:45	-6665
00:47	-6666
00:48	-6667
01:24	-6668
22:45	-6669
22:49	-6670
23:29	-6671
23:38	-6672
23:47	-6673
23:54	-6674
ocial	-6675
uster	-6676
▁2854	-6677
▁2894	-6678
▁budd	-6679
▁busy	-6680
▁spam	-6681
iction	-6682
vision	-6683
▁26619	-6684
▁26625	-6685
▁26636	-6686
▁27625	-6687
▁27717	-6688
▁27796	-6689
▁flash	-6690
▁labor	-6691
▁ending	-6692
▁exceed	-6693
▁alright	-6694
▁silicon	-6695
▁certainly	-6696
▁apparently	-6697
bd	-6698
gy	-6699
302	-6700
550	-6701
592	-6702
let	-6703
eted	-6704
high	-6705
tesy	-6706
▁aka	-6707
▁smo	-6708
00:39	-6709
01:21	-6710
12:36	-6711
23:03	-6712
23:45	-6713
23:52	-6714
comen	-6715
eting	-6716
hedge	-6717
inyur	-6718
▁2900	-6719
▁alph	-6720
▁asia	-6721
▁drug	-6722
▁pays	-6723
▁pops	-6724
iation	-6725
▁loses	-6726
▁patri	-6727
▁react	-6728
ructure	-6729
▁claims	-6730
▁forgot	-6731
▁remove	-6732
▁swings	-6733
▁warned	-6734
ahahahah	-6735
campaign	-6736
▁besides	-6737
▁munster	-6738
inyurlcom	-6739
wscomnews	-6740
▁courtesy	-6741
▁learning	-6742
▁unemploy	-6743
▁indicators	-6744
▁innovative	-6745
▁httpstinyurlcom	-6746
aq	-6747
ho	-6748
306	-6749
rid	-6750
upd	-6751
grow	-6752
▁ipv	-6753
▁noo	-6754
▁sne	-6755
▁tun	-6756
00:17	-6757
00:19	-6758
00:32	-6759
00:57	-6760
00:58	-6761
01:02	-6762
01:06	-6763
01:11	-6764
01:18	-6765
23:53	-6766
force	-6767
inthe	-6768
▁fant	-6769
▁orig	-6770
tified	-6771
▁26945	-6772
▁bezos	-6773
▁lmfao	-6774
▁loose	-6775
▁monop	-6776
▁nasty	-6777
▁proof	-6778
▁scoop	-6779
▁alpine	-6780
▁boomer	-6781
▁locked	-6782
▁prefer	-6783
▁blowing	-6784
▁chances	-6785
▁dipping	-6786
▁entered	-6787
▁feature	-6788
▁knowing	-6789
▁trigger	-6790
▁whoever	-6791
▁customer	-6792
▁delivery	-6793
▁included	-6794
▁stronger	-6795
▁violence	-6796
▁desperate	-6797
▁httpswwwz	-6798
▁cryptocurrency	-6799
ij	-6800
vd	-6801
532	-6802
889	-6803
▁gh	-6804
----	-6805
ague	-6806
cons	-6807
lamp	-6808
oles	-6809
▁atm	-6810
▁fib	-6811
▁mga	-6812
▁tem	-6813
00:52	-6814
01:04	-6815
01:05	-6816
01:07	-6817
01:16	-6818
03:07	-6819
23:21	-6820
23:55	-6821
chain	-6822
chang	-6823
erous	-6824
iders	-6825
▁2831	-6826
▁alot	-6827
▁pace	-6828
▁uses	-6829
▁26448	-6830
▁29629	-6831
▁asset	-6832
▁legal	-6833
ulative	-6834
▁adjust	-6835
▁brings	-6836
▁jumped	-6837
▁pumped	-6838
▁unreal	-6839
▁becomes	-6840
▁chasing	-6841
▁dumbass	-6842
▁hottest	-6843
▁peloton	-6844
uckerberg	-6845
▁disaster	-6846
▁particip	-6847
▁relative	-6848
▁scenario	-6849
▁computers	-6850
▁httpswwws	-6851
▁knowledge	-6852
516	-6853
829	-6854
850	-6855
974	-6856
ahh	-6857
bel	-6858
bet	-6859
str	-6860
▁ga	-6861
pers	-6862
road	-6863
they	-6864
▁bud	-6865
▁fda	-6866
▁fuk	-6867
▁lap	-6868
▁naz	-6869
00:05	-6870
00:10	-6871
00:23	-6872
00:31	-6873
12:56	-6874
13:42	-6875
23:57	-6876
black	-6877
nered	-6878
▁2893	-6879
▁2895	-6880
▁adbe	-6881
▁bath	-6882
▁fren	-6883
▁inte	-6884
▁quad	-6885
▁thbr	-6886
arters	-6887
▁adver	-6888
▁annoy	-6889
▁faith	-6890
▁peace	-6891
▁tslas	-6892
▁brutal	-6893
▁hammer	-6894
▁bounced	-6895
▁shaking	-6896
▁exchange	-6897
▁national	-6898
▁standard	-6899
▁corporation	-6900
242	-6901
690	-6902
983	-6903
998	-6904
aaa	-6905
erc	-6906
zen	-6907
ocks	-6908
▁agg	-6909
00:02	-6910
00:28	-6911
00:46	-6912
01:00	-6913
13:13	-6914
ences	-6915
▁chop	-6916
▁cree	-6917
▁girl	-6918
▁hood	-6919
▁iden	-6920
▁achie	-6921
▁noise	-6922
▁sachs	-6923
▁tanks	-6924
▁larger	-6925
▁reject	-6926
▁repres	-6927
▁rigged	-6928
▁startup	-6929
▁democrat	-6930
▁investig	-6931
▁progress	-6932
▁competitor	-6933
▁democratic	-6934
▁continuation	-6935
▁collaboration	-6936
cd	-6937
mf	-6938
vo	-6939
▁;	-6940
345	-6941
414	-6942
590	-6943
671	-6944
777	-6945
881	-6946
ars	-6947
bux	-6948
his	-6949
men	-6950
alks	-6951
inks	-6952
oned	-6953
▁que	-6954
00:06	-6955
00:26	-6956
00:51	-6957
00:55	-6958
01:29	-6959
01:30	-6960
12:52	-6961
13:24	-6962
13:26	-6963
tesla	-6964
▁blah	-6965
▁crsr	-6966
▁gooo	-6967
▁opti	-6968
▁prob	-6969
▁sett	-6970
▁stat	-6971
▁surv	-6972
acking	-6973
enever	-6974
hyunda	-6975
▁27027	-6976
▁organ	-6977
▁wreck	-6978
▁became	-6979
▁taiwan	-6980
03:16:02	-6981
20:16:02	-6982
▁causing	-6983
▁initial	-6984
▁raising	-6985
▁powerful	-6986
▁speaking	-6987
▁concerned	-6988
▁decisions	-6989
▁entertain	-6990
▁statement	-6991
▁suppliers	-6992
▁calculated	-6993
▁valuations	-6994
po	-6995
691	-6996
817	-6997
aty	-6998
son	-6999
▁kt	-7000
bles	-7001
stra	-7002
uted	-7003
▁arm	-7004
▁nke	-7005
▁pun	-7006
▁tnx	-7007
▁ytd	-7008
00:00	-7009
00:20	-7010
00:29	-7011
00:44	-7012
01:13	-7013
02:34	-7014
12:17	-7015
12:47	-7016
13:08	-7017
22:52	-7018
acity	-7019
etary	-7020
obile	-7021
world	-7022
▁jeff	-7023
▁27648	-7024
▁27657	-7025
▁angry	-7026
▁color	-7027
▁gates	-7028
▁illeg	-7029
▁impos	-7030
▁parts	-7031
▁rises	-7032
▁rolls	-7033
▁trick	-7034
▁looked	-7035
04:16:02	-7036
05:16:02	-7037
13:16:02	-7038
▁install	-7039
▁kidding	-7040
▁planned	-7041
▁stellar	-7042
▁downward	-7043
▁involved	-7044
elfdriving	-7045
ufacturing	-7046
▁developed	-7047
▁prototype	-7048
999	-7049
iet	-7050
pin	-7051
▁nm	-7052
gain	-7053
poin	-7054
▁bel	-7055
▁dim	-7056
▁eve	-7057
▁imm	-7058
▁upl	-7059
00:42	-7060
01:36	-7061
01:54	-7062
02:28	-7063
02:42	-7064
02:45	-7065
03:22	-7066
12:16	-7067
12:31	-7068
12:43	-7069
13:02	-7070
arian	-7071
jects	-7072
▁cele	-7073
▁ment	-7074
▁rall	-7075
▁solo	-7076
▁thes	-7077
roaxis	-7078
▁26946	-7079
▁27719	-7080
▁argue	-7081
▁attra	-7082
▁carry	-7083
▁knock	-7084
▁prime	-7085
▁rebal	-7086
▁steps	-7087
ination	-7088
kswagen	-7089
release	-7090
▁button	-7091
▁driven	-7092
▁pfizer	-7093
▁vision	-7094
06:16:02	-7095
07:16:02	-7096
15:16:02	-7097
▁burning	-7098
▁helping	-7099
▁meaning	-7100
▁peoples	-7101
▁qualify	-7102
▁website	-7103
echnology	-7104
▁pipeline	-7105
▁watchers	-7106
▁brokerage	-7107
▁trendline	-7108
▁httpsstock	-7109
▁overbought	-7110
▁republican	-7111
▁complaining	-7112
▁httpswwwfool	-7113
▁underperform	-7114
vc	-7115
308	-7116
551	-7117
778	-7118
964	-7119
fra	-7120
que	-7121
▁ft	-7122
ible	-7123
pric	-7124
▁lil	-7125
▁tip	-7126
00:09	-7127
00:22	-7128
00:38	-7129
01:31	-7130
01:44	-7131
01:48	-7132
02:08	-7133
02:53	-7134
12:15	-7135
12:50	-7136
12:59	-7137
22:50	-7138
agram	-7139
phpid	-7140
▁door	-7141
▁jagx	-7142
▁lord	-7143
▁noon	-7144
▁slap	-7145
▁uavs	-7146
▁woke	-7147
ection	-7148
igning	-7149
strong	-7150
▁27646	-7151
▁27936	-7152
▁29402	-7153
▁backs	-7154
▁hurry	-7155
▁regul	-7156
▁suits	-7157
twitter	-7158
▁explod	-7159
▁gooooo	-7160
▁laptop	-7161
▁racial	-7162
02:16:02	-7163
08:16:02	-7164
11:16:02	-7165
21:16:02	-7166
22:16:02	-7167
▁alibaba	-7168
▁bargain	-7169
▁candles	-7170
▁decades	-7171
▁finance	-7172
▁nowhere	-7173
▁trapped	-7174
robinhood	-7175
▁exposure	-7176
▁partnered	-7177
lf	-7178
wn	-7179
xc	-7180
xs	-7181
zl	-7182
304	-7183
519	-7184
552	-7185
774	-7186
832	-7187
dro	-7188
▁gd	-7189
▁ly	-7190
▁mk	-7191
erts	-7192
ffff	-7193
ford	-7194
rage	-7195
shot	-7196
▁fle	-7197
▁lfg	-7198
▁lic	-7199
01:10	-7200
01:51	-7201
12:25	-7202
12:53	-7203
12:54	-7204
12:55	-7205
23:30	-7206
write	-7207
▁bust	-7208
▁bynd	-7209
▁died	-7210
▁hmmm	-7211
▁lack	-7212
▁prec	-7213
▁srne	-7214
▁susp	-7215
comnew	-7216
▁26637	-7217
▁27636	-7218
▁27957	-7219
▁28018	-7220
▁29315	-7221
▁aaple	-7222
▁asked	-7223
▁deals	-7224
▁reset	-7225
▁teach	-7226
aterial	-7227
cending	-7228
▁rights	-7229
▁toward	-7230
01:16:02	-7231
09:16:02	-7232
10:16:02	-7233
▁lawsuit	-7234
▁quotthe	-7235
▁airlines	-7236
▁finished	-7237
▁shorties	-7238
▁supposed	-7239
▁upgraded	-7240
technology	-7241
▁uncertain	-7242
▁accumulate	-7243
▁supercycle	-7244
▁zuckerberg	-7245
pf	-7246
305	-7247
852	-7248
ano	-7249
bot	-7250
ork	-7251
amed	-7252
care	-7253
chat	-7254
evit	-7255
oper	-7256
plac	-7257
vant	-7258
▁age	-7259
▁bow	-7260
▁dma	-7261
00:14	-7262
00:41	-7263
01:03	-7264
01:22	-7265
01:23	-7266
01:45	-7267
02:29	-7268
02:31	-7269
12:24	-7270
12:37	-7271
12:49	-7272
23:48	-7273
ender	-7274
idusk	-7275
▁2710	-7276
▁arri	-7277
▁edge	-7278
▁melt	-7279
▁parl	-7280
▁sbux	-7281
▁vari	-7282
comins	-7283
compro	-7284
ignals	-7285
stonks	-7286
urious	-7287
▁27157	-7288
▁27866	-7289
▁27889	-7290
▁alter	-7291
▁areas	-7292
▁jumps	-7293
▁quiet	-7294
▁treat	-7295
▁wheel	-7296
▁278745	-7297
▁disrup	-7298
▁inevit	-7299
00:16:02	-7300
12:16:02	-7301
16:16:02	-7302
screener	-7303
▁prevent	-7304
▁upwards	-7305
marketcap	-7306
▁coverage	-7307
▁lockdown	-7308
▁problems	-7309
▁fantastic	-7310
▁disappoint	-7311
▁competitors	-7312
▁unemployment	-7313
bi	-7314
fm	-7315
ky	-7316
326	-7317
815	-7318
842	-7319
axy	-7320
idm	-7321
iph	-7322
spa	-7323
abet	-7324
ened	-7325
eter	-7326
wind	-7327
▁brr	-7328
▁fal	-7329
▁fdx	-7330
▁jud	-7331
▁lod	-7332
00:04	-7333
00:56	-7334
01:20	-7335
01:58	-7336
02:25	-7337
02:47	-7338
02:57	-7339
12:12	-7340
12:34	-7341
12:42	-7342
23:17	-7343
▁nope	-7344
▁roof	-7345
▁suit	-7346
▁wash	-7347
comaut	-7348
ervous	-7349
ground	-7350
staapl	-7351
▁27709	-7352
▁27902	-7353
▁infra	-7354
▁sight	-7355
▁speed	-7356
connell	-7357
iphones	-7358
▁eating	-7359
18:16:02	-7360
▁appears	-7361
▁leaders	-7362
▁medical	-7363
▁natural	-7364
▁payment	-7365
▁walmart	-7366
roaxiscom	-7367
▁confused	-7368
▁wireless	-7369
▁predicted	-7370
▁impossible	-7371
vy	-7372
790	-7373
972	-7374
994	-7375
ste	-7376
arma	-7377
aves	-7378
band	-7379
inse	-7380
irty	-7381
izes	-7382
main	-7383
raph	-7384
rock	-7385
▁otm	-7386
01:17	-7387
01:33	-7388
01:41	-7389
01:53	-7390
02:02	-7391
02:13	-7392
02:38	-7393
03:46	-7394
12:20	-7395
12:27	-7396
12:28	-7397
12:41	-7398
12:48	-7399
23:56	-7400
clidi	-7401
eeeee	-7402
iding	-7403
press	-7404
ymbol	-7405
▁2930	-7406
▁asap	-7407
▁odds	-7408
▁seat	-7409
▁siri	-7410
▁suff	-7411
▁xspa	-7412
record	-7413
▁27156	-7414
▁27624	-7415
▁29445	-7416
▁notif	-7417
▁sched	-7418
▁sides	-7419
▁wells	-7420
▁riding	-7421
▁stockb	-7422
momentum	-7423
▁acquire	-7424
▁anyways	-7425
▁integra	-7426
▁introdu	-7427
▁savings	-7428
▁strange	-7429
▁typical	-7430
▁benzinga	-7431
▁horrible	-7432
▁managers	-7433
▁opinions	-7434
entlyapple	-7435
filterioaa	-7436
▁automakers	-7437
▁impeachment	-7438
▁perspective	-7439
▁smartphones	-7440
jo	-7441
kb	-7442
md	-7443
309	-7444
439	-7445
514	-7446
672	-7447
hin	-7448
olf	-7449
wit	-7450
▁ti	-7451
ateg	-7452
away	-7453
zzzz	-7454
▁gri	-7455
▁huh	-7456
▁psy	-7457
▁vxx	-7458
▁wfc	-7459
▁yay	-7460
00:15	-7461
00:34	-7462
01:08	-7463
01:26	-7464
01:37	-7465
01:39	-7466
01:43	-7467
01:50	-7468
02:20	-7469
02:22	-7470
02:32	-7471
02:56	-7472
03:04	-7473
12:11	-7474
green	-7475
▁2661	-7476
▁beta	-7477
▁deck	-7478
oooooo	-7479
pected	-7480
ptions	-7481
▁27656	-7482
▁27869	-7483
▁daddy	-7484
▁hmmmm	-7485
▁ignor	-7486
fbclidi	-7487
▁appear	-7488
▁approx	-7489
▁indeed	-7490
▁nervous	-7491
▁records	-7492
▁reflect	-7493
▁children	-7494
▁confirms	-7495
▁whenever	-7496
filterioae	-7497
▁published	-7498
utmcampaign	-7499
wirecomnews	-7500
▁appreciate	-7501
▁consistent	-7502
▁manipulate	-7503
▁frustrating	-7504
▁rwallstreetbets	-7505
422	-7506
426	-7507
535	-7508
792	-7509
eto	-7510
omb	-7511
rap	-7512
▁ko	-7513
gust	-7514
itor	-7515
tist	-7516
▁cru	-7517
▁dav	-7518
▁fro	-7519
▁loc	-7520
▁rbc	-7521
▁spo	-7522
01:19	-7523
01:57	-7524
02:27	-7525
03:03	-7526
03:09	-7527
03:16	-7528
12:35	-7529
12:38	-7530
based	-7531
bitly	-7532
enced	-7533
ermit	-7534
▁bang	-7535
▁bound	-7536
▁decre	-7537
▁fargo	-7538
▁fresh	-7539
▁helps	-7540
▁mixed	-7541
▁prove	-7542
▁solar	-7543
▁votes	-7544
▁establ	-7545
▁gamble	-7546
▁midday	-7547
▁showed	-7548
▁tweets	-7549
▁weight	-7550
23:16:02	-7551
partners	-7552
▁justice	-7553
▁roughly	-7554
▁soaring	-7555
▁wouldve	-7556
▁estimated	-7557
▁exclusive	-7558
▁shoulders	-7559
▁leadership	-7560
▁supporting	-7561
▁disappointed	-7562
tv	-7563
xl	-7564
314	-7565
680	-7566
751	-7567
981	-7568
den	-7569
lim	-7570
unt	-7571
urt	-7572
▁dm	-7573
▁iq	-7574
▁mp	-7575
ourn	-7576
qual	-7577
▁bee	-7578
▁hyp	-7579
▁lab	-7580
▁ugh	-7581
00:07	-7582
00:12	-7583
00:13	-7584
00:21	-7585
01:15	-7586
01:35	-7587
02:26	-7588
atory	-7589
hours	-7590
month	-7591
viron	-7592
works	-7593
▁adds	-7594
▁appe	-7595
▁assh	-7596
▁cbat	-7597
▁cock	-7598
▁pile	-7599
▁rush	-7600
▁sand	-7601
▁sort	-7602
arrass	-7603
▁26502	-7604
▁27247	-7605
▁activ	-7606
▁celeb	-7607
▁email	-7608
▁fucks	-7609
▁hopes	-7610
▁ipads	-7611
▁korea	-7612
▁magna	-7613
▁naked	-7614
▁nancy	-7615
▁stack	-7616
▁swear	-7617
▁crimin	-7618
▁diffic	-7619
▁easier	-7620
▁gtgtgt	-7621
▁kicked	-7622
▁lowest	-7623
▁recogn	-7624
17:16:02	-7625
19:16:02	-7626
▁bitches	-7627
▁concept	-7628
▁illegal	-7629
▁podcast	-7630
▁portfol	-7631
▁shortly	-7632
appleaapl	-7633
▁guessing	-7634
▁hundreds	-7635
▁received	-7636
▁squeezed	-7637
▁producing	-7638
▁reiterated	-7639
▁fundamental	-7640
comstocksaapl	-7641
▁disappointing	-7642
hi	-7643
315	-7644
486	-7645
536	-7646
549	-7647
604	-7648
782	-7649
882	-7650
anc	-7651
des	-7652
kei	-7653
msn	-7654
sss	-7655
▁jm	-7656
▁ve	-7657
bear	-7658
cies	-7659
gggg	-7660
iant	-7661
leek	-7662
outs	-7663
▁led	-7664
▁tac	-7665
01:28	-7666
01:40	-7667
01:47	-7668
01:55	-7669
02:18	-7670
02:21	-7671
02:40	-7672
02:46	-7673
03:02	-7674
12:05	-7675
12:19	-7676
23:41	-7677
agree	-7678
funds	-7679
ghold	-7680
igned	-7681
index	-7682
otrad	-7683
queez	-7684
reets	-7685
store	-7686
▁drag	-7687
▁ipoe	-7688
▁iron	-7689
▁john	-7690
▁opex	-7691
▁rose	-7692
▁stpk	-7693
▁youd	-7694
itrade	-7695
olitic	-7696
▁26639	-7697
▁26759	-7698
▁29448	-7699
▁blind	-7700
▁burst	-7701
▁grind	-7702
▁obama	-7703
▁toast	-7704
ounding	-7705
▁dipped	-7706
▁driver	-7707
▁httpsb	-7708
▁ladies	-7709
▁owning	-7710
▁prints	-7711
▁unload	-7712
▁bashing	-7713
▁curious	-7714
▁headset	-7715
▁painful	-7716
▁pricing	-7717
▁smaller	-7718
▁workers	-7719
▁original	-7720
▁quarters	-7721
▁topstonks	-7722
▁components	-7723
comarticlesapple	-7724
ln	-7725
316	-7726
327	-7727
339	-7728
419	-7729
427	-7730
429	-7731
503	-7732
636	-7733
670	-7734
819	-7735
835	-7736
840	-7737
950	-7738
971	-7739
fed	-7740
ham	-7741
▁ie	-7742
adel	-7743
bath	-7744
flow	-7745
gest	-7746
▁bln	-7747
▁ess	-7748
▁quo	-7749
01:14	-7750
02:05	-7751
02:09	-7752
02:43	-7753
02:52	-7754
03:48	-7755
04:03	-7756
12:08	-7757
12:21	-7758
12:33	-7759
inter	-7760
orith	-7761
power	-7762
tious	-7763
▁bbby	-7764
▁copy	-7765
▁crwd	-7766
▁heck	-7767
▁laug	-7768
▁momo	-7769
▁pigs	-7770
▁pill	-7771
▁revs	-7772
▁text	-7773
▁tomm	-7774
drogen	-7775
idered	-7776
tisnow	-7777
▁26620	-7778
▁27722	-7779
▁cards	-7780
▁categ	-7781
▁fault	-7782
▁honda	-7783
▁magic	-7784
▁mitch	-7785
▁reent	-7786
▁stagn	-7787
▁steam	-7788
eralert	-7789
through	-7790
▁disgust	-7791
▁display	-7792
▁expects	-7793
▁gaining	-7794
▁reminds	-7795
▁rumored	-7796
▁windows	-7797
saapldate	-7798
▁buywrite	-7799
▁emotions	-7800
▁laughing	-7801
▁launched	-7802
cominsight	-7803
▁difficult	-7804
▁embarrass	-7805
▁wearables	-7806
comautotrad	-7807
▁considered	-7808
▁httpswwwthe	-7809
▁speculative	-7810
▁profitability	-7811
eralertsaapldate	-7812
cs	-7813
js	-7814
wl	-7815
322	-7816
328	-7817
409	-7818
413	-7819
425	-7820
436	-7821
447	-7822
525	-7823
825	-7824
827	-7825
995	-7826
bye	-7827
dow	-7828
ica	-7829
ked	-7830
oad	-7831
put	-7832
rsx	-7833
til	-7834
▁my	-7835
aaaa	-7836
ched	-7837
ches	-7838
cont	-7839
dude	-7840
fuck	-7841
ises	-7842
oken	-7843
pool	-7844
▁ads	-7845
▁bot	-7846
▁hrs	-7847
▁var	-7848
▁xom	-7849
01:09	-7850
01:25	-7851
01:49	-7852
02:36	-7853
02:39	-7854
02:59	-7855
03:59	-7856
12:06	-7857
12:29	-7858
12:58	-7859
13:22	-7860
plays	-7861
▁2633	-7862
▁2853	-7863
▁2940	-7864
▁blsp	-7865
▁frsx	-7866
▁leak	-7867
▁ouch	-7868
▁piot	-7869
▁rand	-7870
▁shar	-7871
▁thus	-7872
▁vxrt	-7873
▁27645	-7874
▁27720	-7875
▁29407	-7876
▁apart	-7877
▁bitly	-7878
▁cliff	-7879
▁dirty	-7880
▁notes	-7881
▁pants	-7882
▁shits	-7883
▁write	-7884
actions	-7885
▁commer	-7886
▁helped	-7887
▁planet	-7888
▁pocket	-7889
▁policy	-7890
▁theory	-7891
antisnow	-7892
releases	-7893
▁charger	-7894
▁gainers	-7895
▁improve	-7896
▁infrast	-7897
▁liberal	-7898
▁piotros	-7899
▁retrace	-7900
▁updated	-7901
ashington	-7902
▁annoying	-7903
▁capacity	-7904
▁material	-7905
filterioaf	-7906
▁panicking	-7907
▁pullbacks	-7908
▁stockbeep	-7909
▁continuing	-7910
▁generation	-7911
▁httpsbitly	-7912
▁reasonable	-7913
stocksequities	-7914
▁notifications	-7915
▁significantly	-7916
▁httpsquantisnow	-7917
bf	-7918
zf	-7919
335	-7920
386	-7921
408	-7922
432	-7923
449	-7924
487	-7925
587	-7926
741	-7927
761	-7928
809	-7929
887	-7930
ajy	-7931
bis	-7932
cey	-7933
sec	-7934
amaz	-7935
▁gld	-7936
▁vhc	-7937
02:01	-7938
02:16	-7939
02:37	-7940
02:49	-7941
02:50	-7942
02:51	-7943
03:27	-7944
12:39	-7945
ached	-7946
ified	-7947
start	-7948
▁2821	-7949
▁2843	-7950
▁2884	-7951
▁host	-7952
▁macs	-7953
▁mort	-7954
▁mrvl	-7955
▁perm	-7956
attery	-7957
▁26707	-7958
▁27597	-7959
▁27954	-7960
▁behav	-7961
▁emerg	-7962
▁equip	-7963
▁flood	-7964
▁gross	-7965
▁juicy	-7966
▁notic	-7967
▁overt	-7968
▁quant	-7969
▁radar	-7970
▁refer	-7971
▁riots	-7972
▁formed	-7973
▁powers	-7974
▁tested	-7975
erohedge	-7976
gamestop	-7977
rrrrrrrr	-7978
▁citadel	-7979
▁fortune	-7980
▁grabbed	-7981
▁httpscl	-7982
▁surpass	-7983
vironment	-7984
▁advertis	-7985
▁downgrad	-7986
▁extended	-7987
▁lifetime	-7988
▁retarded	-7989
▁bloodbath	-7990
▁elsewhere	-7991
▁screaming	-7992
▁wonderful	-7993
▁financials	-7994
▁recovering	-7995
▁infrastructure	-7996
303	-7997
313	-7998
329	-7999
349	-8000
406	-8001
416	-8002
446	-8003
489	-8004
517	-8005
780	-8006
935	-8007
960	-8008
982	-8009
adv	-8010
alf	-8011
bnb	-8012
btc	-8013
dev	-8014
kif	-8015
mag	-8016
oph	-8017
pts	-8018
xas	-8019
▁dc	-8020
apan	-8021
dont	-8022
pres	-8023
uits	-8024
umes	-8025
▁mcd	-8026
▁wif	-8027
▁xlk	-8028
00:30	-8029
00:40	-8030
01:42	-8031
02:15	-8032
02:33	-8033
04:01	-8034
04:04	-8035
04:05	-8036
11:51	-8037
12:23	-8038
tterm	-8039
▁here	-8040
▁imho	-8041
▁reli	-8042
▁upon	-8043
endent	-8044
inated	-8045
sector	-8046
▁27015	-8047
▁29316	-8048
▁books	-8049
▁costs	-8050
▁occur	-8051
▁runup	-8052
▁safer	-8053
▁spacs	-8054
▁tuned	-8055
▁vuzix	-8056
referra	-8057
vehicle	-8058
▁caused	-8059
▁fcking	-8060
▁league	-8061
▁rolled	-8062
▁safety	-8063
announce	-8064
appleinc	-8065
aytrader	-8066
▁attempt	-8067
▁banning	-8068
▁goodbye	-8069
▁kicking	-8070
▁algorith	-8071
▁features	-8072
▁swinging	-8073
▁totalday	-8074
▁executive	-8075
▁listening	-8076
▁strongest	-8077
▁targeting	-8078
▁blockchain	-8079
▁impressive	-8080
▁inevitable	-8081
▁piotroskif	-8082
comportfolio	-8083
▁computerman	-8084
▁conservatives	-8085
kr	-8086
336	-8087
346	-8088
387	-8089
404	-8090
660	-8091
820	-8092
857	-8093
945	-8094
awe	-8095
dra	-8096
rom	-8097
urd	-8098
bill	-8099
gold	-8100
join	-8101
laim	-8102
rate	-8103
very	-8104
▁ant	-8105
▁ben	-8106
▁fcx	-8107
▁gim	-8108
▁lux	-8109
▁por	-8110
01:46	-8111
02:04	-8112
02:17	-8113
02:30	-8114
03:00	-8115
03:23	-8116
03:24	-8117
03:30	-8118
03:35	-8119
03:38	-8120
04:14	-8121
04:17	-8122
04:51	-8123
12:03	-8124
12:07	-8125
12:40	-8126
about	-8127
again	-8128
idamp	-8129
order	-8130
today	-8131
ument	-8132
▁amer	-8133
▁earn	-8134
▁fsly	-8135
▁reop	-8136
▁rook	-8137
▁tend	-8138
▁tmus	-8139
americ	-8140
ansion	-8141
arning	-8142
bution	-8143
inking	-8144
ission	-8145
▁27013	-8146
▁buddy	-8147
▁camer	-8148
▁david	-8149
▁fails	-8150
▁false	-8151
▁legit	-8152
▁merge	-8153
▁risky	-8154
▁sheep	-8155
▁twits	-8156
cessary	-8157
wedbush	-8158
▁awhile	-8159
▁commit	-8160
▁frenzy	-8161
▁harder	-8162
▁nikola	-8163
▁pinned	-8164
▁runner	-8165
▁square	-8166
▁status	-8167
▁yellen	-8168
▁baghold	-8169
▁evening	-8170
▁prepare	-8171
▁dominate	-8172
▁mentions	-8173
▁monopoly	-8174
▁rejected	-8175
▁rewarded	-8176
▁transfer	-8177
investment	-8178
▁averaging	-8179
▁httpswwwv	-8180
▁mcconnell	-8181
referralamp	-8182
▁aggressive	-8183
▁httpswwwped	-8184
▁accumulating	-8185
businessinsider	-8186
319	-8187
325	-8188
547	-8189
791	-8190
839	-8191
856	-8192
906	-8193
jec	-8194
pal	-8195
ampo	-8196
iper	-8197
otib	-8198
oumy	-8199
scan	-8200
▁era	-8201
▁mir	-8202
01:27	-8203
01:52	-8204
01:56	-8205
02:23	-8206
03:01	-8207
03:06	-8208
03:19	-8209
04:00	-8210
04:06	-8211
04:19	-8212
12:18	-8213
12:45	-8214
apped	-8215
build	-8216
check	-8217
gener	-8218
gfart	-8219
group	-8220
osing	-8221
scape	-8222
▁clsk	-8223
▁subs	-8224
▁tnxp	-8225
▁trem	-8226
biswas	-8227
buster	-8228
endous	-8229
intech	-8230
▁26949	-8231
▁27109	-8232
▁27867	-8233
▁28008	-8234
▁29217	-8235
▁court	-8236
▁girls	-8237
▁logic	-8238
▁skate	-8239
ajyotib	-8240
rillion	-8241
updates	-8242
▁278746	-8243
▁agreed	-8244
▁donald	-8245
▁earned	-8246
▁powder	-8247
▁tanked	-8248
comsoumy	-8249
research	-8250
▁equival	-8251
▁failure	-8252
▁profile	-8253
▁pumpers	-8254
▁trimmed	-8255
▁virtual	-8256
▁articles	-8257
▁stealing	-8258
comsbiswas	-8259
▁consumers	-8260
▁discussed	-8261
▁formation	-8262
▁promising	-8263
▁bitlygfart	-8264
▁discussion	-8265
▁consolidate	-8266
▁newsmomentum	-8267
▁international	-8268
comsoumyajyotib	-8269
317	-8270
347	-8271
407	-8272
557	-8273
606	-8274
742	-8275
773	-8276
807	-8277
814	-8278
818	-8279
836	-8280
847	-8281
859	-8282
942	-8283
969	-8284
add	-8285
esh	-8286
fox	-8287
▁cv	-8288
buff	-8289
card	-8290
cell	-8291
ives	-8292
▁blo	-8293
▁der	-8294
▁fel	-8295
▁fre	-8296
▁plz	-8297
02:24	-8298
02:44	-8299
03:08	-8300
03:11	-8301
03:21	-8302
03:31	-8303
03:43	-8304
03:54	-8305
04:20	-8306
11:59	-8307
12:26	-8308
12:46	-8309
ahead	-8310
ailed	-8311
idate	-8312
▁cure	-8313
▁eman	-8314
▁gree	-8315
▁mars	-8316
▁mkts	-8317
▁swks	-8318
latest	-8319
▁26449	-8320
▁27903	-8321
▁dumps	-8322
▁exerc	-8323
▁leads	-8324
▁rycey	-8325
▁saved	-8326
▁texas	-8327
▁ultra	-8328
▁borrow	-8329
▁conver	-8330
▁deeper	-8331
▁korean	-8332
▁orange	-8333
▁police	-8334
▁splits	-8335
▁address	-8336
▁cooking	-8337
▁crashes	-8338
▁indexes	-8339
▁managed	-8340
▁promise	-8341
▁retards	-8342
▁sectors	-8343
▁secured	-8344
▁useless	-8345
▁crushing	-8346
▁evercore	-8347
▁suddenly	-8348
fbclidiwar	-8349
▁sidelines	-8350
▁commercial	-8351
▁connection	-8352
▁httpsthefly	-8353
▁subscriptions	-8354
cp	-8355
508	-8356
509	-8357
545	-8358
724	-8359
808	-8360
880	-8361
905	-8362
926	-8363
970	-8364
979	-8365
iam	-8366
reg	-8367
▁ho	-8368
case	-8369
llll	-8370
oost	-8371
pred	-8372
prom	-8373
▁bps	-8374
▁eom	-8375
▁unf	-8376
01:34	-8377
02:10	-8378
02:35	-8379
02:48	-8380
03:10	-8381
03:13	-8382
03:37	-8383
04:26	-8384
05:14	-8385
05:16	-8386
12:02	-8387
compl	-8388
imber	-8389
▁2910	-8390
▁bags	-8391
▁bast	-8392
▁capt	-8393
▁cuck	-8394
▁duck	-8395
▁elev	-8396
▁hole	-8397
▁jmia	-8398
▁katy	-8399
▁tops	-8400
▁town	-8401
apping	-8402
▁26437	-8403
▁26446	-8404
▁26606	-8405
▁26939	-8406
▁27723	-8407
▁27915	-8408
▁29522	-8409
▁blows	-8410
▁consp	-8411
▁frank	-8412
▁james	-8413
▁meant	-8414
▁rinse	-8415
▁wiped	-8416
comaapl	-8417
ticular	-8418
timcook	-8419
▁events	-8420
▁excuse	-8421
▁nikkei	-8422
▁restri	-8423
▁thesis	-8424
velodyne	-8425
▁bloated	-8426
▁horizon	-8427
▁insight	-8428
▁justify	-8429
▁lololol	-8430
▁snowfla	-8431
▁blocking	-8432
▁designed	-8433
▁detected	-8434
▁dangerous	-8435
▁shortterm	-8436
▁spreading	-8437
▁stupidity	-8438
▁afterhours	-8439
▁disgusting	-8440
▁percentage	-8441
▁understanding	-8442
aytradercomstock	-8443
324	-8444
389	-8445
528	-8446
529	-8447
624	-8448
629	-8449
692	-8450
726	-8451
803	-8452
823	-8453
846	-8454
962	-8455
980	-8456
aud	-8457
has	-8458
web	-8459
▁ss	-8460
ampd	-8461
atic	-8462
ktwt	-8463
pled	-8464
secu	-8465
▁bft	-8466
▁dar	-8467
▁din	-8468
▁mut	-8469
▁nav	-8470
▁san	-8471
▁tap	-8472
02:06	-8473
02:07	-8474
02:12	-8475
03:36	-8476
03:40	-8477
03:42	-8478
03:44	-8479
03:53	-8480
04:50	-8481
12:13	-8482
12:22	-8483
▁2800	-8484
▁2830	-8485
▁clue	-8486
▁feds	-8487
launch	-8488
morgan	-8489
ronics	-8490
▁26621	-8491
▁26638	-8492
▁26765	-8493
▁28407	-8494
▁assum	-8495
▁badly	-8496
▁clock	-8497
▁coinc	-8498
▁decla	-8499
▁encou	-8500
▁offic	-8501
▁royce	-8502
▁seats	-8503
▁witch	-8504
▁278749	-8505
▁canada	-8506
▁effort	-8507
▁filing	-8508
▁haters	-8509
▁hedges	-8510
▁master	-8511
▁proper	-8512
▁random	-8513
▁talked	-8514
secutive	-8515
▁congrat	-8516
▁fascist	-8517
▁federal	-8518
▁sensors	-8519
▁writing	-8520
hyundaiki	-8521
▁includes	-8522
▁launches	-8523
▁lawsuits	-8524
▁supports	-8525
▁automaker	-8526
▁operating	-8527
▁projected	-8528
▁purchases	-8529
▁shipments	-8530
stechnology	-8531
▁presidency	-8532
▁tremendous	-8533
▁volkswagen	-8534
▁consecutive	-8535
▁environment	-8536
▁temporarily	-8537
▁uncertainty	-8538
kn	-8539
yz	-8540
417	-8541
515	-8542
523	-8543
626	-8544
641	-8545
661	-8546
669	-8547
702	-8548
961	-8549
idr	-8550
idu	-8551
jim	-8552
▁aa	-8553
▁vo	-8554
abis	-8555
ethe	-8556
oups	-8557
▁cha	-8558
▁esf	-8559
▁obl	-8560
▁wis	-8561
02:03	-8562
04:16	-8563
acked	-8564
iliar	-8565
ister	-8566
point	-8567
▁2911	-8568
▁apha	-8569
▁etfs	-8570
▁fish	-8571
▁goin	-8572
▁grad	-8573
▁ipod	-8574
▁lies	-8575
▁spin	-8576
▁weed	-8577
pricet	-8578
stktwt	-8579
▁27946	-8580
▁award	-8581
▁hence	-8582
▁megac	-8583
▁pulls	-8584
endment	-8585
stockst	-8586
▁bloody	-8587
▁depart	-8588
▁gotten	-8589
▁kermit	-8590
▁legacy	-8591
▁liking	-8592
▁strain	-8593
▁alterna	-8594
▁brokers	-8595
▁follows	-8596
▁funding	-8597
▁protest	-8598
▁reaches	-8599
▁replace	-8600
▁watches	-8601
▁accurate	-8602
▁checking	-8603
▁hydrogen	-8604
▁prepared	-8605
▁shutdown	-8606
stktwtpost	-8607
▁expansion	-8608
▁ownership	-8609
▁questions	-8610
▁particular	-8611
▁millionaires	-8612
bx	-8613
tx	-8614
318	-8615
405	-8616
424	-8617
435	-8618
502	-8619
513	-8620
527	-8621
586	-8622
627	-8623
681	-8624
762	-8625
813	-8626
816	-8627
826	-8628
div	-8629
enn	-8630
low	-8631
nel	-8632
run	-8633
tie	-8634
wmc	-8635
▁xi	-8636
cars	-8637
etsy	-8638
gets	-8639
ians	-8640
item	-8641
ktok	-8642
till	-8643
▁boe	-8644
▁gop	-8645
▁jon	-8646
▁nah	-8647
▁sqq	-8648
▁tbh	-8649
▁unh	-8650
▁www	-8651
02:00	-8652
02:55	-8653
03:05	-8654
03:12	-8655
03:15	-8656
03:45	-8657
04:10	-8658
04:38	-8659
05:31	-8660
11:58	-8661
12:01	-8662
hinny	-8663
iance	-8664
video	-8665
▁2731	-8666
▁atom	-8667
▁brkb	-8668
▁chwy	-8669
▁dash	-8670
▁hodl	-8671
▁kodk	-8672
▁nyse	-8673
▁rips	-8674
▁sqqq	-8675
growth	-8676
▁26937	-8677
▁27006	-8678
▁27159	-8679
▁27906	-8680
▁27919	-8681
▁28017	-8682
▁29337	-8683
▁asian	-8684
▁began	-8685
▁cooks	-8686
▁narra	-8687
feature	-8688
▁buckle	-8689
▁digits	-8690
▁propos	-8691
▁series	-8692
▁speaks	-8693
▁thread	-8694
▁webull	-8695
osignals	-8696
▁bounces	-8697
▁hurting	-8698
▁noticed	-8699
▁somehow	-8700
indexhtml	-8701
▁annually	-8702
▁controls	-8703
▁familiar	-8704
▁reminder	-8705
▁superior	-8706
▁telegram	-8707
▁headlines	-8708
▁highlight	-8709
▁recession	-8710
▁regarding	-8711
▁ameritrade	-8712
▁skateboard	-8713
cominsightss	-8714
▁httpswwwvhinny	-8715
lv	-8716
337	-8717
415	-8718
539	-8719
607	-8720
609	-8721
637	-8722
652	-8723
662	-8724
705	-8725
757	-8726
845	-8727
951	-8728
952	-8729
993	-8730
boy	-8731
gas	-8732
met	-8733
sto	-8734
uge	-8735
win	-8736
safe	-8737
star	-8738
uity	-8739
▁ahs	-8740
▁bir	-8741
▁hol	-8742
▁pap	-8743
▁pps	-8744
02:58	-8745
03:14	-8746
03:17	-8747
03:41	-8748
04:02	-8749
04:07	-8750
04:13	-8751
04:18	-8752
04:23	-8753
04:31	-8754
04:39	-8755
05:10	-8756
11:57	-8757
ermal	-8758
itary	-8759
mming	-8760
portt	-8761
sters	-8762
▁bail	-8763
▁cold	-8764
▁kiss	-8765
▁prac	-8766
▁sets	-8767
▁vide	-8768
arrons	-8769
owatch	-8770
▁26656	-8771
▁29216	-8772
▁29447	-8773
▁29523	-8774
▁29536	-8775
▁apply	-8776
▁aside	-8777
▁digit	-8778
▁infin	-8779
▁royal	-8780
article	-8781
battery	-8782
january	-8783
message	-8784
partner	-8785
▁allows	-8786
▁nation	-8787
▁terror	-8788
▁ticket	-8789
▁ability	-8790
▁closely	-8791
▁concern	-8792
▁venture	-8793
▁deserves	-8794
▁patients	-8795
▁projects	-8796
▁solution	-8797
▁stopping	-8798
▁throwing	-8799
▁velodyne	-8800
▁emotional	-8801
▁supplydem	-8802
▁nasdaqaapl	-8803
▁httpswwwtop	-8804
dr	-8805
gv	-8806
pi	-8807
zi	-8808
505	-8809
507	-8810
617	-8811
689	-8812
707	-8813
720	-8814
736	-8815
904	-8816
925	-8817
989	-8818
ask	-8819
edd	-8820
mbl	-8821
rrr	-8822
sha	-8823
uke	-8824
uuu	-8825
vey	-8826
▁ll	-8827
angu	-8828
best	-8829
ffee	-8830
goti	-8831
oing	-8832
shop	-8833
that	-8834
▁cau	-8835
▁gig	-8836
▁gtf	-8837
▁sar	-8838
▁seg	-8839
▁sir	-8840
▁swe	-8841
▁tes	-8842
▁wit	-8843
03:34	-8844
03:39	-8845
03:57	-8846
04:22	-8847
05:21	-8848
emand	-8849
endar	-8850
gence	-8851
▁2885	-8852
▁cidm	-8853
▁doom	-8854
▁draw	-8855
▁harm	-8856
▁logo	-8857
▁mira	-8858
▁uwmc	-8859
lliant	-8860
▁26436	-8861
▁26749	-8862
▁26789	-8863
▁26807	-8864
▁27635	-8865
▁27917	-8866
▁29009	-8867
▁fking	-8868
▁joint	-8869
▁uncle	-8870
iduskbn	-8871
indices	-8872
itation	-8873
▁movers	-8874
▁placed	-8875
▁uptick	-8876
▁waking	-8877
▁barrons	-8878
▁changer	-8879
▁constit	-8880
▁foolish	-8881
▁inverse	-8882
▁joining	-8883
▁newbies	-8884
▁silence	-8885
▁streets	-8886
▁through	-8887
▁various	-8888
rumorscom	-8889
▁behavior	-8890
▁buffetts	-8891
▁directly	-8892
▁foldable	-8893
▁insiders	-8894
▁vertical	-8895
enzingacom	-8896
▁diversify	-8897
▁equipment	-8898
▁insurance	-8899
▁perfectly	-8900
▁recovered	-8901
▁bankruptcy	-8902
▁destroying	-8903
▁equivalent	-8904
▁screenshot	-8905
▁approaching	-8906
▁blockbuster	-8907
fi	-8908
li	-8909
402	-8910
512	-8911
537	-8912
546	-8913
622	-8914
656	-8915
716	-8916
722	-8917
752	-8918
760	-8919
824	-8920
849	-8921
902	-8922
946	-8923
acb	-8924
aid	-8925
bay	-8926
dom	-8927
ege	-8928
ipl	-8929
ona	-8930
rif	-8931
▁yy	-8932
iles	-8933
lead	-8934
mmmm	-8935
mont	-8936
plan	-8937
▁lay	-8938
▁nut	-8939
01:59	-8940
03:28	-8941
03:32	-8942
03:33	-8943
03:52	-8944
04:44	-8945
04:55	-8946
05:39	-8947
ampts	-8948
found	-8949
ience	-8950
named	-8951
oting	-8952
verge	-8953
▁goat	-8954
▁tree	-8955
compat	-8956
ictory	-8957
ources	-8958
street	-8959
▁26607	-8960
▁26797	-8961
▁26803	-8962
▁26829	-8963
▁27202	-8964
▁27705	-8965
▁29312	-8966
▁29404	-8967
▁gambl	-8968
▁horse	-8969
▁pence	-8970
▁proud	-8971
▁pumpy	-8972
▁russi	-8973
▁tieup	-8974
ampname	-8975
rection	-8976
rietary	-8977
ulldude	-8978
▁babies	-8979
▁center	-8980
▁httpsc	-8981
▁impati	-8982
▁parlor	-8983
▁replac	-8984
▁robust	-8985
▁shared	-8986
▁spacex	-8987
▁waited	-8988
▁expired	-8989
▁expires	-8990
▁fintech	-8991
▁pending	-8992
▁quantum	-8993
▁require	-8994
▁whining	-8995
▁believes	-8996
▁cautious	-8997
▁concerns	-8998
▁darkpool	-8999
▁director	-9000
▁fraction	-9001
▁mistakes	-9002
reportedly	-9003
▁amendment	-9004
▁ascending	-9005
▁education	-9006
▁everytime	-9007
▁releasing	-9008
▁represent	-9009
▁accelerate	-9010
▁brokerages	-9011
▁initiative	-9012
▁positioned	-9013
▁previously	-9014
portfoliocom	-9015
▁proprietary	-9016
▁slaughtered	-9017
investorplace	-9018
▁historically	-9019
▁presentation	-9020
bk	-9021
hr	-9022
lt	-9023
mj	-9024
mu	-9025
320	-9026
348	-9027
403	-9028
445	-9029
526	-9030
559	-9031
608	-9032
623	-9033
632	-9034
651	-9035
682	-9036
723	-9037
737	-9038
775	-9039
805	-9040
940	-9041
941	-9042
ana	-9043
oos	-9044
ref	-9045
hand	-9046
outt	-9047
ssss	-9048
theb	-9049
▁ccp	-9050
▁civ	-9051
▁lum	-9052
▁nug	-9053
▁rig	-9054
▁woo	-9055
03:47	-9056
04:21	-9057
04:24	-9058
04:29	-9059
04:36	-9060
04:43	-9061
04:59	-9062
05:08	-9063
05:11	-9064
05:19	-9065
05:38	-9066
11:56	-9067
plans	-9068
tweet	-9069
witht	-9070
▁aust	-9071
▁docu	-9072
▁rain	-9073
▁rent	-9074
▁semi	-9075
▁tied	-9076
ritory	-9077
ticker	-9078
upport	-9079
▁26445	-9080
▁26657	-9081
▁27886	-9082
▁27905	-9083
▁29314	-9084
▁29336	-9085
▁29386	-9086
▁29403	-9087
▁admit	-9088
▁begun	-9089
▁benef	-9090
▁dying	-9091
▁graph	-9092
▁integ	-9093
▁japan	-9094
▁minds	-9095
▁modem	-9096
▁peeps	-9097
▁risks	-9098
▁shill	-9099
▁smoke	-9100
▁style	-9101
▁views	-9102
ospital	-9103
▁author	-9104
▁boeing	-9105
▁explan	-9106
▁fading	-9107
▁player	-9108
▁proven	-9109
▁surely	-9110
▁temper	-9111
▁corrupt	-9112
▁sending	-9113
▁station	-9114
▁acquired	-9115
▁allowing	-9116
▁checkout	-9117
▁counting	-9118
▁dragging	-9119
▁ignorant	-9120
▁military	-9121
▁reaching	-9122
▁shitting	-9123
▁sometime	-9124
▁specific	-9125
▁totaling	-9126
nasdaqaapl	-9127
▁launching	-9128
▁constantly	-9129
▁controlled	-9130
▁optimistic	-9131
▁throughout	-9132
▁distribution	-9133
▁entertainment	-9134
fn	-9135
pg	-9136
rw	-9137
yh	-9138
zx	-9139
556	-9140
614	-9141
657	-9142
704	-9143
903	-9144
907	-9145
987	-9146
997	-9147
ben	-9148
ede	-9149
elf	-9150
tow	-9151
▁ak	-9152
▁ta	-9153
▁xp	-9154
acle	-9155
nson	-9156
olly	-9157
▁ffs	-9158
▁fng	-9159
▁jam	-9160
▁oxy	-9161
▁roi	-9162
02:41	-9163
03:18	-9164
03:20	-9165
03:29	-9166
04:12	-9167
05:00	-9168
anity	-9169
aries	-9170
going	-9171
modmw	-9172
under	-9173
▁atos	-9174
▁boss	-9175
▁clov	-9176
▁etsy	-9177
▁gaps	-9178
▁gaxy	-9179
▁gent	-9180
▁imac	-9181
▁inch	-9182
▁soci	-9183
buying	-9184
encing	-9185
health	-9186
namics	-9187
ournal	-9188
▁26764	-9189
▁26979	-9190
▁27287	-9191
▁27526	-9192
▁27655	-9193
▁27955	-9194
▁28607	-9195
▁28679	-9196
▁baked	-9197
▁bread	-9198
▁circu	-9199
▁finom	-9200
▁psych	-9201
▁skill	-9202
beatcom	-9203
itoring	-9204
▁casino	-9205
▁cooper	-9206
▁crappy	-9207
▁determ	-9208
▁leaves	-9209
▁punish	-9210
▁remote	-9211
▁safest	-9212
▁sugges	-9213
16:40:02	-9214
▁brother	-9215
▁connect	-9216
▁cutting	-9217
▁foreign	-9218
▁walking	-9219
▁benefits	-9220
▁constant	-9221
▁delusion	-9222
▁hospital	-9223
▁leverage	-9224
▁releases	-9225
▁response	-9226
▁shooting	-9227
▁ultimate	-9228
▁brilliant	-9229
▁engineers	-9230
▁territory	-9231
comapplecar	-9232
▁healthcare	-9233
▁historical	-9234
jv	-9235
qh	-9236
rm	-9237
418	-9238
428	-9239
548	-9240
625	-9241
628	-9242
647	-9243
787	-9244
837	-9245
916	-9246
923	-9247
956	-9248
izz	-9249
peo	-9250
pid	-9251
▁;&	-9252
▁eh	-9253
▁ez	-9254
▁oz	-9255
▁tc	-9256
ager	-9257
cbzl	-9258
find	-9259
orow	-9260
prop	-9261
▁cer	-9262
▁dud	-9263
▁gte	-9264
▁her	-9265
▁loy	-9266
▁pep	-9267
▁pet	-9268
▁pup	-9269
▁rac	-9270
02:14	-9271
02:19	-9272
02:54	-9273
03:49	-9274
03:58	-9275
04:08	-9276
04:37	-9277
05:24	-9278
05:49	-9279
09:24	-9280
11:23	-9281
11:46	-9282
11:55	-9283
12:10	-9284
alley	-9285
elonm	-9286
estic	-9287
nasty	-9288
sthis	-9289
▁bcrx	-9290
▁camp	-9291
▁evil	-9292
▁gbtc	-9293
▁ghiv	-9294
▁gmgi	-9295
▁govt	-9296
▁schw	-9297
▁smok	-9298
▁sooo	-9299
▁sued	-9300
▁tail	-9301
▁wifi	-9302
▁wipe	-9303
▁york	-9304
around	-9305
comtop	-9306
elling	-9307
forbes	-9308
future	-9309
oocbzl	-9310
▁27014	-9311
▁27389	-9312
▁27535	-9313
▁27589	-9314
▁27920	-9315
▁29215	-9316
▁29539	-9317
▁alloc	-9318
▁drink	-9319
▁drone	-9320
▁gunna	-9321
▁holog	-9322
▁juice	-9323
▁miles	-9324
▁overd	-9325
▁spect	-9326
▁stret	-9327
▁xpeng	-9328
botpost	-9329
idelity	-9330
imately	-9331
▁blocks	-9332
▁mental	-9333
▁passes	-9334
▁pushed	-9335
▁reduce	-9336
▁twitch	-9337
▁videos	-9338
14:16:01	-9339
rictions	-9340
▁boomers	-9341
▁figured	-9342
▁rallies	-9343
▁seconds	-9344
xosignals	-9345
▁alphabet	-9346
▁cannabis	-9347
▁conspira	-9348
▁hahahaha	-9349
▁jpmorgan	-9350
▁rallying	-9351
latestnews	-9352
▁regularly	-9353
▁therefore	-9354
▁typically	-9355
comappleand	-9356
pricetarget	-9357
▁announcing	-9358
▁collecting	-9359
▁depression	-9360
▁httpoocbzl	-9361
▁engineering	-9362
▁rebalancing	-9363
▁regulations	-9364
▁accumulation	-9365
▁embarrassing	-9366
▁httpswwwcnet	-9367
comstockmarket	-9368
utmsourcesocial	-9369
bm	-9370
dn	-9371
589	-9372
613	-9373
620	-9374
645	-9375
649	-9376
706	-9377
713	-9378
727	-9379
746	-9380
750	-9381
786	-9382
802	-9383
822	-9384
838	-9385
908	-9386
909	-9387
913	-9388
936	-9389
959	-9390
992	-9391
ext	-9392
ket	-9393
pet	-9394
▁ig	-9395
▁og	-9396
▁vp	-9397
▁wo	-9398
airs	-9399
chip	-9400
heim	-9401
hhhh	-9402
igns	-9403
ilet	-9404
kers	-9405
kkkk	-9406
last	-9407
lock	-9408
oman	-9409
otor	-9410
uled	-9411
ummy	-9412
urch	-9413
▁cab	-9414
▁gut	-9415
▁inb	-9416
▁nxt	-9417
03:25	-9418
03:55	-9419
04:40	-9420
05:04	-9421
05:09	-9422
11:54	-9423
12:04	-9424
12:14	-9425
comin	-9426
gered	-9427
inger	-9428
paper	-9429
reven	-9430
▁2963	-9431
▁buzz	-9432
▁ceos	-9433
▁expr	-9434
▁loop	-9435
▁mike	-9436
▁nvax	-9437
▁pamp	-9438
▁ttoo	-9439
▁26648	-9440
▁26649	-9441
▁26774	-9442
▁26787	-9443
▁27117	-9444
▁27658	-9445
▁27724	-9446
▁27887	-9447
▁27908	-9448
▁27922	-9449
▁28722	-9450
▁29535	-9451
▁29545	-9452
▁advis	-9453
▁beaut	-9454
▁chick	-9455
▁civil	-9456
▁fckin	-9457
▁ganna	-9458
▁hamps	-9459
▁huawe	-9460
▁loyal	-9461
▁stimm	-9462
▁verge	-9463
▁warns	-9464
▁whose	-9465
ressing	-9466
▁278747	-9467
▁budget	-9468
▁citing	-9469
▁damage	-9470
▁etrade	-9471
▁perman	-9472
▁rotten	-9473
▁satell	-9474
▁seller	-9475
▁sleepy	-9476
▁unique	-9477
▁uplist	-9478
▁whales	-9479
▁central	-9480
▁comfort	-9481
▁defense	-9482
▁easiest	-9483
▁goooooo	-9484
▁sharing	-9485
▁touched	-9486
▁category	-9487
▁criminal	-9488
▁existing	-9489
▁reliable	-9490
▁somewhat	-9491
▁impatient	-9492
▁patiently	-9493
▁respective	-9494
▁washington	-9495
▁microvision	-9496
▁responsible	-9497
▁approximately	-9498
▁httpsxosignals	-9499
qf	-9500
uf	-9501
xn	-9502
635	-9503
642	-9504
718	-9505
739	-9506
745	-9507
781	-9508
886	-9509
915	-9510
919	-9511
920	-9512
928	-9513
991	-9514
htm	-9515
iab	-9516
pec	-9517
ray	-9518
rem	-9519
ubb	-9520
▁zn	-9521
aizf	-9522
bank	-9523
lind	-9524
olen	-9525
peat	-9526
umer	-9527
▁apr	-9528
▁awa	-9529
▁gal	-9530
▁gem	-9531
▁him	-9532
▁mur	-9533
▁sou	-9534
▁uns	-9535
▁vac	-9536
▁wwr	-9537
02:11	-9538
05:05	-9539
05:27	-9540
05:28	-9541
05:40	-9542
09:29	-9543
10:44	-9544
11:40	-9545
block	-9546
hhhhh	-9547
idrmg	-9548
itive	-9549
jones	-9550
▁arkq	-9551
▁city	-9552
▁germ	-9553
▁mich	-9554
▁offs	-9555
▁ontx	-9556
▁poet	-9557
▁psth	-9558
▁puss	-9559
▁rely	-9560
▁thcb	-9561
▁trig	-9562
▁warr	-9563
▁znga	-9564
accord	-9565
airpod	-9566
aizfuh	-9567
status	-9568
target	-9569
▁26645	-9570
▁26715	-9571
▁27019	-9572
▁28016	-9573
▁29303	-9574
▁29533	-9575
▁baidu	-9576
▁faces	-9577
▁frame	-9578
▁fruit	-9579
▁gimme	-9580
▁hates	-9581
▁local	-9582
▁plumm	-9583
▁soooo	-9584
▁topic	-9585
▁tutes	-9586
▁wrote	-9587
athaway	-9588
channel	-9589
rencies	-9590
▁gained	-9591
▁gentle	-9592
▁iswhen	-9593
▁leaked	-9594
▁licens	-9595
▁luxury	-9596
▁pharma	-9597
overyear	-9598
strading	-9599
vehicles	-9600
▁clients	-9601
▁decides	-9602
▁flowing	-9603
▁heating	-9604
▁manager	-9605
▁moderna	-9606
▁neither	-9607
▁ratings	-9608
▁respond	-9609
▁richest	-9610
▁wanting	-9611
▁watched	-9612
comnphpid	-9613
martphone	-9614
▁aaplstay	-9615
▁assuming	-9616
▁brothers	-9617
▁exercise	-9618
▁feelings	-9619
▁stagnant	-9620
▁weekends	-9621
▁connected	-9622
▁democracy	-9623
▁inclusion	-9624
▁massively	-9625
▁narrative	-9626
▁providing	-9627
▁temporary	-9628
▁trademark	-9629
idrmgaizfuh	-9630
▁httpswwwtw	-9631
▁advertising	-9632
▁alternative	-9633
▁breakthrough	-9634
roaxiscominvest	-9635
▁congratulations	-9636
wa	-9637
wg	-9638
xk	-9639
522	-9640
538	-9641
605	-9642
618	-9643
619	-9644
646	-9645
650	-9646
687	-9647
709	-9648
719	-9649
918	-9650
986	-9651
bow	-9652
ceo	-9653
fac	-9654
gur	-9655
lex	-9656
rib	-9657
wsj	-9658
aste	-9659
mbly	-9660
nite	-9661
orse	-9662
rive	-9663
▁mal	-9664
▁odd	-9665
▁ram	-9666
▁rvp	-9667
▁sls	-9668
▁wth	-9669
03:51	-9670
04:15	-9671
04:30	-9672
04:32	-9673
04:42	-9674
04:49	-9675
05:20	-9676
05:32	-9677
05:44	-9678
11:22	-9679
11:47	-9680
12:00	-9681
etech	-9682
heres	-9683
mbers	-9684
media	-9685
moves	-9686
pable	-9687
ulate	-9688
which	-9689
▁2630	-9690
▁cycl	-9691
▁dust	-9692
▁felt	-9693
▁hows	-9694
▁jpow	-9695
▁lame	-9696
▁mart	-9697
▁nugt	-9698
▁pour	-9699
▁rank	-9700
▁rout	-9701
▁slip	-9702
▁srpt	-9703
▁that	-9704
▁ther	-9705
▁trip	-9706
▁unit	-9707
buffet	-9708
commer	-9709
opping	-9710
shorts	-9711
▁26948	-9712
▁27639	-9713
▁27647	-9714
▁27918	-9715
▁27937	-9716
▁27958	-9717
▁29345	-9718
▁29549	-9719
▁cnbcs	-9720
▁lived	-9721
▁memes	-9722
▁owner	-9723
▁pumps	-9724
▁scann	-9725
▁walls	-9726
alytics	-9727
▁camera	-9728
▁dreams	-9729
▁explos	-9730
▁negoti	-9731
▁select	-9732
expected	-9733
httpswww	-9734
▁booming	-9735
▁depends	-9736
▁dynasty	-9737
▁madness	-9738
▁outcome	-9739
▁popping	-9740
▁smoking	-9741
▁stories	-9742
▁suppose	-9743
▁survive	-9744
▁wishing	-9745
▁calendar	-9746
▁fidelity	-9747
▁publicly	-9748
▁recovers	-9749
▁stacking	-9750
▁candidate	-9751
▁triggered	-9752
▁portfolios	-9753
comtechnology	-9754
▁httpswwwbarrons	-9755
dh	-9756
pu	-9757
wj	-9758
101	-9759
423	-9760
448	-9761
616	-9762
679	-9763
686	-9764
732	-9765
812	-9766
912	-9767
914	-9768
932	-9769
967	-9770
asy	-9771
chy	-9772
otc	-9773
▁az	-9774
▁fi	-9775
▁na	-9776
▁uh	-9777
abil	-9778
acqu	-9779
ampv	-9780
comf	-9781
glob	-9782
ient	-9783
ters	-9784
ticl	-9785
zens	-9786
▁biz	-9787
▁cod	-9788
▁ong	-9789
▁pic	-9790
▁roe	-9791
▁tlt	-9792
04:25	-9793
04:33	-9794
04:47	-9795
05:01	-9796
05:25	-9797
05:33	-9798
05:34	-9799
05:46	-9800
09:09	-9801
10:51	-9802
11:20	-9803
11:36	-9804
11:50	-9805
aches	-9806
ampop	-9807
boost	-9808
china	-9809
ignal	-9810
nnnnn	-9811
urday	-9812
▁2790	-9813
▁blew	-9814
▁cydy	-9815
▁dive	-9816
▁drip	-9817
▁dumm	-9818
▁exha	-9819
▁oled	-9820
▁segi	-9821
▁them	-9822
▁unve	-9823
ffects	-9824
office	-9825
trades	-9826
▁26631	-9827
▁26766	-9828
▁27118	-9829
▁27626	-9830
▁27708	-9831
▁27767	-9832
▁27904	-9833
▁27909	-9834
▁27947	-9835
▁29449	-9836
▁29605	-9837
▁29628	-9838
▁flows	-9839
▁maxim	-9840
▁mortg	-9841
▁noobs	-9842
▁valid	-9843
plement	-9844
▁aboard	-9845
▁beauty	-9846
▁builds	-9847
▁huawei	-9848
▁melvin	-9849
▁sports	-9850
▁stimmy	-9851
▁values	-9852
▁werent	-9853
▁banking	-9854
▁broader	-9855
▁convers	-9856
▁megacap	-9857
▁parties	-9858
▁reserve	-9859
▁shocked	-9860
▁spotify	-9861
▁catching	-9862
▁declines	-9863
▁ventures	-9864
autonomous	-9865
lectriccar	-9866
▁censoring	-9867
▁guarantee	-9868
▁installed	-9869
▁marketing	-9870
▁conspiracy	-9871
▁protection	-9872
▁positioning	-9873
▁manipulators	-9874
▁httpstomaccom	-9875
▁httpscompanies	-9876
ko	-9877
nc	-9878
nv	-9879
504	-9880
524	-9881
639	-9882
715	-9883
735	-9884
756	-9885
759	-9886
771	-9887
804	-9888
828	-9889
858	-9890
927	-9891
948	-9892
ami	-9893
dec	-9894
dib	-9895
inf	-9896
oms	-9897
xic	-9898
▁ci	-9899
▁ns	-9900
acti	-9901
cart	-9902
cojp	-9903
edia	-9904
mers	-9905
only	-9906
orge	-9907
priv	-9908
snlf	-9909
stan	-9910
▁aev	-9911
▁gdp	-9912
▁lin	-9913
▁ohh	-9914
03:26	-9915
03:50	-9916
03:56	-9917
05:15	-9918
05:35	-9919
05:37	-9920
06:14	-9921
10:32	-9922
10:59	-9923
11:06	-9924
11:48	-9925
alert	-9926
intel	-9927
squot	-9928
▁2730	-9929
▁aple	-9930
▁gtfo	-9931
▁hair	-9932
▁humb	-9933
▁hung	-9934
▁loan	-9935
▁outs	-9936
▁	-9937
a	-9938
e	-9939
2	-9940
t	-9941
s	-9942
l	-9943
o	-9944
0	-9945
1	-9946
n	-9947
i	-9948
r	-9949
p	-9950
c	-9951
d	-9952
-	-9953
:	-9954
m	-9955
g	-9956
u	-9957
h	-9958
3	-9959
5	-9960
4	-9961
7	-9962
6	-9963
y	-9964
8	-9965
9	-9966
w	-9967
b	-9968
k	-9969
T	-9970
Z	-9971
f	-9972
v	-9973
x	-9974
q	-9975
z	-9976
j	-9977
.	-9978
;	-9979
&	-9980
=	-9981
$	-9982
/	-9983
%	-9984
,	-9985
"	-9986
_	-9987
?	-9988
(	-9989
)	-9990
↑	-9991
😃	-9992
