[PAD]	0
[UNK]	0
[BOS]	0
[EOS]	0
[SEP]	0
[CLS]	0
[MASK]	0
▁m	-0
cd	-1
▁mcd	-2
▁s	-3
on	-4
re	-5
al	-6
in	-7
▁c	-8
▁p	-9
▁b	-10
er	-11
ti	-12
▁d	-13
st	-14
▁h	-15
an	-16
ck	-17
en	-18
ar	-19
▁t	-20
▁g	-21
ce	-22
▁n	-23
▁f	-24
om	-25
le	-26
or	-27
tt	-28
▁re	-29
ll	-30
▁a	-31
at	-32
ri	-33
ew	-34
ing	-35
ou	-36
ps	-37
▁l	-38
▁htt	-39
▁go	-40
▁w	-41
▁st	-42
se	-43
op	-44
▁https	-45
tion	-46
ro	-47
▁se	-48
la	-49
me	-50
▁e	-51
ig	-52
ds	-53
ra	-54
ly	-55
it	-56
ke	-57
ock	-58
onal	-59
ee	-60
▁bu	-61
ol	-62
ve	-63
onalds	-64
od	-65
ews	-66
com	-67
ay	-68
▁mcdonalds	-69
ow	-70
ch	-71
id	-72
es	-73
mp	-74
▁in	-75
▁u	-76
is	-77
▁sell	-78
mcd	-79
▁stock	-80
ent	-81
ur	-82
▁httpsw	-83
ct	-84
ate	-85
ai	-86
ad	-87
ge	-88
▁v	-89
▁ch	-90
▁com	-91
▁pro	-92
ed	-93
th	-94
▁buy	-95
sh	-96
im	-97
qu	-98
▁pri	-99
▁di	-100
est	-101
ase	-102
and	-103
▁new	-104
its	-105
one	-106
▁al	-107
end	-108
▁ti	-109
arke	-110
▁httpsww	-111
▁httpswww	-112
nt	-113
▁li	-114
▁th	-115
arket	-116
▁pla	-117
▁price	-118
▁j	-119
aily	-120
▁place	-121
ers	-122
▁sh	-123
old	-124
art	-125
news	-126
ic	-127
ut	-128
option	-129
ant	-130
ot	-131
ht	-132
▁good	-133
▁ba	-134
orm	-135
iz	-136
pe	-137
nd	-138
ation	-139
▁big	-140
▁hold	-141
▁de	-142
ap	-143
rad	-144
▁prof	-145
ld	-146
lo	-147
um	-148
ver	-149
▁con	-150
▁y	-151
▁be	-152
▁profits	-153
▁le	-154
ize	-155
amp	-156
ast	-157
▁am	-158
▁time	-159
ame	-160
au	-161
lease	-162
▁ne	-163
any	-164
▁news	-165
▁ex	-166
stock	-167
▁fo	-168
sf	-169
eek	-170
▁comp	-171
io	-172
ss	-173
▁ar	-174
▁name	-175
▁real	-176
▁daily	-177
tic	-178
▁week	-179
ie	-180
▁o	-181
lose	-182
ac	-183
am	-184
be	-185
▁day	-186
▁sec	-187
▁ro	-188
▁close	-189
▁market	-190
▁release	-191
out	-192
il	-193
vid	-194
▁like	-195
py	-196
oug	-197
ear	-198
▁im	-199
us	-200
▁fu	-201
ci	-202
ong	-203
ort	-204
▁up	-205
eed	-206
oday	-207
oo	-208
▁form	-209
▁today	-210
ry	-211
ick	-212
▁sha	-213
ticle	-214
tive	-215
▁an	-216
▁back	-217
ff	-218
si	-219
em	-220
ter	-221
▁sti	-222
▁read	-223
ru	-224
ert	-225
▁ac	-226
ould	-227
xt	-228
▁dig	-229
row	-230
ab	-231
aly	-232
▁fa	-233
▁option	-234
pr	-235
vi	-236
ile	-237
▁realize	-238
▁min	-239
▁test	-240
market	-241
vel	-242
rade	-243
▁un	-244
▁digest	-245
ont	-246
▁op	-247
▁fuck	-248
igh	-249
▁sm	-250
▁pre	-251
grade	-252
▁next	-253
wi	-254
options	-255
fil	-256
ual	-257
▁article	-258
utm	-259
wee	-260
▁bull	-261
▁stop	-262
▁share	-263
el	-264
ue	-265
▁qu	-266
▁file	-267
vidend	-268
so	-269
▁i	-270
int	-271
ause	-272
newsmcd	-273
▁upgrade	-274
ine	-275
ish	-276
▁ad	-277
ckpr	-278
onews	-279
▁http	-280
▁need	-281
stckpr	-282
onewsmcd	-283
stckpronewsmcd	-284
ger	-285
bu	-286
cial	-287
ount	-288
▁tra	-289
terio	-290
▁chick	-291
newsfil	-292
▁amount	-293
newsfilterio	-294
age	-295
oney	-296
ak	-297
as	-298
ment	-299
▁low	-300
daily	-301
▁still	-302
▁company	-303
artoptions	-304
▁mcdonaldss	-305
pp	-306
▁su	-307
enti	-308
ight	-309
▁long	-310
▁k	-311
▁year	-312
amputm	-313
day	-314
ess	-315
sfri	-316
▁cor	-317
▁high	-318
endcom	-319
sfriendcom	-320
dailynewsmcd	-321
cre	-322
our	-323
▁mc	-324
▁me	-325
▁bur	-326
▁spy	-327
▁dividend	-328
mon	-329
sta	-330
▁chicken	-331
rect	-332
▁thoug	-333
co	-334
ma	-335
iss	-336
ump	-337
▁ri	-338
▁val	-339
▁smartoptions	-340
ul	-341
lay	-342
ust	-343
staur	-344
▁cont	-345
staurant	-346
rent	-347
weep	-348
▁pr	-349
▁cur	-350
▁sand	-351
▁level	-352
eb	-353
ale	-354
▁co	-355
ttle	-356
wich	-357
alyst	-358
▁q	-359
all	-360
ran	-361
▁lo	-362
▁money	-363
now	-364
king	-365
llow	-366
▁sandwich	-367
▁restaurant	-368
te	-369
ill	-370
▁pe	-371
▁cla	-372
▁tom	-373
▁br	-374
▁so	-375
▁amp	-376
▁cause	-377
▁follow	-378
▁thought	-379
lie	-380
olu	-381
per	-382
port	-383
▁dip	-384
▁rev	-385
uation	-386
▁state	-387
iti	-388
ity	-389
very	-390
vest	-391
▁one	-392
▁little	-393
rend	-394
▁mon	-395
layed	-396
orrow	-397
▁cons	-398
▁sale	-399
▁belie	-400
▁burger	-401
▁current	-402
▁tomorrow	-403
et	-404
ins	-405
▁let	-406
▁miss	-407
▁size	-408
▁claim	-409
▁print	-410
▁believe	-411
▁delayed	-412
ning	-413
ource	-414
di	-415
mb	-416
olume	-417
▁brand	-418
bs	-419
ary	-420
dge	-421
▁valuation	-422
ha	-423
he	-424
ip	-425
▁ev	-426
ating	-427
▁face	-428
da	-429
ign	-430
ance	-431
▁tick	-432
▁alert	-433
▁action	-434
go	-435
▁po	-436
▁ret	-437
▁sweep	-438
▁would	-439
▁volume	-440
af	-441
rike	-442
▁wor	-443
▁incre	-444
▁ticker	-445
pect	-446
reak	-447
▁act	-448
▁cre	-449
▁filed	-450
▁strike	-451
mg	-452
ion	-453
nce	-454
▁by	-455
▁common	-456
▁bullish	-457
de	-458
▁r	-459
▁bo	-460
▁te	-461
cast	-462
lant	-463
▁ind	-464
▁mess	-465
tw	-466
up	-467
urn	-468
▁do	-469
▁pt	-470
olid	-471
▁break	-472
▁expect	-473
▁increase	-474
ain	-475
▁exp	-476
▁hap	-477
▁every	-478
un	-479
own	-480
ough	-481
▁add	-482
▁cmg	-483
▁jan	-484
▁also	-485
▁food	-486
▁open	-487
▁solid	-488
▁report	-489
li	-490
▁sp	-491
trad	-492
▁bynd	-493
ks	-494
beat	-495
▁red	-496
▁top	-497
▁coming	-498
▁httpst	-499
par	-500
atch	-501
vice	-502
▁dis	-503
ually	-504
▁dont	-505
▁fast	-506
beatcom	-507
marketbeatcom	-508
ach	-509
ope	-510
▁mu	-511
▁loo	-512
ounce	-513
▁correct	-514
▁holding	-515
red	-516
cent	-517
▁lau	-518
▁out	-519
ative	-520
twits	-521
▁invest	-522
ag	-523
nch	-524
ous	-525
pen	-526
▁we	-527
▁cru	-528
illion	-529
parate	-530
▁month	-531
▁trend	-532
▁consum	-533
▁analyst	-534
▁httpsqu	-535
▁separate	-536
mo	-537
ats	-538
ide	-539
uri	-540
quot	-541
▁could	-542
▁crush	-543
▁return	-544
stocktwits	-545
lu	-546
po	-547
▁he	-548
form	-549
rama	-550
▁mor	-551
▁pot	-552
▁much	-553
▁soon	-554
▁drama	-555
▁looking	-556
mcdonalds	-557
ack	-558
ard	-559
bux	-560
ffic	-561
ower	-562
▁any	-563
▁fri	-564
▁grow	-565
rating	-566
apl	-567
ice	-568
outu	-569
ract	-570
shit	-571
▁dow	-572
▁may	-573
▁aapl	-574
ential	-575
amputmc	-576
▁growing	-577
▁million	-578
▁bullshit	-579
ca	-580
sr	-581
ww	-582
act	-583
oth	-584
ype	-585
▁ma	-586
ange	-587
▁ann	-588
arter	-589
▁over	-590
▁pers	-591
▁room	-592
▁sbux	-593
▁launch	-594
▁potential	-595
tr	-596
uy	-597
ens	-598
eri	-599
rac	-600
ymb	-601
▁nice	-602
outube	-603
▁contract	-604
du	-605
fe	-606
tis	-607
www	-608
▁er	-609
ties	-610
▁est	-611
▁date	-612
▁meal	-613
ervice	-614
▁power	-615
▁track	-616
▁recent	-617
▁securi	-618
fo	-619
ral	-620
res	-621
ople	-622
rans	-623
antis	-624
▁wage	-625
▁initi	-626
ervices	-627
▁securities	-628
bc	-629
fa	-630
pec	-631
▁ju	-632
▁pu	-633
▁sc	-634
ated	-635
▁gap	-636
alert	-637
entry	-638
▁stre	-639
▁type	-640
comins	-641
ontent	-642
▁chart	-643
▁event	-644
▁reach	-645
▁people	-646
antisnow	-647
▁quarter	-648
cominsight	-649
erservices	-650
▁httpsquantisnow	-651
mt	-652
ber	-653
oup	-654
lash	-655
utes	-656
▁feb	-657
▁guy	-658
▁wen	-659
ction	-660
plant	-661
usual	-662
rector	-663
▁contin	-664
▁source	-665
▁unusual	-666
▁director	-667
newsfilterioa	-668
ft	-669
rt	-670
ts	-671
ys	-672
gin	-673
sis	-674
▁it	-675
▁ts	-676
enue	-677
medi	-678
tice	-679
sflash	-680
social	-681
▁minutes	-682
▁revenue	-683
▁breakout	-684
sflashalert	-685
og	-686
her	-687
ite	-688
comw	-689
real	-690
▁app	-691
▁bid	-692
▁mar	-693
▁prac	-694
▁tech	-695
▁trash	-696
▁practice	-697
fb	-698
aco	-699
▁dr	-700
▁sl	-701
▁wh	-702
ound	-703
▁ack	-704
▁eps	-705
▁obs	-706
ledge	-707
ymbol	-708
lation	-709
source	-710
▁world	-711
perform	-712
youtube	-713
▁acknow	-714
▁change	-715
▁indust	-716
▁trashy	-717
▁unreal	-718
▁acknowledge	-719
ia	-720
ml	-721
na	-722
erm	-723
ist	-724
ome	-725
▁jo	-726
▁tw	-727
ence	-728
vers	-729
▁gme	-730
▁inte	-731
▁jump	-732
▁many	-733
ratings	-734
▁create	-735
▁mcplant	-736
▁morning	-737
▁actually	-738
▁industry	-739
sflashalertme	-740
ey	-741
gg	-742
gr	-743
elp	-744
ner	-745
ram	-746
ris	-747
▁en	-748
able	-749
ener	-750
▁des	-751
▁ins	-752
agine	-753
▁item	-754
stance	-755
▁entry	-756
▁happy	-757
▁obser	-758
▁offic	-759
trading	-760
▁outperform	-761
ng	-762
tc	-763
we	-764
alp	-765
eel	-766
ild	-767
▁ra	-768
ical	-769
odel	-770
ship	-771
time	-772
▁lol	-773
▁cant	-774
▁help	-775
▁push	-776
▁quot	-777
▁roll	-778
▁tsla	-779
vative	-780
▁model	-781
▁trans	-782
▁imagine	-783
ef	-784
hs	-785
ays	-786
con	-787
fra	-788
htt	-789
iny	-790
ond	-791
ord	-792
por	-793
sed	-794
amps	-795
llar	-796
tter	-797
frame	-798
▁feel	-799
▁term	-800
medium	-801
▁judge	-802
comstock	-803
sistance	-804
▁timeframe	-805
amputmmedium	-806
dc	-807
ann	-808
enu	-809
ief	-810
lee	-811
sin	-812
▁ca	-813
▁mo	-814
ator	-815
▁bet	-816
▁fin	-817
▁inc	-818
▁par	-819
▁per	-820
▁sin	-821
▁wmt	-822
arish	-823
https	-824
other	-825
▁fran	-826
▁goal	-827
▁norm	-828
▁rock	-829
▁some	-830
▁chain	-831
▁techn	-832
poration	-833
ymbolmcd	-834
▁officer	-835
▁continue	-836
▁investment	-837
sourcestocktwits	-838
ax	-839
▁z	-840
ady	-841
nbc	-842
ode	-843
▁pi	-844
aign	-845
head	-846
iece	-847
ttom	-848
uary	-849
▁boo	-850
▁ssi	-851
ready	-852
utral	-853
▁band	-854
▁dump	-855
▁shak	-856
▁begin	-857
▁chief	-858
▁pause	-859
▁piece	-860
▁since	-861
▁thing	-862
ampaign	-863
article	-864
▁bottom	-865
▁happen	-866
▁please	-867
comwatch	-868
▁already	-869
▁bearish	-870
▁january	-871
▁neutral	-872
▁transact	-873
▁resistance	-874
amputmcampaign	-875
youtubecomwatch	-876
dl	-877
ble	-878
fol	-879
ght	-880
urs	-881
▁gr	-882
▁hu	-883
▁mm	-884
eric	-885
imum	-886
peat	-887
scom	-888
▁cap	-889
▁cat	-890
▁imp	-891
▁own	-892
▁pop	-893
▁qsr	-894
▁two	-895
chart	-896
thing	-897
▁deri	-898
▁dirt	-899
▁hope	-900
▁load	-901
▁past	-902
▁ride	-903
▁seem	-904
▁slow	-905
▁boost	-906
▁ready	-907
▁repeat	-908
httpswww	-909
▁derivative	-910
▁corporation	-911
ba	-912
fi	-913
os	-914
sk	-915
tf	-916
ari	-917
chi	-918
for	-919
khs	-920
ote	-921
tty	-922
▁gi	-923
▁sa	-924
coms	-925
stop	-926
▁cra	-927
▁eat	-928
▁man	-929
analy	-930
folio	-931
ments	-932
right	-933
velop	-934
▁port	-935
▁ahead	-936
▁indic	-937
▁short	-938
ulation	-939
▁anyone	-940
▁around	-941
▁dollar	-942
▁minimum	-943
▁announce	-944
cominsightss	-945
▁sourcehttpswww	-946
cb	-947
sm	-948
ith	-949
tim	-950
▁us	-951
mber	-952
ngth	-953
▁equ	-954
▁evp	-955
▁gon	-956
▁mac	-957
▁mid	-958
▁inst	-959
▁menu	-960
▁taco	-961
▁wild	-962
invest	-963
sitive	-964
ursday	-965
weight	-966
▁drone	-967
▁previ	-968
analyst	-969
pective	-970
▁weekly	-971
▁investor	-972
▁strength	-973
▁portfolio	-974
▁stockmarket	-975
▁smartoptionsai	-976
by	-977
cy	-978
pt	-979
px	-980
bab	-981
enn	-982
lub	-983
org	-984
rib	-985
sso	-986
val	-987
▁ko	-988
▁ph	-989
heim	-990
rest	-991
ways	-992
weet	-993
▁far	-994
▁int	-995
▁mom	-996
▁rip	-997
rispy	-998
▁alpp	-999
▁hear	-1000
▁huge	-1001
▁mean	-1002
▁meat	-1003
▁prog	-1004
▁risk	-1005
▁sure	-1006
heimer	-1007
▁oppen	-1008
▁plant	-1009
▁produ	-1010
▁worth	-1011
▁bounce	-1012
▁develop	-1013
▁positive	-1014
▁thursday	-1015
▁daytrading	-1016
▁oppenheimer	-1017
youtubecomwatchv	-1018
ah	-1019
fu	-1020
ho	-1021
ade	-1022
min	-1023
ola	-1024
thr	-1025
url	-1026
▁pa	-1027
anks	-1028
ased	-1029
comy	-1030
html	-1031
idnt	-1032
lack	-1033
post	-1034
yond	-1035
▁amc	-1036
▁deb	-1037
▁dri	-1038
▁ear	-1039
▁fav	-1040
▁ubs	-1041
▁wed	-1042
cking	-1043
sweep	-1044
▁fore	-1045
▁note	-1046
▁reco	-1047
▁save	-1048
inyurl	-1049
verage	-1050
▁covid	-1051
▁cream	-1052
▁didnt	-1053
▁watch	-1054
castcom	-1055
content	-1056
▁always	-1057
▁americ	-1058
▁crispy	-1059
▁estate	-1060
▁friday	-1061
▁another	-1062
▁interest	-1063
inyurlcomy	-1064
▁indicator	-1065
▁initiated	-1066
▁sweepcast	-1067
▁httpsstock	-1068
▁httpssweep	-1069
▁perspective	-1070
fr	-1071
gt	-1072
ir	-1073
ph	-1074
bur	-1075
can	-1076
cat	-1077
ies	-1078
tra	-1079
▁as	-1080
▁fb	-1081
▁mr	-1082
▁no	-1083
core	-1084
lete	-1085
line	-1086
list	-1087
▁ive	-1088
▁neg	-1089
▁reg	-1090
▁ste	-1091
▁sur	-1092
▁you	-1093
ciate	-1094
oting	-1095
ously	-1096
▁acqu	-1097
▁asso	-1098
▁club	-1099
▁mcds	-1100
▁they	-1101
▁wkhs	-1102
ations	-1103
ership	-1104
siness	-1105
vation	-1106
▁favor	-1107
▁finan	-1108
▁giant	-1109
▁group	-1110
▁maybe	-1111
▁beyond	-1112
▁business	-1113
▁complete	-1114
▁associate	-1115
▁production	-1116
▁observation	-1117
bb	-1118
cu	-1119
if	-1120
pl	-1121
ty	-1122
wh	-1123
ank	-1124
cri	-1125
mer	-1126
ogy	-1127
ssi	-1128
vin	-1129
▁fl	-1130
▁hi	-1131
▁sy	-1132
ampt	-1133
ctor	-1134
eedb	-1135
ital	-1136
mill	-1137
rong	-1138
▁med	-1139
▁yum	-1140
chise	-1141
ersal	-1142
ities	-1143
nings	-1144
ology	-1145
onald	-1146
▁lift	-1147
▁sign	-1148
estion	-1149
ntrend	-1150
▁black	-1151
▁early	-1152
▁gonna	-1153
▁thats	-1154
▁value	-1155
▁design	-1156
tracking	-1157
▁program	-1158
chartmill	-1159
▁negative	-1160
▁reversal	-1161
▁downtrend	-1162
▁financial	-1163
▁franchise	-1164
▁overweight	-1165
▁technology	-1166
amputmcontent	-1167
newsfilterioaf	-1168
socialtracking	-1169
nk	-1170
vs	-1171
yf	-1172
ail	-1173
alk	-1174
aus	-1175
cks	-1176
dlv	-1177
ful	-1178
man	-1179
ple	-1180
pre	-1181
ved	-1182
▁bi	-1183
▁ea	-1184
▁od	-1185
▁or	-1186
ards	-1187
ates	-1188
duce	-1189
emic	-1190
enry	-1191
ider	-1192
most	-1193
ndam	-1194
ulus	-1195
view	-1196
ward	-1197
▁cup	-1198
▁hur	-1199
▁ill	-1200
▁mmm	-1201
▁sub	-1202
▁und	-1203
ental	-1204
entim	-1205
entio	-1206
ester	-1207
stand	-1208
▁enti	-1209
▁gold	-1210
▁mind	-1211
▁odds	-1212
▁pand	-1213
▁supp	-1214
▁trad	-1215
▁zone	-1216
sentim	-1217
traday	-1218
▁henry	-1219
▁scalp	-1220
comnews	-1221
stockss	-1222
▁almost	-1223
▁entire	-1224
▁parade	-1225
▁person	-1226
▁voting	-1227
standing	-1228
▁alright	-1229
ndamental	-1230
▁coverage	-1231
▁everyone	-1232
▁intraday	-1233
▁pandemic	-1234
▁question	-1235
sentimentio	-1236
▁httpssocial	-1237
▁outstanding	-1238
stockssymbolmcd	-1239
amputmcontentmcd	-1240
bo	-1241
oy	-1242
xy	-1243
zz	-1244
acc	-1245
fin	-1246
gge	-1247
jor	-1248
led	-1249
ltr	-1250
ree	-1251
ure	-1252
▁bn	-1253
▁ce	-1254
▁gt	-1255
▁ha	-1256
▁lm	-1257
▁qq	-1258
down	-1259
ffee	-1260
from	-1261
hold	-1262
ritr	-1263
sequ	-1264
vide	-1265
▁hot	-1266
▁qqq	-1267
▁set	-1268
▁win	-1269
eking	-1270
endys	-1271
mulus	-1272
▁cnbc	-1273
▁dead	-1274
▁join	-1275
▁noth	-1276
▁shop	-1277
herine	-1278
roduce	-1279
witter	-1280
▁mcrib	-1281
▁score	-1282
▁stick	-1283
▁units	-1284
ational	-1285
dlvritr	-1286
through	-1287
▁eating	-1288
▁social	-1289
▁yester	-1290
analysis	-1291
▁nothing	-1292
▁recover	-1293
alkmarket	-1294
stocksequ	-1295
▁forecast	-1296
▁stimulus	-1297
▁introduce	-1298
▁yesterday	-1299
scomcontent	-1300
▁httpdlvritr	-1301
▁httpstalkmarket	-1302
my	-1303
su	-1304
▁=	-1305
▁x	-1306
bee	-1307
ike	-1308
ium	-1309
lly	-1310
ork	-1311
▁ap	-1312
▁cl	-1313
▁cr	-1314
▁el	-1315
▁is	-1316
▁jp	-1317
▁ke	-1318
▁si	-1319
ands	-1320
arbu	-1321
back	-1322
bush	-1323
call	-1324
esnt	-1325
fast	-1326
haha	-1327
kmon	-1328
nkus	-1329
oose	-1330
smcd	-1331
stem	-1332
tern	-1333
ular	-1334
▁acc	-1335
▁att	-1336
▁aut	-1337
▁fla	-1338
▁mrk	-1339
▁oth	-1340
▁rob	-1341
▁tru	-1342
▁wtf	-1343
▁yes	-1344
entum	-1345
unity	-1346
▁baba	-1347
▁cent	-1348
▁easi	-1349
▁exce	-1350
▁vide	-1351
alance	-1352
burger	-1353
nkusgo	-1354
▁crash	-1355
▁inclu	-1356
▁major	-1357
▁media	-1358
▁setup	-1359
arbucks	-1360
▁choose	-1361
▁divers	-1362
▁monday	-1363
▁pokmon	-1364
▁pretty	-1365
▁probab	-1366
▁system	-1367
srnkusgo	-1368
▁wedbush	-1369
articlesf	-1370
▁something	-1371
newsfilterioab	-1372
▁httpssrnkusgo	-1373
cl	-1374
fc	-1375
fl	-1376
ze	-1377
daq	-1378
dem	-1379
ndl	-1380
ret	-1381
sid	-1382
sum	-1383
▁eb	-1384
▁ge	-1385
▁gl	-1386
come	-1387
dcfb	-1388
eres	-1389
itly	-1390
less	-1391
omer	-1392
pped	-1393
reet	-1394
ross	-1395
uter	-1396
▁fly	-1397
▁mem	-1398
ruary	-1399
ssive	-1400
urope	-1401
▁chee	-1402
▁citi	-1403
▁hour	-1404
▁hurt	-1405
▁info	-1406
▁pltr	-1407
▁sndl	-1408
▁vari	-1409
▁weak	-1410
accine	-1411
▁among	-1412
▁analy	-1413
▁equal	-1414
▁fries	-1415
▁gener	-1416
▁honey	-1417
▁prime	-1418
▁tough	-1419
▁video	-1420
creener	-1421
▁coffee	-1422
▁doesnt	-1423
▁enough	-1424
▁httpsb	-1425
▁opport	-1426
▁others	-1427
▁street	-1428
▁wendys	-1429
▁america	-1430
▁balance	-1431
▁insider	-1432
▁install	-1433
▁regular	-1434
▁computer	-1435
▁probably	-1436
▁sometime	-1437
▁premarket	-1438
▁breakthrough	-1439
stocksequities	-1440
cx	-1441
dd	-1442
ku	-1443
lb	-1444
lf	-1445
wy	-1446
cal	-1447
ces	-1448
dit	-1449
eet	-1450
feb	-1451
gan	-1452
rab	-1453
tiv	-1454
▁ep	-1455
▁id	-1456
▁to	-1457
▁tr	-1458
alth	-1459
date	-1460
eedy	-1461
emcd	-1462
ensi	-1463
esla	-1464
food	-1465
ging	-1466
here	-1467
ific	-1468
keyf	-1469
ling	-1470
mary	-1471
sear	-1472
▁adj	-1473
▁ago	-1474
▁amd	-1475
▁box	-1476
▁btc	-1477
▁cry	-1478
▁dam	-1479
▁dan	-1480
▁ice	-1481
▁max	-1482
▁pep	-1483
▁wow	-1484
ampts	-1485
conom	-1486
ensus	-1487
lling	-1488
▁bell	-1489
▁bngo	-1490
▁cake	-1491
▁cust	-1492
▁denn	-1493
▁dest	-1494
▁flag	-1495
▁foot	-1496
▁grab	-1497
▁life	-1498
▁part	-1499
▁rcat	-1500
▁simp	-1501
▁spec	-1502
▁wall	-1503
daeedb	-1504
dcfbda	-1505
sident	-1506
▁basis	-1507
▁biden	-1508
▁compe	-1509
▁lovin	-1510
▁manip	-1511
▁weigh	-1512
▁whats	-1513
▁wrong	-1514
▁youre	-1515
amestop	-1516
▁annual	-1517
▁cheese	-1518
▁easily	-1519
▁europe	-1520
▁impact	-1521
▁normal	-1522
▁retail	-1523
▁speedy	-1524
▁thanks	-1525
▁theyre	-1526
▁though	-1527
▁trader	-1528
▁partner	-1529
▁perform	-1530
▁traffic	-1531
▁observed	-1532
keyfdaeedb	-1533
▁catherine	-1534
▁consensus	-1535
▁president	-1536
▁watchlist	-1537
▁eventually	-1538
▁previously	-1539
dcfbdaamputm	-1540
▁opportunity	-1541
▁speculation	-1542
marketbeatcomx	-1543
aj	-1544
do	-1545
ik	-1546
ka	-1547
mc	-1548
nn	-1549
ada	-1550
aff	-1551
cit	-1552
cus	-1553
dat	-1554
ern	-1555
get	-1556
isi	-1557
mac	-1558
oon	-1559
ren	-1560
ric	-1561
ron	-1562
set	-1563
une	-1564
vis	-1565
yes	-1566
▁ai	-1567
▁av	-1568
▁da	-1569
▁hd	-1570
▁nu	-1571
▁nv	-1572
aspx	-1573
ched	-1574
cnbc	-1575
crip	-1576
hoot	-1577
ired	-1578
lect	-1579
miss	-1580
mium	-1581
more	-1582
ouce	-1583
rimp	-1584
ures	-1585
▁fil	-1586
▁fry	-1587
▁hal	-1588
▁jpm	-1589
▁nio	-1590
▁pos	-1591
▁tea	-1592
alpha	-1593
ampso	-1594
esday	-1595
isode	-1596
lydem	-1597
olati	-1598
tweet	-1599
▁bend	-1600
▁code	-1601
▁damn	-1602
▁down	-1603
▁else	-1604
▁isnt	-1605
▁lead	-1606
▁lock	-1607
▁uber	-1608
▁wide	-1609
▁with	-1610
antdat	-1611
cember	-1612
ensive	-1613
opeyes	-1614
pecial	-1615
▁appro	-1616
▁never	-1617
▁phone	-1618
▁surge	-1619
ausnews	-1620
seeking	-1621
umption	-1622
▁econom	-1623
▁member	-1624
▁shorts	-1625
▁update	-1626
▁upward	-1627
▁volati	-1628
▁winner	-1629
dividend	-1630
▁episode	-1631
▁httpwww	-1632
▁premium	-1633
▁vaccine	-1634
ampsocial	-1635
cominvest	-1636
▁acquired	-1637
▁catalyst	-1638
▁consumer	-1639
▁customer	-1640
▁february	-1641
inscreener	-1642
▁starbucks	-1643
▁supplydem	-1644
ampsymbolmcd	-1645
articlesform	-1646
seekingalpha	-1647
amptampsocial	-1648
analystrating	-1649
antdatausnews	-1650
▁httpsstockhoot	-1651
ae	-1652
az	-1653
fd	-1654
gl	-1655
to	-1656
blo	-1657
box	-1658
buy	-1659
cor	-1660
dle	-1661
ead	-1662
eef	-1663
ety	-1664
iel	-1665
ked	-1666
ody	-1667
ory	-1668
oti	-1669
pla	-1670
pri	-1671
sec	-1672
sft	-1673
sto	-1674
tit	-1675
ult	-1676
yal	-1677
▁bk	-1678
▁bl	-1679
▁dd	-1680
▁es	-1681
axis	-1682
edge	-1683
fere	-1684
lity	-1685
ness	-1686
part	-1687
rock	-1688
sion	-1689
sted	-1690
ural	-1691
wide	-1692
▁dat	-1693
▁dec	-1694
▁imo	-1695
▁joh	-1696
▁lim	-1697
▁saf	-1698
▁shi	-1699
aling	-1700
annel	-1701
asdaq	-1702
ately	-1703
callt	-1704
ening	-1705
grats	-1706
ither	-1707
macro	-1708
ouple	-1709
yalty	-1710
▁btcx	-1711
▁cash	-1712
▁chri	-1713
▁debt	-1714
▁deli	-1715
▁fact	-1716
▁head	-1717
▁hist	-1718
▁just	-1719
▁mine	-1720
▁msft	-1721
▁must	-1722
▁pati	-1723
▁rich	-1724
▁roku	-1725
▁seri	-1726
▁sham	-1727
▁shmp	-1728
▁thru	-1729
▁wont	-1730
cripts	-1731
ration	-1732
tional	-1733
▁apple	-1734
▁based	-1735
▁corre	-1736
▁excit	-1737
▁spike	-1738
▁super	-1739
▁three	-1740
▁under	-1741
annouce	-1742
confere	-1743
▁across	-1744
▁credit	-1745
▁intern	-1746
▁safety	-1747
▁sector	-1748
▁should	-1749
ncecallt	-1750
quotemcd	-1751
▁instead	-1752
▁popeyes	-1753
▁provide	-1754
macroaxis	-1755
▁congrats	-1756
▁gamestop	-1757
ranscripts	-1758
▁diversity	-1759
▁initiates	-1760
▁ownership	-1761
▁quarterly	-1762
▁technical	-1763
fundamental	-1764
▁httpswwwsm	-1765
▁leadership	-1766
annoucements	-1767
artoptionsai	-1768
commcdonalds	-1769
▁httpstwitter	-1770
▁httpswwwcnbc	-1771
amputmmediumfa	-1772
marketbeatcomr	-1773
▁international	-1774
conferencecallt	-1775
comstockquotemcd	-1776
▁httpsstocktwits	-1777
bd	-1778
cc	-1779
cz	-1780
gf	-1781
ne	-1782
pz	-1783
va	-1784
zn	-1785
air	-1786
als	-1787
ane	-1788
ans	-1789
arb	-1790
bds	-1791
cap	-1792
ced	-1793
flx	-1794
gle	-1795
ina	-1796
isw	-1797
les	-1798
lic	-1799
mal	-1800
mao	-1801
rea	-1802
rew	-1803
spx	-1804
tio	-1805
ven	-1806
xts	-1807
yah	-1808
zer	-1809
▁ga	-1810
▁gn	-1811
▁oh	-1812
▁pg	-1813
achs	-1814
ally	-1815
ampd	-1816
ding	-1817
iase	-1818
leek	-1819
orse	-1820
ving	-1821
work	-1822
zing	-1823
▁all	-1824
▁alp	-1825
▁bag	-1826
▁bas	-1827
▁bby	-1828
▁ben	-1829
▁bfi	-1830
▁ceo	-1831
▁col	-1832
▁del	-1833
▁fra	-1834
▁hum	-1835
▁lmt	-1836
▁mil	-1837
▁res	-1838
▁spx	-1839
▁ten	-1840
▁tgt	-1841
▁tow	-1842
▁tri	-1843
▁via	-1844
▁web	-1845
andle	-1846
cesca	-1847
group	-1848
intel	-1849
kscan	-1850
llent	-1851
phens	-1852
place	-1853
ramer	-1854
sleek	-1855
subds	-1856
▁area	-1857
▁beef	-1858
▁conf	-1859
▁doge	-1860
▁ebay	-1861
▁garb	-1862
▁less	-1863
▁lmao	-1864
▁lmfa	-1865
▁meet	-1866
▁moon	-1867
▁nflx	-1868
▁play	-1869
▁pton	-1870
▁pump	-1871
▁race	-1872
▁reme	-1873
▁true	-1874
▁yall	-1875
comear	-1876
cutive	-1877
maryid	-1878
olaspx	-1879
ording	-1880
orgsum	-1881
rading	-1882
street	-1883
xtsymb	-1884
▁asset	-1885
▁cards	-1886
▁drive	-1887
▁least	-1888
▁local	-1889
▁owner	-1890
▁prote	-1891
▁sachs	-1892
▁spend	-1893
▁tesla	-1894
▁thank	-1895
comslee	-1896
ificant	-1897
isition	-1898
▁battle	-1899
▁couple	-1900
▁daniel	-1901
▁either	-1902
▁factor	-1903
▁hahaha	-1904
▁health	-1905
▁orange	-1906
▁simply	-1907
▁weight	-1908
andsampd	-1909
pecially	-1910
subdscan	-1911
▁debiase	-1912
▁digital	-1913
▁dismiss	-1914
▁goldman	-1915
▁loyalty	-1916
▁massive	-1917
▁monthly	-1918
▁youtube	-1919
kscanaspx	-1920
▁delivery	-1921
▁fastfood	-1922
▁lockdown	-1923
▁mcdonald	-1924
▁remember	-1925
▁shamrock	-1926
▁stephens	-1927
comextsymb	-1928
olaspxfrom	-1929
▁according	-1930
▁excellent	-1931
▁francesca	-1932
▁variation	-1933
finscreener	-1934
▁especially	-1935
▁indicators	-1936
▁volatility	-1937
orgsummaryid	-1938
sleekoptions	-1939
▁acquisition	-1940
▁consumption	-1941
▁significant	-1942
▁manipulation	-1943
comsleekscanaspx	-1944
ga	-1945
gh	-1946
gs	-1947
ki	-1948
mr	-1949
ms	-1950
no	-1951
ny	-1952
qq	-1953
sa	-1954
sp	-1955
ud	-1956
za	-1957
zy	-1958
ajy	-1959
ath	-1960
eff	-1961
fer	-1962
gal	-1963
icy	-1964
iet	-1965
ios	-1966
lls	-1967
mom	-1968
olt	-1969
ors	-1970
tcf	-1971
tto	-1972
▁ab	-1973
▁af	-1974
▁at	-1975
▁em	-1976
▁fy	-1977
▁iv	-1978
▁jr	-1979
▁ou	-1980
▁ru	-1981
▁tl	-1982
▁ve	-1983
anic	-1984
asnt	-1985
aste	-1986
atus	-1987
beep	-1988
bisw	-1989
caco	-1990
ches	-1991
comp	-1992
efit	-1993
efly	-1994
ered	-1995
gers	-1996
just	-1997
mpcz	-1998
ones	-1999
otib	-2000
oumy	-2001
ream	-2002
term	-2003
unch	-2004
upid	-2005
▁aal	-2006
▁alt	-2007
▁and	-2008
▁bar	-2009
▁bdl	-2010
▁bkw	-2011
▁can	-2012
▁crm	-2013
▁def	-2014
▁dpz	-2015
▁due	-2016
▁ema	-2017
▁eod	-2018
▁eow	-2019
▁for	-2020
▁fut	-2021
▁hoo	-2022
▁nke	-2023
▁pay	-2024
▁see	-2025
▁smo	-2026
▁sup	-2027
▁war	-2028
amond	-2029
atest	-2030
based	-2031
chick	-2032
force	-2033
fully	-2034
gfart	-2035
grate	-2036
idate	-2037
ietly	-2038
inski	-2039
kemon	-2040
lable	-2041
omber	-2042
point	-2043
rency	-2044
yahoo	-2045
▁amzn	-2046
▁auto	-2047
▁baby	-2048
▁bias	-2049
▁data	-2050
▁half	-2051
▁hate	-2052
▁heat	-2053
▁hire	-2054
▁jack	-2055
▁john	-2056
▁lets	-2057
▁nvda	-2058
▁oper	-2059
▁paid	-2060
▁pika	-2061
▁priv	-2062
▁reop	-2063
▁slee	-2064
▁tend	-2065
▁ttcf	-2066
▁webs	-2067
▁work	-2068
ansion	-2069
biswas	-2070
cacola	-2071
filing	-2072
holder	-2073
minist	-2074
▁along	-2075
▁alpha	-2076
▁bitly	-2077
▁burst	-2078
▁evpgl	-2079
▁fatty	-2080
▁fraud	-2081
▁heres	-2082
▁laugh	-2083
▁limit	-2084
▁moron	-2085
▁ratio	-2086
▁robin	-2087
▁scale	-2088
▁sugge	-2089
▁sweet	-2090
ajyotib	-2091
erestim	-2092
mcdview	-2093
release	-2094
stopher	-2095
viewcom	-2096
▁acting	-2097
▁cramer	-2098
▁equity	-2099
▁expand	-2100
▁filing	-2101
▁hoovel	-2102
▁kempcz	-2103
▁latest	-2104
▁manage	-2105
▁margin	-2106
▁middle	-2107
▁moment	-2108
▁nation	-2109
▁revolt	-2110
▁robert	-2111
▁status	-2112
▁stupid	-2113
▁within	-2114
analyzer	-2115
comsoumy	-2116
investor	-2117
momentum	-2118
▁channel	-2119
▁collect	-2120
▁destiny	-2121
▁diamond	-2122
▁economy	-2123
▁excited	-2124
▁overall	-2125
▁percent	-2126
▁pokemon	-2127
▁protein	-2128
searnings	-2129
▁administ	-2130
▁approval	-2131
▁december	-2132
▁favorite	-2133
▁momentum	-2134
▁patience	-2135
▁recently	-2136
▁watchers	-2137
comnewsmcd	-2138
comsbiswas	-2139
restaurant	-2140
▁breakfast	-2141
▁followers	-2142
▁integrate	-2143
▁statement	-2144
▁stockbeep	-2145
ajyotibquot	-2146
▁bitlygfart	-2147
▁generation	-2148
▁nationwide	-2149
stockmcdview	-2150
▁christopher	-2151
▁fundamental	-2152
▁kempczinski	-2153
▁restaurants	-2154
▁stockholder	-2155
▁announcement	-2156
▁cheeseburger	-2157
▁mcdonaldsmcd	-2158
▁newsmomentum	-2159
newsfilterioad	-2160
tradingviewcom	-2161
cominvestmarket	-2162
comstockanalyzer	-2163
aa	-2164
cp	-2165
dj	-2166
gn	-2167
hy	-2168
ju	-2169
kk	-2170
mm	-2171
nj	-2172
of	-2173
vx	-2174
xs	-2175
zo	-2176
acf	-2177
ask	-2178
aul	-2179
bbv	-2180
big	-2181
bri	-2182
bus	-2183
che	-2184
cyc	-2185
ddd	-2186
gov	-2187
gre	-2188
gry	-2189
htm	-2190
ich	-2191
ify	-2192
ind	-2193
isp	-2194
lin	-2195
med	-2196
off	-2197
olo	-2198
opp	-2199
opy	-2200
php	-2201
pro	-2202
pto	-2203
rcx	-2204
rup	-2205
sha	-2206
ste	-2207
sth	-2208
ted	-2209
the	-2210
tta	-2211
vxy	-2212
xim	-2213
▁ah	-2214
▁dh	-2215
▁gm	-2216
▁ho	-2217
▁lu	-2218
▁ur	-2219
blog	-2220
body	-2221
cept	-2222
comm	-2223
ends	-2224
fila	-2225
gard	-2226
hood	-2227
inks	-2228
itda	-2229
lays	-2230
load	-2231
ming	-2232
omet	-2233
ored	-2234
orth	-2235
pite	-2236
play	-2237
ptic	-2238
rate	-2239
rely	-2240
stly	-2241
ther	-2242
ulti	-2243
vies	-2244
▁ath	-2245
▁avg	-2246
▁bio	-2247
▁boy	-2248
▁che	-2249
▁div	-2250
▁egg	-2251
▁gre	-2252
▁hic	-2253
▁hut	-2254
▁lxs	-2255
▁mat	-2256
▁mob	-2257
▁nex	-2258
▁row	-2259
▁sen	-2260
▁sid	-2261
▁tsn	-2262
▁upt	-2263
▁usd	-2264
aking	-2265
allen	-2266
apple	-2267
archi	-2268
arent	-2269
cised	-2270
ender	-2271
ering	-2272
ickey	-2273
ights	-2274
mcdid	-2275
range	-2276
ssure	-2277
vesed	-2278
which	-2279
▁abbv	-2280
▁amid	-2281
▁burn	-2282
▁chip	-2283
▁dine	-2284
▁gain	-2285
▁gnus	-2286
▁goog	-2287
▁jeff	-2288
▁lmnd	-2289
▁paul	-2290
▁pick	-2291
▁prob	-2292
▁rela	-2293
▁step	-2294
▁tune	-2295
▁uvxy	-2296
▁wedn	-2297
antage	-2298
atural	-2299
better	-2300
comper	-2301
crimin	-2302
ferral	-2303
fintel	-2304
gardat	-2305
idence	-2306
omberg	-2307
return	-2308
secgov	-2309
sition	-2310
stocks	-2311
thefly	-2312
▁accum	-2313
▁autom	-2314
▁comps	-2315
▁craze	-2316
▁death	-2317
▁files	-2318
▁focus	-2319
▁hedge	-2320
▁hours	-2321
▁human	-2322
▁inval	-2323
▁juicy	-2324
▁night	-2325
▁north	-2326
▁recyc	-2327
▁taste	-2328
▁wells	-2329
▁white	-2330
comvide	-2331
malinks	-2332
mercial	-2333
ometric	-2334
▁andrew	-2335
▁attack	-2336
▁bigger	-2337
▁bright	-2338
▁candle	-2339
▁crypto	-2340
▁depart	-2341
▁forget	-2342
▁highly	-2343
▁lowers	-2344
▁mickey	-2345
▁nasdaq	-2346
▁parity	-2347
▁player	-2348
▁shares	-2349
▁shrimp	-2350
▁surpri	-2351
▁theres	-2352
earnings	-2353
entryphp	-2354
▁alltime	-2355
▁anymore	-2356
▁benefit	-2357
▁buyback	-2358
▁despite	-2359
▁display	-2360
▁futures	-2361
▁garbage	-2362
▁healthy	-2363
▁include	-2364
▁mcchick	-2365
▁private	-2366
▁quietly	-2367
▁selloff	-2368
▁tendies	-2369
▁trapped	-2370
▁uptrend	-2371
▁website	-2372
▁wouldnt	-2373
anceyahoo	-2374
mediately	-2375
▁analysis	-2376
▁anything	-2377
▁currency	-2378
▁european	-2379
▁personal	-2380
▁pressure	-2381
▁previous	-2382
▁relative	-2383
▁weakness	-2384
archivesed	-2385
comearning	-2386
erestimate	-2387
▁citigroup	-2388
▁currently	-2389
▁discrimin	-2390
▁expansion	-2391
▁expensive	-2392
▁including	-2393
▁robinhood	-2394
▁seriously	-2395
▁suggested	-2396
▁wednesday	-2397
▁commercial	-2398
▁compelling	-2399
▁confidence	-2400
▁correction	-2401
▁department	-2402
▁httpsbitly	-2403
▁httpthefly	-2404
▁initiation	-2405
▁operations	-2406
▁httpsfintel	-2407
▁partnership	-2408
compermalinks	-2409
entryphpmcdid	-2410
▁httpdlvritrp	-2411
▁httpsyoutube	-2412
newsfilterioaa	-2413
▁httpswwwstock	-2414
▁underestimate	-2415
newsfilterioaed	-2416
▁administration	-2417
▁discrimination	-2418
archivesedgardat	-2419
br	-2420
cf	-2421
ec	-2422
ex	-2423
ez	-2424
fs	-2425
gy	-2426
hh	-2427
ib	-2428
kd	-2429
pu	-2430
rm	-2431
sw	-2432
ta	-2433
td	-2434
uh	-2435
vo	-2436
vt	-2437
vy	-2438
wd	-2439
wm	-2440
yy	-2441
aca	-2442
amb	-2443
ana	-2444
ark	-2445
axs	-2446
axy	-2447
cbf	-2448
cdd	-2449
ctg	-2450
dis	-2451
div	-2452
ees	-2453
esm	-2454
fee	-2455
ffe	-2456
ial	-2457
ink	-2458
ior	-2459
ipo	-2460
ism	-2461
jun	-2462
ler	-2463
lfx	-2464
loy	-2465
lug	-2466
mas	-2467
met	-2468
mff	-2469
omo	-2470
ona	-2471
que	-2472
ril	-2473
roy	-2474
sco	-2475
stk	-2476
sts	-2477
tea	-2478
tml	-2479
top	-2480
ues	-2481
ule	-2482
ypl	-2483
zed	-2484
▁bb	-2485
▁cu	-2486
▁cy	-2487
▁dg	-2488
▁gu	-2489
▁kr	-2490
▁la	-2491
▁ll	-2492
▁md	-2493
▁ny	-2494
▁on	-2495
▁oz	-2496
▁sw	-2497
▁tp	-2498
▁vp	-2499
▁wk	-2500
▁ye	-2501
acom	-2502
ales	-2503
ants	-2504
atin	-2505
blic	-2506
bull	-2507
cend	-2508
cord	-2509
cxml	-2510
eing	-2511
gelb	-2512
gest	-2513
gggg	-2514
ions	-2515
isse	-2516
izza	-2517
kand	-2518
keys	-2519
kout	-2520
lier	-2521
llig	-2522
loat	-2523
mcdy	-2524
mcsa	-2525
onic	-2526
oooo	-2527
pain	-2528
peps	-2529
ress	-2530
ster	-2531
theb	-2532
tics	-2533
utal	-2534
verg	-2535
wire	-2536
wkhs	-2537
zens	-2538
▁abs	-2539
▁adv	-2540
▁amt	-2541
▁bac	-2542
▁ban	-2543
▁bit	-2544
▁biz	-2545
▁blo	-2546
▁bri	-2547
▁bro	-2548
▁bye	-2549
▁cal	-2550
▁cvx	-2551
▁dhr	-2552
▁dum	-2553
▁eck	-2554
▁ele	-2555
▁etf	-2556
▁exe	-2557
▁fam	-2558
▁gem	-2559
▁hon	-2560
▁idk	-2561
▁jnj	-2562
▁laz	-2563
▁los	-2564
▁mak	-2565
▁mel	-2566
▁mer	-2567
▁pig	-2568
▁ser	-2569
▁sma	-2570
▁sum	-2571
▁ups	-2572
▁use	-2573
▁vir	-2574
▁vol	-2575
▁wal	-2576
▁wba	-2577
acked	-2578
ailed	-2579
aires	-2580
aming	-2581
aring	-2582
atory	-2583
busin	-2584
clays	-2585
ercom	-2586
ggets	-2587
lfxdo	-2588
lines	-2589
maxim	-2590
mploy	-2591
night	-2592
nners	-2593
posed	-2594
ribut	-2595
thest	-2596
tical	-2597
ungry	-2598
verse	-2599
visor	-2600
where	-2601
while	-2602
▁arco	-2603
▁boat	-2604
▁cele	-2605
▁chat	-2606
▁chop	-2607
▁chwy	-2608
▁city	-2609
▁clvs	-2610
▁curi	-2611
▁dean	-2612
▁dips	-2613
▁drin	-2614
▁exer	-2615
▁flip	-2616
▁fred	-2617
▁fuel	-2618
▁gift	-2619
▁june	-2620
▁liqu	-2621
▁lolz	-2622
▁lrcx	-2623
▁macd	-2624
▁opes	-2625
▁pain	-2626
▁peps	-2627
▁pipe	-2628
▁pods	-2629
▁pred	-2630
▁pull	-2631
▁ramp	-2632
▁self	-2633
▁stru	-2634
▁tank	-2635
▁team	-2636
▁till	-2637
▁tlry	-2638
▁toge	-2639
aincom	-2640
americ	-2641
anging	-2642
ention	-2643
esmall	-2644
ically	-2645
ilding	-2646
ispers	-2647
itable	-2648
mcdmff	-2649
opping	-2650
pepssh	-2651
rategy	-2652
search	-2653
ssical	-2654
tition	-2655
uesday	-2656
volume	-2657
▁acctg	-2658
▁bunch	-2659
▁china	-2660
▁cmcsa	-2661
▁defin	-2662
▁dogex	-2663
▁dream	-2664
▁exdiv	-2665
▁fargo	-2666
▁final	-2667
▁float	-2668
▁gotta	-2669
▁hasnt	-2670
▁impre	-2671
▁intel	-2672
▁latin	-2673
▁lmfao	-2674
▁lunch	-2675
▁multi	-2676
▁pizza	-2677
▁sched	-2678
▁sidew	-2679
▁stand	-2680
▁topic	-2681
▁youll	-2682
allenge	-2683
amptype	-2684
company	-2685
cretion	-2686
gelbert	-2687
olution	-2688
ractive	-2689
riskand	-2690
ruptive	-2691
ssymbol	-2692
ternoon	-2693
versold	-2694
▁arches	-2695
▁brutal	-2696
▁corona	-2697
▁digits	-2698
▁dozens	-2699
▁ebitda	-2700
▁eckert	-2701
▁excess	-2702
▁gender	-2703
▁histor	-2704
▁httpsm	-2705
▁mobile	-2706
▁morgan	-2707
▁mostly	-2708
▁nicely	-2709
▁preipo	-2710
▁profes	-2711
▁rocket	-2712
▁senior	-2713
▁suisse	-2714
▁tipped	-2715
▁toward	-2716
announce	-2717
axslfxdo	-2718
business	-2719
cdonalds	-2720
ensatory	-2721
maximump	-2722
mcdstock	-2723
newswire	-2724
referral	-2725
vergence	-2726
▁arrange	-2727
▁curious	-2728
▁destroy	-2729
▁discord	-2730
▁friends	-2731
▁general	-2732
▁lookout	-2733
▁maxpain	-2734
▁monkeys	-2735
▁painful	-2736
▁preview	-2737
▁seeking	-2738
▁shoulda	-2739
▁usually	-2740
▁various	-2741
▁winning	-2742
radesmall	-2743
thestreet	-2744
▁american	-2745
▁analyzed	-2746
▁barclays	-2747
▁building	-2748
▁cocacola	-2749
▁disposed	-2750
▁drinking	-2751
▁insights	-2752
▁multiple	-2753
▁pipeline	-2754
▁probable	-2755
▁pullback	-2756
▁recovery	-2757
▁schedule	-2758
▁shorting	-2759
▁strategy	-2760
▁together	-2761
comarticle	-2762
cretionary	-2763
▁advantage	-2764
▁attention	-2765
▁chickfila	-2766
▁classical	-2767
▁contracts	-2768
▁defensive	-2769
▁directors	-2770
▁diversify	-2771
▁downgrade	-2772
▁engelbert	-2773
▁executive	-2774
▁exercised	-2775
▁happening	-2776
▁hopefully	-2777
▁httpepssh	-2778
▁mcchicken	-2779
▁overnight	-2780
▁signaling	-2781
▁surprised	-2782
▁workforce	-2783
analysisamp	-2784
▁everything	-2785
▁impressive	-2786
▁invalidate	-2787
▁membership	-2788
▁personally	-2789
▁plantbased	-2790
andmcdonalds	-2791
axslfxdocxml	-2792
searningspre	-2793
▁accordingly	-2794
▁immediately	-2795
▁performance	-2796
radesmallblog	-2797
riskandreturn	-2798
▁arrangements	-2799
▁compensatory	-2800
▁continuation	-2801
▁httpmaximump	-2802
analystratings	-2803
annoucementsdj	-2804
▁discretionary	-2805
newsfilterioaab	-2806
restaurantstock	-2807
subdscanamptype	-2808
▁holdingssymbol	-2809
▁httpsstocknews	-2810
▁httpswwwsecgov	-2811
▁preannoucements	-2812
bp	-2813
bt	-2814
cr	-2815
cv	-2816
db	-2817
dx	-2818
ei	-2819
hc	-2820
iv	-2821
je	-2822
jo	-2823
kn	-2824
ko	-2825
kt	-2826
kv	-2827
nr	-2828
nu	-2829
nz	-2830
oa	-2831
ok	-2832
qs	-2833
rg	-2834
rw	-2835
rx	-2836
sb	-2837
tn	-2838
vr	-2839
wa	-2840
ws	-2841
xr	-2842
xu	-2843
xz	-2844
aba	-2845
abc	-2846
ace	-2847
aec	-2848
afb	-2849
arl	-2850
ash	-2851
ato	-2852
bcc	-2853
bef	-2854
bes	-2855
bfb	-2856
biz	-2857
bla	-2858
bow	-2859
caf	-2860
ceu	-2861
cff	-2862
civ	-2863
coh	-2864
cto	-2865
daa	-2866
deb	-2867
ded	-2868
dsf	-2869
eat	-2870
ebo	-2871
ech	-2872
ery	-2873
ets	-2874
ewh	-2875
faa	-2876
fac	-2877
ged	-2878
gen	-2879
gms	-2880
goo	-2881
iad	-2882
ian	-2883
ida	-2884
idi	-2885
ily	-2886
isc	-2887
itt	-2888
itz	-2889
kes	-2890
kov	-2891
lab	-2892
lob	-2893
loc	-2894
mar	-2895
mrw	-2896
ney	-2897
nny	-2898
nse	-2899
ocr	-2900
oli	-2901
onn	-2902
ons	-2903
osp	-2904
oyd	-2905
ozz	-2906
pay	-2907
rec	-2908
rus	-2909
sew	-2910
squ	-2911
thy	-2912
uff	-2913
uik	-2914
uts	-2915
ves	-2916
way	-2917
wes	-2918
xpo	-2919
▁ag	-2920
▁ds	-2921
▁ey	-2922
▁gs	-2923
▁ic	-2924
▁jg	-2925
▁lf	-2926
▁ow	-2927
▁ps	-2928
▁ul	-2929
▁vi	-2930
▁vz	-2931
▁wo	-2932
▁ww	-2933
▁xr	-2934
acci	-2935
ages	-2936
ampp	-2937
anig	-2938
apps	-2939
arma	-2940
auce	-2941
baby	-2942
bean	-2943
cape	-2944
ceac	-2945
chas	-2946
chrt	-2947
cken	-2948
comb	-2949
copy	-2950
corp	-2951
cott	-2952
eder	-2953
eead	-2954
eila	-2955
enny	-2956
enro	-2957
ense	-2958
eory	-2959
faff	-2960
feat	-2961
firm	-2962
fore	-2963
gget	-2964
gine	-2965
gold	-2966
hort	-2967
iles	-2968
ille	-2969
ings	-2970
iosf	-2971
irne	-2972
itac	-2973
iter	-2974
lbur	-2975
manz	-2976
meat	-2977
mend	-2978
mind	-2979
mpor	-2980
nsel	-2981
ntal	-2982
olic	-2983
onks	-2984
opri	-2985
oriz	-2986
orte	-2987
ozzi	-2988
peri	-2989
perl	-2990
pick	-2991
plan	-2992
rady	-2993
reat	-2994
ries	-2995
rito	-2996
rove	-2997
rued	-2998
rust	-2999
ryyf	-3000
seph	-3001
stri	-3002
team	-3003
this	-3004
thru	-3005
vert	-3006
vist	-3007
wall	-3008
what	-3009
▁acb	-3010
▁ark	-3011
▁atm	-3012
▁ave	-3013
▁ble	-3014
▁bmo	-3015
▁bol	-3016
▁bon	-3017
▁bot	-3018
▁bra	-3019
▁bto	-3020
▁btw	-3021
▁cit	-3022
▁cou	-3023
▁cow	-3024
▁cul	-3025
▁din	-3026
▁dma	-3027
▁end	-3028
▁eoy	-3029
▁ewh	-3030
▁faa	-3031
▁fat	-3032
▁fcf	-3033
▁fli	-3034
▁fol	-3035
▁fun	-3036
▁god	-3037
▁har	-3038
▁her	-3039
▁ian	-3040
▁inf	-3041
▁inv	-3042
▁ipo	-3043
▁jpe	-3044
▁kat	-3045
▁khc	-3046
▁lad	-3047
▁lie	-3048
▁mis	-3049
▁nee	-3050
▁org	-3051
▁pac	-3052
▁pfe	-3053
▁ref	-3054
▁rsi	-3055
▁sal	-3056
▁sam	-3057
▁sil	-3058
▁sla	-3059
▁sop	-3060
▁tal	-3061
▁tmo	-3062
▁ton	-3063
▁tot	-3064
▁toy	-3065
▁trv	-3066
▁tur	-3067
▁unh	-3068
▁usa	-3069
▁xle	-3070
ackle	-3071
allon	-3072
andez	-3073
andom	-3074
arian	-3075
aster	-3076
brity	-3077
cheap	-3078
covid	-3079
efing	-3080
enced	-3081
endar	-3082
ented	-3083
erick	-3084
eries	-3085
fight	-3086
forum	-3087
garet	-3088
harec	-3089
horse	-3090
iadis	-3091
ility	-3092
isper	-3093
itely	-3094
ivers	-3095
keout	-3096
lastk	-3097
orden	-3098
organ	-3099
oying	-3100
pping	-3101
ralia	-3102
rique	-3103
sting	-3104
trade	-3105
twork	-3106
usmcd	-3107
uters	-3108
watch	-3109
▁able	-3110
▁addi	-3111
▁alle	-3112
▁amgn	-3113
▁aone	-3114
▁apha	-3115
▁appe	-3116
▁appr	-3117
▁arti	-3118
▁aust	-3119
▁avai	-3120
▁awes	-3121
▁base	-3122
▁beer	-3123
▁bidu	-3124
▁body	-3125
▁coll	-3126
▁comm	-3127
▁dive	-3128
▁door	-3129
▁dtea	-3130
▁emer	-3131
▁etfs	-3132
▁fair	-3133
▁fint	-3134
▁flor	-3135
▁fool	-3136
▁fubo	-3137
▁gaxy	-3138
▁gear	-3139
▁gour	-3140
▁gril	-3141
▁haha	-3142
▁hast	-3143
▁hell	-3144
▁hern	-3145
▁inno	-3146
▁kick	-3147
▁mary	-3148
▁mask	-3149
▁mcnu	-3150
▁mdla	-3151
▁ndaq	-3152
▁nexe	-3153
▁ngms	-3154
▁nove	-3155
▁nyse	-3156
▁octo	-3157
▁ouch	-3158
▁owns	-3159
▁ozan	-3160
▁pend	-3161
▁plug	-3162
▁pypl	-3163
▁qual	-3164
▁reti	-3165
▁role	-3166
▁saus	-3167
▁scre	-3168
▁seek	-3169
▁ship	-3170
▁spce	-3171
▁swed	-3172
▁thin	-3173
▁tmrw	-3174
▁tran	-3175
▁wars	-3176
▁wear	-3177
▁will	-3178
▁wret	-3179
▁yeah	-3180
abased	-3181
acomzy	-3182
action	-3183
active	-3184
amesto	-3185
astebo	-3186
ckenna	-3187
comsec	-3188
consum	-3189
dollar	-3190
enrose	-3191
enzing	-3192
ertain	-3193
feedsf	-3194
follow	-3195
glecom	-3196
greent	-3197
htmutm	-3198
istocr	-3199
linger	-3200
lligan	-3201
preced	-3202
pretim	-3203
redcat	-3204
report	-3205
sional	-3206
tivate	-3207
tivity	-3208
ulting	-3209
▁aroon	-3210
▁basic	-3211
▁bitco	-3212
▁brady	-3213
▁conse	-3214
▁downs	-3215
▁elsew	-3216
▁fully	-3217
▁georg	-3218
▁gonzo	-3219
▁heidi	-3220
▁inner	-3221
▁integ	-3222
▁kevin	-3223
▁legal	-3224
▁lenny	-3225
▁lloyd	-3226
▁midst	-3227
▁mover	-3228
▁panic	-3229
▁pound	-3230
▁quite	-3231
▁rough	-3232
▁sauce	-3233
▁seeks	-3234
▁sheet	-3235
▁shift	-3236
▁shred	-3237
▁sleep	-3238
▁start	-3239
▁toast	-3240
▁usbig	-3241
▁virus	-3242
▁vryyf	-3243
▁walsh	-3244
ampswww	-3245
anigans	-3246
appoint	-3247
arently	-3248
armaceu	-3249
chrtbiz	-3250
copytop	-3251
eedburn	-3252
feature	-3253
ication	-3254
illegal	-3255
intrued	-3256
iosapps	-3257
lburfeb	-3258
mcplant	-3259
opriate	-3260
termmcd	-3261
twitter	-3262
uikitac	-3263
ustment	-3264
▁accept	-3265
▁advice	-3266
▁ascend	-3267
▁bailed	-3268
▁barely	-3269
▁beirne	-3270
▁borden	-3271
▁buyers	-3272
▁canada	-3273
▁citron	-3274
▁dennys	-3275
▁device	-3276
▁employ	-3277
▁fallon	-3278
▁family	-3279
▁fasten	-3280
▁gainer	-3281
▁google	-3282
▁halted	-3283
▁holder	-3284
▁honest	-3285
▁hungry	-3286
▁iconic	-3287
▁inline	-3288
▁insane	-3289
▁joseph	-3290
▁lfgggg	-3291
▁losers	-3292
▁markov	-3293
▁nugget	-3294
▁online	-3295
▁owning	-3296
▁pickup	-3297
▁potato	-3298
▁predic	-3299
▁random	-3300
▁redcat	-3301
▁regard	-3302
▁rental	-3303
▁rogers	-3304
▁ronald	-3305
▁sheila	-3306
▁signed	-3307
▁simple	-3308
▁smoked	-3309
▁stable	-3310
▁stonks	-3311
▁strong	-3312
▁summer	-3313
▁tackle	-3314
▁tempor	-3315
▁theory	-3316
▁theyve	-3317
▁unless	-3318
▁upperl	-3319
▁wealth	-3320
comapple	-3321
december	-3322
efingcom	-3323
fasthtml	-3324
location	-3325
oughbaby	-3326
usmcdutm	-3327
▁absence	-3328
▁accumul	-3329
▁altmanz	-3330
▁awesome	-3331
▁billion	-3332
▁bolster	-3333
▁burrito	-3334
▁capozzi	-3335
▁confirm	-3336
▁counsel	-3337
▁cryptic	-3338
▁drivers	-3339
▁enrique	-3340
▁finance	-3341
▁fintech	-3342
▁gourmet	-3343
▁heading	-3344
▁history	-3345
▁hopping	-3346
▁inverse	-3347
▁manipul	-3348
▁mckenna	-3349
▁natural	-3350
▁network	-3351
▁october	-3352
▁organic	-3353
▁pending	-3354
▁penrose	-3355
▁pumping	-3356
▁replace	-3357
▁reuters	-3358
▁richard	-3359
▁sausage	-3360
▁sleeper	-3361
▁smoking	-3362
▁soaring	-3363
▁soporte	-3364
▁subvert	-3365
▁totally	-3366
▁towards	-3367
▁tuesday	-3368
▁whisper	-3369
▁without	-3370
asteboard	-3371
comvideom	-3372
following	-3373
googlecom	-3374
kingother	-3375
oreddaily	-3376
perienced	-3377
pretiming	-3378
starbucks	-3379
workhorse	-3380
▁annoying	-3381
▁burgerfi	-3382
▁dronebox	-3383
▁economic	-3384
▁election	-3385
▁erlinger	-3386
▁hastings	-3387
▁httpsfin	-3388
▁jpmorgan	-3389
▁lmfaoooo	-3390
▁margaret	-3391
▁mulligan	-3392
▁november	-3393
▁oversold	-3394
▁progress	-3395
▁reported	-3396
▁research	-3397
▁sideways	-3398
▁stealing	-3399
▁unpreced	-3400
▁wretched	-3401
filingsmcd	-3402
htmlsource	-3403
▁afternoon	-3404
▁available	-3405
▁bloomberg	-3406
▁celebrity	-3407
▁challenge	-3408
▁continues	-3409
▁cultivate	-3410
▁drivethru	-3411
▁elsewhere	-3412
▁everyones	-3413
▁ewhispers	-3414
▁favorable	-3415
▁frederick	-3416
▁geometric	-3417
▁hernandez	-3418
▁jefferies	-3419
▁katherine	-3420
▁mcnuggets	-3421
▁pharmaceu	-3422
▁reopening	-3423
▁screaming	-3424
▁shoulders	-3425
articlesfor	-3426
comwlburfeb	-3427
inyurlcomyy	-3428
lastkcomsec	-3429
mcdonaldsvs	-3430
▁additional	-3431
▁adjustment	-3432
▁apparently	-3433
▁attractive	-3434
▁definitely	-3435
▁disruptive	-3436
▁divergence	-3437
▁franchisee	-3438
▁georgiadis	-3439
▁hahahahaha	-3440
▁historical	-3441
▁httpfeedsf	-3442
▁innovative	-3443
▁justrading	-3444
▁management	-3445
▁profitable	-3446
▁recovering	-3447
▁recyclable	-3448
▁revolution	-3449
▁upperlower	-3450
▁wallstreet	-3451
cominvesting	-3452
eedburnercom	-3453
enzingacomzy	-3454
iosappsharec	-3455
▁appropriate	-3456
▁competition	-3457
▁consecutive	-3458
▁correlation	-3459
▁integration	-3460
▁justintrued	-3461
▁potentially	-3462
▁quotmcplant	-3463
▁underweight	-3464
aincomoptions	-3465
amputmtermmcd	-3466
investorplace	-3467
tivitycopytop	-3468
▁fundamentals	-3469
▁httpdlvritrn	-3470
▁httpschrtbiz	-3471
▁professional	-3472
cdonaldsburger	-3473
comnewsrelease	-3474
marketbeatcomn	-3475
newsfilterioac	-3476
sflashalertmeh	-3477
▁unprecedented	-3478
amputmcampaignk	-3479
comamputmmedium	-3480
comappleuikitac	-3481
greentoreddaily	-3482
newsfilterioada	-3483
newsfilterioaee	-3484
▁trendfollowing	-3485
anceyahoocomnews	-3486
filingsmcdhtmutm	-3487
googlecomampswww	-3488
▁httpsfinteliosf	-3489
bf	-3490
bi	-3491
bn	-3492
ea	-3493
eg	-3494
eh	-3495
fz	-3496
gu	-3497
hl	-3498
iq	-3499
hu	-3500
jq	-3501
kz	-3502
mi	-3503
mn	-3504
nb	-3505
nc	-3506
nw	-3507
pf	-3508
qd	-3509
qo	-3510
rd	-3511
rl	-3512
rn	-3513
rp	-3514
sc	-3515
tj	-3516
tm	-3517
uq	-3518
uw	-3519
vk	-3520
vm	-3521
wj	-3522
wk	-3523
wn	-3524
xl	-3525
xo	-3526
xp	-3527
yg	-3528
ym	-3529
yn	-3530
zh	-3531
zl	-3532
abb	-3533
abe	-3534
acd	-3535
adb	-3536
adf	-3537
agn	-3538
ahs	-3539
akd	-3540
amz	-3541
anc	-3542
anf	-3543
apf	-3544
aps	-3545
ass	-3546
baa	-3547
baf	-3548
bda	-3549
bid	-3550
cac	-3551
cco	-3552
cdf	-3553
cer	-3554
cha	-3555
chn	-3556
cts	-3557
ctw	-3558
dcd	-3559
del	-3560
dep	-3561
dex	-3562
don	-3563
dri	-3564
edi	-3565
eex	-3566
ero	-3567
eta	-3568
fca	-3569
fit	-3570
fla	-3571
gme	-3572
gon	-3573
gor	-3574
hat	-3575
hts	-3576
ico	-3577
idd	-3578
idm	-3579
inc	-3580
ioh	-3581
ips	-3582
ird	-3583
isa	-3584
ise	-3585
jan	-3586
kie	-3587
kin	-3588
kng	-3589
lds	-3590
let	-3591
lix	-3592
low	-3593
lys	-3594
mag	-3595
men	-3596
mia	-3597
mic	-3598
mmm	-3599
bdd	-3600
brl	-3601
ddy	-3602
mue	-3603
non	-3604
odk	-3605
omb	-3606
ooo	-3607
ori	-3608
oto	-3609
pid	-3610
qqq	-3611
reg	-3612
rey	-3613
rof	-3614
ros	-3615
rug	-3616
sen	-3617
sho	-3618
smc	-3619
stw	-3620
sys	-3621
tab	-3622
tar	-3623
tch	-3624
tes	-3625
tfd	-3626
tle	-3627
tre	-3628
trm	-3629
tsy	-3630
uac	-3631
ude	-3632
ued	-3633
ups	-3634
urd	-3635
use	-3636
vzz	-3637
wor	-3638
xas	-3639
xic	-3640
yum	-3641
zza	-3642
▁au	-3643
▁bc	-3644
▁db	-3645
▁jd	-3646
▁mk	-3647
▁ml	-3648
▁ms	-3649
▁mw	-3650
▁nh	-3651
▁oi	-3652
▁ol	-3653
▁ot	-3654
▁sq	-3655
▁sr	-3656
▁ta	-3657
▁ty	-3658
▁uh	-3659
▁um	-3660
▁ut	-3661
▁yy	-3662
abor	-3663
achu	-3664
acle	-3665
acos	-3666
aeff	-3667
ague	-3668
ahsu	-3669
aird	-3670
aise	-3671
alac	-3672
amda	-3673
ampv	-3674
apan	-3675
appl	-3676
appy	-3677
ared	-3678
ario	-3679
aris	-3680
arts	-3681
askc	-3682
asks	-3683
asty	-3684
ater	-3685
atic	-3686
atur	-3687
ball	-3688
bbca	-3689
beee	-3690
bers	-3691
blem	-3692
bson	-3693
caff	-3694
cash	-3695
cbzl	-3696
cces	-3697
cefa	-3698
cehy	-3699
iju	-3700
pkd	-3701
rgb	-3702
afuh	-3703
bfbd	-3704
cevt	-3705
chip	-3706
cked	-3707
clrw	-3708
cont	-3709
cuse	-3710
cuss	-3711
cvan	-3712
dist	-3713
edeb	-3714
eeac	-3715
eeth	-3716
eeze	-3717
ents	-3718
enty	-3719
ests	-3720
glob	-3721
grow	-3722
gtgt	-3723
hack	-3724
host	-3725
idin	-3726
idth	-3727
ient	-3728
iidm	-3729
iker	-3730
inge	-3731
ized	-3732
izer	-3733
kkkk	-3734
leog	-3735
leth	-3736
ller	-3737
long	-3738
mcdq	-3739
mess	-3740
mmed	-3741
mote	-3742
move	-3743
muff	-3744
nblo	-3745
nrca	-3746
omen	-3747
omic	-3748
ongo	-3749
oped	-3750
orri	-3751
ossi	-3752
otim	-3753
otle	-3754
outs	-3755
over	-3756
peak	-3757
plus	-3758
pris	-3759
prof	-3760
psxu	-3761
puts	-3762
race	-3763
rari	-3764
raws	-3765
rear	-3766
reem	-3767
rema	-3768
reos	-3769
rial	-3770
rick	-3771
rone	-3772
rown	-3773
ryan	-3774
sful	-3775
sole	-3776
ssil	-3777
stal	-3778
stic	-3779
swer	-3780
tipr	-3781
tise	-3782
titu	-3783
tmcd	-3784
tsca	-3785
ttos	-3786
vely	-3787
vron	-3788
vzzj	-3789
wice	-3790
wind	-3791
▁air	-3792
▁aqu	-3793
▁bbg	-3794
▁bft	-3795
▁bug	-3796
▁cfo	-3797
▁cro	-3798
▁cua	-3799
bii	-3800
▁dai	-3801
▁dee	-3802
▁eco	-3803
▁ent	-3804
▁etc	-3805
▁eth	-3806
▁fan	-3807
▁fbp	-3808
▁fdx	-3809
▁goo	-3810
▁hey	-3811
▁hmm	-3812
▁hrl	-3813
▁ide	-3814
▁ing	-3815
▁iom	-3816
▁iwm	-3817
▁jim	-3818
▁jmo	-3819
▁kfc	-3820
▁kid	-3821
▁lab	-3822
▁lag	-3823
▁leg	-3824
▁lin	-3825
▁loc	-3826
▁luv	-3827
▁msm	-3828
▁mtn	-3829
▁nah	-3830
▁nok	-3831
▁non	-3832
▁now	-3833
▁oeg	-3834
▁pik	-3835
▁pur	-3836
▁put	-3837
▁rad	-3838
▁rew	-3839
▁rpt	-3840
▁run	-3841
▁rvr	-3842
▁sca	-3843
▁sch	-3844
▁shy	-3845
▁sim	-3846
▁six	-3847
▁sos	-3848
▁soy	-3849
▁squ	-3850
▁sto	-3851
▁sus	-3852
▁tax	-3853
▁thr	-3854
▁thu	-3855
▁tna	-3856
▁unc	-3857
▁uoa	-3858
▁veg	-3859
▁vow	-3860
▁whe	-3861
▁woo	-3862
▁www	-3863
▁xrt	-3864
▁ytd	-3865
▁yup	-3866
aeaff	-3867
aging	-3868
ality	-3869
alone	-3870
amper	-3871
angle	-3872
anill	-3873
annet	-3874
anted	-3875
arded	-3876
arily	-3877
asing	-3878
ather	-3879
atsum	-3880
azine	-3881
beefb	-3882
black	-3883
blatt	-3884
break	-3885
build	-3886
cafin	-3887
ccost	-3888
coast	-3889
cohol	-3890
comes	-3891
compe	-3892
corre	-3893
could	-3894
cules	-3895
demon	-3896
depth	-3897
dible	-3898
ently	-3899
enues	-3900
flake	-3901
fsbux	-3902
gency	-3903
gener	-3904
getad	-3905
hedge	-3906
icash	-3907
idert	-3908
ieson	-3909
igits	-3910
ingle	-3911
ingsf	-3912
isthe	-3913
italm	-3914
itech	-3915
lovin	-3916
mland	-3917
money	-3918
nting	-3919
ontru	-3920
opper	-3921
order	-3922
oundt	-3923
pecul	-3924
pidly	-3925
pkdkz	-3926
pride	-3927
quant	-3928
rants	-3929
rated	-3930
rativ	-3931
sales	-3932
secre	-3933
short	-3934
shtml	-3935
stell	-3936
stmas	-3937
strad	-3938
techn	-3939
tflix	-3940
thrus	-3941
thtml	-3942
umers	-3943
urity	-3944
usany	-3945
value	-3946
veamp	-3947
vegan	-3948
virus	-3949
words	-3950
▁abnb	-3951
▁abor	-3952
▁acce	-3953
▁aihs	-3954
▁aint	-3955
▁algo	-3956
▁alth	-3957
▁anet	-3958
▁apro	-3959
▁arri	-3960
▁asin	-3961
▁atvi	-3962
▁bank	-3963
▁bern	-3964
▁beta	-3965
▁bigd	-3966
▁blsp	-3967
▁bofa	-3968
▁bomb	-3969
▁brka	-3970
▁btfd	-3971
▁buil	-3972
▁cbrl	-3973
▁cciv	-3974
▁ceos	-3975
▁char	-3976
▁clue	-3977
▁cmon	-3978
▁coke	-3979
▁cold	-3980
▁conv	-3981
▁copy	-3982
▁csco	-3983
▁ctrm	-3984
▁cult	-3985
▁cycl	-3986
▁diss	-3987
▁divi	-3988
▁divs	-3989
▁dkng	-3990
▁dltr	-3991
▁drug	-3992
▁dude	-3993
▁etsy	-3994
▁evid	-3995
▁fish	-3996
▁fomo	-3997
▁gamb	-3998
▁gevo	-3999
▁glsi	-4000
▁gogg	-4001
▁govt	-4002
▁hail	-4003
▁hawk	-4004
▁holy	-4005
▁hosp	-4006
▁itll	-4007
▁jenn	-4008
▁jmia	-4009
▁kodk	-4010
▁lame	-4011
▁lazr	-4012
▁levi	-4013
▁list	-4014
▁loco	-4015
▁lord	-4016
▁maxn	-4017
▁mayo	-4018
▁mbii	-4019
▁melt	-4020
▁milk	-4021
▁mini	-4022
▁minr	-4023
▁mlab	-4024
▁mort	-4025
▁nakd	-4026
▁nova	-4027
▁nuan	-4028
▁nurs	-4029
▁nvax	-4030
▁opco	-4031
▁orcl	-4032
▁orly	-4033
▁pass	-4034
▁peek	-4035
▁pent	-4036
▁psac	-4037
▁psth	-4038
▁pzza	-4039
▁regn	-4040
▁repu	-4041
▁rest	-4042
▁rick	-4043
▁road	-4044
▁rrgb	-4045
▁scen	-4046
▁sess	-4047
▁sexy	-4048
▁shor	-4049
▁shut	-4050
▁sing	-4051
▁snow	-4052
▁soxl	-4053
▁ssys	-4054
▁stun	-4055
▁that	-4056
▁town	-4057
▁twtr	-4058
▁user	-4059
▁vent	-4060
▁weed	-4061
▁weve	-4062
▁whet	-4063
▁wing	-4064
▁woah	-4065
▁xrpx	-4066
▁yolo	-4067
▁yumc	-4068
abolic	-4069
accion	-4070
actics	-4071
adjust	-4072
aefffb	-4073
alerts	-4074
ancing	-4075
arison	-4076
blicly	-4077
bution	-4078
comamp	-4079
covidv	-4080
crease	-4081
ctwstw	-4082
ederal	-4083
eexamp	-4084
ername	-4085
esting	-4086
feceac	-4087
gernon	-4088
ggling	-4089
gorith	-4090
ground	-4091
growth	-4092
handle	-4093
idaskc	-4094
iggest	-4095
ijuana	-4096
inance	-4097
indust	-4098
ingonn	-4099
iosous	-4100
itiest	-4101
junkie	-4102
kampts	-4103
keptic	-4104
launch	-4105
leoguh	-4106
loaded	-4107
luence	-4108
lycash	-4109
lysold	-4110
mental	-4111
monian	-4112
muffin	-4113
onomic	-4114
oocbzl	-4115
orizon	-4116
orsell	-4117
parent	-4118
reward	-4119
rimped	-4120
shrimp	-4121
ssover	-4122
stobuy	-4123
strong	-4124
teamsp	-4125
thanks	-4126
throne	-4127
ticals	-4128
timism	-4129
timize	-4130
tizing	-4131
trades	-4132
valued	-4133
warded	-4134
wendys	-4135
ysvzzj	-4136
▁adver	-4137
▁arent	-4138
▁aside	-4139
▁baird	-4140
▁baked	-4141
▁blitz	-4142
▁bonus	-4143
▁buddy	-4144
▁budge	-4145
▁burof	-4146
▁cnrca	-4147
▁deser	-4148
▁diffe	-4149
▁dough	-4150
▁drown	-4151
▁dumbs	-4152
▁elses	-4153
▁faces	-4154
▁faith	-4155
▁feedb	-4156
▁folks	-4157
▁forex	-4158
▁frust	-4159
▁ftsca	-4160
▁fuapf	-4161
▁gates	-4162
▁ghost	-4163
▁gover	-4164
▁grand	-4165
▁horse	-4166
▁hurry	-4167
▁iamda	-4168
▁ideal	-4169
▁invit	-4170
▁jones	-4171
▁lands	-4172
▁liter	-4173
▁logan	-4174
▁lotto	-4175
▁maker	-4176
▁mango	-4177
▁meals	-4178
▁mercy	-4179
▁minor	-4180
▁nasty	-4181
▁owned	-4182
▁paste	-4183
▁peers	-4184
▁pepsi	-4185
▁piper	-4186
▁prior	-4187
▁promo	-4188
▁qterm	-4189
▁recap	-4190
▁roles	-4191
▁rosen	-4192
▁salad	-4193
▁sampp	-4194
▁satur	-4195
▁scott	-4196
▁slide	-4197
▁smith	-4198
▁staff	-4199
▁talks	-4200
▁tcehy	-4201
▁teeth	-4202
▁texas	-4203
▁thous	-4204
▁truck	-4205
▁tweet	-4206
▁twice	-4207
▁vegan	-4208
▁viral	-4209
▁wasnt	-4210
▁whack	-4211
▁women	-4212
ahsuthy	-4213
alactic	-4214
andwich	-4215
asingly	-4216
asually	-4217
builder	-4218
channel	-4219
chastic	-4220
combode	-4221
commend	-4222
earning	-4223
ersmind	-4224
forlist	-4225
forwork	-4226
general	-4227
holders	-4228
idinmcd	-4229
indepth	-4230
ingview	-4231
insider	-4232
italize	-4233
llinger	-4234
message	-4235
mueller	-4236
natural	-4237
ossible	-4238
oughout	-4239
rarians	-4240
rection	-4241
remains	-4242
runners	-4243
smaking	-4244
sredcat	-4245
traders	-4246
veloped	-4247
vidross	-4248
volumes	-4249
xpocomw	-4250
▁answer	-4251
▁anyway	-4252
▁applic	-4253
▁awhile	-4254
▁barney	-4255
▁bidens	-4256
▁bnnblo	-4257
▁boomer	-4258
▁cheers	-4259
▁commun	-4260
▁conven	-4261
▁coulda	-4262
▁danish	-4263
▁dinein	-4264
▁dinner	-4265
▁distri	-4266
▁divies	-4267
▁dumped	-4268
▁engine	-4269
▁excuse	-4270
▁eyeing	-4271
▁flight	-4272
▁fossil	-4273
▁fridge	-4274
▁gtgtgt	-4275
▁guests	-4276
▁hamper	-4277
▁headed	-4278
▁johnny	-4279
▁joking	-4280
▁league	-4281
▁limits	-4282
▁lottos	-4283
▁lovely	-4284
▁marcus	-4285
▁matsum	-4286
▁medium	-4287
▁midday	-4288
▁mother	-4289
▁movies	-4290
▁nobody	-4291
▁ousted	-4292
▁packed	-4293
▁picked	-4294
▁pumped	-4295
▁qsrmag	-4296
▁quotim	-4297
▁racial	-4298
▁reddit	-4299
▁reload	-4300
▁remote	-4301
▁reopen	-4302
▁retest	-4303
▁scared	-4304
▁series	-4305
▁struct	-4306
▁theyll	-4307
▁threat	-4308
▁tocvan	-4309
▁travis	-4310
▁triple	-4311
▁truist	-4312
▁turtle	-4313
▁twenty	-4314
▁useful	-4315
▁waking	-4316
▁wheres	-4317
adjusted	-4318
american	-4319
americas	-4320
amestore	-4321
anillust	-4322
asdaqcap	-4323
askscore	-4324
aspxfrom	-4325
blackbox	-4326
calendar	-4327
ccessful	-4328
cffaeaff	-4329
fastfood	-4330
february	-4331
gamestop	-4332
ilesappl	-4333
inconsum	-4334
iohitech	-4335
istocrat	-4336
iversary	-4337
ledigits	-4338
olitical	-4339
ombergca	-4340
ordering	-4341
position	-4342
psxuafuh	-4343
ributors	-4344
scomtmcd	-4345
squarter	-4346
targetad	-4347
tipranks	-4348
titannet	-4349
umptions	-4350
▁advisor	-4351
▁alcohol	-4352
▁alleged	-4353
▁amongst	-4354
▁anybody	-4355
▁artists	-4356
▁asinine	-4357
▁benzing	-4358
▁bitcoin	-4359
▁bounced	-4360
▁bounces	-4361
▁chevron	-4362
▁comment	-4363
▁compete	-4364
▁concept	-4365
▁console	-4366
▁costing	-4367
▁couldnt	-4368
▁craving	-4369
▁crimped	-4370
▁dollars	-4371
▁donalds	-4372
▁dumping	-4373
▁earlier	-4374
▁easiest	-4375
▁endless	-4376
▁evident	-4377
▁factset	-4378
▁farming	-4379
▁federal	-4380
▁flaming	-4381
▁florida	-4382
▁gainers	-4383
▁gearing	-4384
▁granted	-4385
▁greener	-4386
▁hanging	-4387
▁hunting	-4388
▁illegal	-4389
▁improve	-4390
▁institu	-4391
▁kicking	-4392
▁kidding	-4393
▁lagging	-4394
▁longbow	-4395
▁marrone	-4396
▁mclovin	-4397
▁message	-4398
▁mindful	-4399
▁moniker	-4400
▁netflix	-4401
▁nursery	-4402
▁nysemcd	-4403
▁pacific	-4404
▁patient	-4405
▁pepsico	-4406
▁pikachu	-4407
▁plastic	-4408
▁pounder	-4409
▁problem	-4410
▁pumpers	-4411
▁rapidly	-4412
▁reflect	-4413
▁retired	-4414
▁retrace	-4415
▁rewards	-4416
▁roccost	-4417
▁runners	-4418
▁sandler	-4419
▁serving	-4420
▁shorted	-4421
▁smacked	-4422
▁soybean	-4423
▁special	-4424
▁startup	-4425
▁support	-4426
▁suspect	-4427
▁swedish	-4428
▁takeout	-4429
▁tonight	-4430
▁unhappy	-4431
▁weather	-4432
▁weekend	-4433
▁whopper	-4434
▁willing	-4435
▁workers	-4436
▁wouldve	-4437
arkethtml	-4438
buyorsell	-4439
chartmcdy	-4440
comoption	-4441
enarticle	-4442
financing	-4443
holdingsf	-4444
idaskclub	-4445
investing	-4446
oundtable	-4447
peculator	-4448
secretive	-4449
stockscom	-4450
susmcdutm	-4451
technical	-4452
timeicash	-4453
tisements	-4454
usanyemcd	-4455
watchlist	-4456
▁abortion	-4457
▁adoption	-4458
▁algernon	-4459
▁algorith	-4460
▁although	-4461
▁anywhere	-4462
▁approved	-4463
▁basement	-4464
▁blackbox	-4465
▁collabor	-4466
▁comments	-4467
▁compared	-4468
▁consolid	-4469
▁constell	-4470
▁cyclical	-4471
▁decrease	-4472
▁distance	-4473
▁downside	-4474
▁emerging	-4475
▁exciting	-4476
▁feedback	-4477
▁gambling	-4478
▁hahahaha	-4479
▁hercules	-4480
▁honestly	-4481
▁hospital	-4482
▁httpstco	-4483
▁included	-4484
▁insidert	-4485
▁lfgggggg	-4486
▁majority	-4487
▁maturity	-4488
▁mcmuffin	-4489
▁meatless	-4490
▁national	-4491
▁official	-4492
▁optimism	-4493
▁peabased	-4494
▁publicly	-4495
▁qualcomm	-4496
▁randomly	-4497
▁reaccion	-4498
▁recycled	-4499
▁republic	-4500
▁saturday	-4501
▁scenario	-4502
▁shifting	-4503
▁shortage	-4504
▁shutdown	-4505
▁supplier	-4506
▁thankful	-4507
▁triangle	-4508
▁uploaded	-4509
▁username	-4510
▁ventures	-4511
▁volatile	-4512
▁warrants	-4513
▁wingstop	-4514
betterpick	-4515
companymcd	-4516
forworkers	-4517
hortvolume	-4518
iesonfight	-4519
iggestmove	-4520
iosouswkhs	-4521
lationsmcd	-4522
leoguhcevt	-4523
prnewswire	-4524
resistance	-4525
vistctwstw	-4526
wallstreet	-4527
whichstock	-4528
▁australia	-4529
▁automated	-4530
▁basically	-4531
▁biometric	-4532
▁bollinger	-4533
▁breakdown	-4534
▁christmas	-4535
▁crossover	-4536
▁daimonian	-4537
▁different	-4538
▁employees	-4539
▁flanigans	-4540
▁headlines	-4541
▁inflation	-4542
▁justwords	-4543
▁landscape	-4544
▁listening	-4545
▁literally	-4546
▁locations	-4547
▁macdonald	-4548
▁marijuana	-4549
▁matsumoto	-4550
▁noahsuthy	-4551
▁parabolic	-4552
▁predictiv	-4553
▁proactive	-4554
▁promotion	-4555
▁recommend	-4556
▁resulting	-4557
▁samestore	-4558
▁sincerely	-4559
▁snowflake	-4560
▁temporary	-4561
▁thousands	-4562
briefingcom	-4563
comearnings	-4564
corporation	-4565
intelteamsp	-4566
inyurlcomyc	-4567
inyurlcomyq	-4568
mcdqearning	-4569
rativeexamp	-4570
smakingtheb	-4571
vidrossgold	-4572
wendyswhich	-4573
▁allocation	-4574
▁appetizing	-4575
▁automation	-4576
▁bottomline	-4577
▁capitalize	-4578
▁comparison	-4579
▁confluence	-4580
▁disappoint	-4581
▁drivethrus	-4582
▁everywhere	-4583
▁ghostdemon	-4584
▁httpoocbzl	-4585
▁httpscafin	-4586
▁impossible	-4587
▁incredible	-4588
▁indication	-4589
▁invitation	-4590
▁minorities	-4591
▁northcoast	-4592
▁overvalued	-4593
▁regardless	-4594
▁riskreward	-4595
▁rosenblatt	-4596
▁standalone	-4597
▁standpoint	-4598
▁stochastic	-4599
▁stocktwits	-4600
▁struggling	-4601
▁systemwide	-4602
▁throughout	-4603
▁transition	-4604
comstockwkhs	-4605
covidvaccine	-4606
mcdmcdonalds	-4607
scommcdstock	-4608
▁anniversary	-4609
▁bidaskscore	-4610
▁codeveloped	-4611
▁contrarians	-4612
▁coronavirus	-4613
▁experienced	-4614
▁finscreener	-4615
▁fintechnews	-4616
▁manipulated	-4617
▁qsrmagazine	-4618
▁resumptions	-4619
▁roccostacos	-4620
▁tradingview	-4621
▁transparent	-4622
articlesforme	-4623
asdaqcapitalm	-4624
enzingacomzyb	-4625
forlistingonn	-4626
naturalshrimp	-4627
psxuafuhveamp	-4628
targetadvisor	-4629
▁accumulating	-4630
▁accumulation	-4631
▁articlehttps	-4632
▁billionaires	-4633
▁contributors	-4634
▁corporations	-4635
▁distribution	-4636
▁drivethrough	-4637
▁expectations	-4638
▁increasingly	-4639
▁millionaires	-4640
▁riskadjusted	-4641
▁shortvolumes	-4642
▁singledigits	-4643
▁stockratings	-4644
▁stronglysold	-4645
▁supplydemand	-4646
▁underperform	-4647
amputmmediumta	-4648
articlearticle	-4649
cffaeafffeceac	-4650
enarticlepkdkz	-4651
inyurlcomyclrw	-4652
runnersmessage	-4653
sflashalertmed	-4654
sflashalertmej	-4655
squarterlycash	-4656
▁constellation	-4657
▁httpepsshsmcd	-4658
▁institutional	-4659
▁revolutionize	-4660
▁strengthening	-4661
analysiscontent	-4662
businessinsider	-4663
comnewsmcdonald	-4664
correlationsmcd	-4665
ersmindanillust	-4666
ilesapplication	-4667
isthebetterpick	-4668
newsfilterioace	-4669
newsfilterioafc	-4670
newsfilterioafd	-4671
stocksequitiest	-4672
titannetnewsmcd	-4673
tradingviewcomx	-4674
▁advertisements	-4675
▁bnnbloombergca	-4676
▁hahahahahahaha	-4677
▁insidertrading	-4678
analystratingtab	-4679
andmcdonaldspost	-4680
calendaraspxfrom	-4681
comnewsmcdonalds	-4682
idaskclubcomnews	-4683
inyurlcomyysvzzj	-4684
mcdqearningshtml	-4685
sredcatholdingsf	-4686
▁httpshortvolume	-4687
▁httpstwittercom	-4688
▁pharmaceuticals	-4689
ao	-4690
aw	-4691
bw	-4692
cg	-4693
cn	-4694
df	-4695
dh	-4696
dq	-4697
dr	-4698
ek	-4699
bj	-4700
dn	-4701
fm	-4702
fn	-4703
fv	-4704
fx	-4705
gm	-4706
gw	-4707
hd	-4708
hp	-4709
ji	-4710
jp	-4711
jx	-4712
kb	-4713
kf	-4714
kg	-4715
kr	-4716
kw	-4717
kx	-4718
lp	-4719
lt	-4720
lv	-4721
lw	-4722
lx	-4723
mq	-4724
mx	-4725
nf	-4726
nv	-4727
pb	-4728
pi	-4729
pq	-4730
qf	-4731
qi	-4732
qj	-4733
qw	-4734
rv	-4735
sg	-4736
sl	-4737
tl	-4738
tu	-4739
ub	-4740
ug	-4741
uv	-4742
ux	-4743
vf	-4744
vh	-4745
vw	-4746
vz	-4747
wc	-4748
wf	-4749
wr	-4750
wv	-4751
xj	-4752
xx	-4753
yh	-4754
yl	-4755
yx	-4756
yz	-4757
zr	-4758
zu	-4759
zx	-4760
aan	-4761
aay	-4762
abd	-4763
adc	-4764
ads	-4765
ait	-4766
alo	-4767
ang	-4768
anh	-4769
anq	-4770
ara	-4771
arg	-4772
ars	-4773
atx	-4774
aua	-4775
axd	-4776
bar	-4777
bge	-4778
bon	-4779
ccc	-4780
ceb	-4781
cen	-4782
cep	-4783
cev	-4784
ckf	-4785
cmg	-4786
cod	-4787
col	-4788
cra	-4789
ctt	-4790
cur	-4791
cvc	-4792
cxy	-4793
dar	-4794
def	-4795
dfo	-4796
dsp	-4797
duc	-4798
eba	-4799
abo	-4800
amo	-4801
bed	-4802
cec	-4803
cei	-4804
ceo	-4805
eds	-4806
eee	-4807
eig	-4808
enm	-4809
era	-4810
ere	-4811
erf	-4812
fab	-4813
far	-4814
fen	-4815
few	-4816
ffd	-4817
gar	-4818
geg	-4819
gse	-4820
hal	-4821
hen	-4822
hhh	-4823
hie	-4824
hiv	-4825
hsr	-4826
idu	-4827
ier	-4828
igt	-4829
ilg	-4830
inf	-4831
inh	-4832
ini	-4833
ino	-4834
inv	-4835
ioj	-4836
iop	-4837
izr	-4838
jck	-4839
jdi	-4840
job	-4841
kad	-4842
key	-4843
lag	-4844
lar	-4845
lel	-4846
lew	-4847
ley	-4848
llo	-4849
lon	-4850
lvp	-4851
may	-4852
mes	-4853
mor	-4854
ncq	-4855
ndw	-4856
new	-4857
ngi	-4858
nor	-4859
nst	-4860
odl	-4861
oft	-4862
oiq	-4863
omc	-4864
omp	-4865
omu	-4866
onc	-4867
onk	-4868
onq	-4869
ony	-4870
onz	-4871
ora	-4872
oro	-4873
oud	-4874
pal	-4875
pas	-4876
pat	-4877
pon	-4878
ppo	-4879
ppq	-4880
prx	-4881
pub	-4882
pwj	-4883
rat	-4884
ray	-4885
reb	-4886
ref	-4887
rev	-4888
rix	-4889
rmk	-4890
rol	-4891
rom	-4892
rvn	-4893
son	-4894
sty	-4895
swy	-4896
tau	-4897
tcs	-4898
ths	-4899
atu	-4900
aty	-4901
beb	-4902
deg	-4903
lli	-4904
lll	-4905
lri	-4906
nke	-4907
ops	-4908
pss	-4909
rav	-4910
tie	-4911
tif	-4912
tod	-4913
txt	-4914
uep	-4915
ulp	-4916
uwb	-4917
vag	-4918
vas	-4919
vex	-4920
vey	-4921
vie	-4922
vot	-4923
vqs	-4924
vsf	-4925
wan	-4926
wen	-4927
wmw	-4928
wri	-4929
xct	-4930
xer	-4931
xon	-4932
xrh	-4933
xrr	-4934
yer	-4935
you	-4936
yzf	-4937
zgo	-4938
zhm	-4939
zzo	-4940
▁az	-4941
▁bg	-4942
▁bt	-4943
▁cb	-4944
▁cc	-4945
▁cd	-4946
▁dj	-4947
▁dl	-4948
▁dm	-4949
▁dn	-4950
▁dq	-4951
▁ec	-4952
▁fe	-4953
▁ff	-4954
▁fi	-4955
▁ft	-4956
▁gb	-4957
▁gy	-4958
▁hy	-4959
▁ip	-4960
▁lk	-4961
▁mf	-4962
▁mi	-4963
▁my	-4964
▁ni	-4965
▁om	-4966
▁pl	-4967
▁pm	-4968
▁rc	-4969
▁rh	-4970
▁sk	-4971
▁td	-4972
▁tf	-4973
▁tj	-4974
▁tm	-4975
▁uk	-4976
▁vw	-4977
▁wu	-4978
▁xt	-4979
▁ya	-4980
abca	-4981
ably	-4982
abzr	-4983
acat	-4984
acbd	-4985
acee	-4986
addc	-4987
aded	-4988
afea	-4989
aids	-4990
ajus	-4991
akam	-4992
akon	-4993
also	-4994
amer	-4995
ancy	-4996
anke	-4997
anto	-4998
anut	-4999
add	-5000
cla	-5001
eyq	-5002
fqu	-5003
gac	-5004
gic	-5005
ids	-5006
iig	-5007
isr	-5008
lad	-5009
laf	-5010
law	-5011
odu	-5012
sea	-5013
sey	-5014
▁et	-5015
addd	-5016
aper	-5017
aphh	-5018
aphy	-5019
arib	-5020
arly	-5021
aser	-5022
aspu	-5023
atre	-5024
auci	-5025
axku	-5026
aywe	-5027
bals	-5028
bass	-5029
bbed	-5030
bbwa	-5031
bcac	-5032
beaa	-5033
bfba	-5034
bing	-5035
bles	-5036
boug	-5037
bowl	-5038
bran	-5039
bsid	-5040
buck	-5041
buys	-5042
byin	-5043
caee	-5044
cbed	-5045
cbee	-5046
cbok	-5047
cbpf	-5048
ccen	-5049
cdbe	-5050
cdcb	-5051
cdce	-5052
cdfa	-5053
cdyn	-5054
cede	-5055
ceef	-5056
cell	-5057
ceqi	-5058
cgcp	-5059
cker	-5060
ckle	-5061
comu	-5062
cted	-5063
cter	-5064
daaa	-5065
dace	-5066
dbwy	-5067
dcbb	-5068
deal	-5069
dete	-5070
disb	-5071
dsop	-5072
dspr	-5073
ecfe	-5074
eear	-5075
eecd	-5076
eesh	-5077
elre	-5078
ench	-5079
enst	-5080
eper	-5081
erge	-5082
erik	-5083
erst	-5084
ersy	-5085
esis	-5086
even	-5087
ewie	-5088
facf	-5089
faec	-5090
fbab	-5091
fbdq	-5092
ffaf	-5093
ffbb	-5094
ffed	-5095
ffff	-5096
five	-5097
gacg	-5098
gage	-5099
aee	-5100
cae	-5101
cbd	-5102
ims	-5103
itp	-5104
kea	-5105
kev	-5106
lmg	-5107
lol	-5108
lyf	-5109
two	-5110
via	-5111
aire	-5112
apfs	-5113
dram	-5114
ecfb	-5115
edee	-5116
eeal	-5117
fort	-5118
gets	-5119
ggyy	-5120
ginc	-5121
goti	-5122
grew	-5123
guip	-5124
help	-5125
ided	-5126
ieve	-5127
igam	-5128
iger	-5129
ighb	-5130
igor	-5131
iled	-5132
illg	-5133
imal	-5134
inda	-5135
inen	-5136
iner	-5137
ines	-5138
inse	-5139
into	-5140
iocl	-5141
iott	-5142
isat	-5143
isks	-5144
ited	-5145
ites	-5146
itor	-5147
itsp	-5148
izzy	-5149
jpop	-5150
jqiq	-5151
kers	-5152
kill	-5153
lain	-5154
land	-5155
lest	-5156
life	-5157
liff	-5158
llus	-5159
luog	-5160
macd	-5161
mcdn	-5162
mcri	-5163
moho	-5164
mpre	-5165
nold	-5166
norm	-5167
nzpr	-5168
ocks	-5169
odst	-5170
odun	-5171
ofil	-5172
ofop	-5173
olen	-5174
onan	-5175
ongf	-5176
ongt	-5177
onny	-5178
ooon	-5179
ooth	-5180
opet	-5181
orad	-5182
oric	-5183
orun	-5184
otro	-5185
ouse	-5186
outh	-5187
owde	-5188
owth	-5189
pool	-5190
ppin	-5191
pple	-5192
psst	-5193
qery	-5194
rank	-5195
redt	-5196
reop	-5197
reso	-5198
rice	-5199
ado	-5200
aga	-5201
bas	-5202
bio	-5203
bul	-5204
fbe	-5205
fes	-5206
ges	-5207
hae	-5208
hem	-5209
rjo	-5210
sna	-5211
tbe	-5212
xod	-5213
zzz	-5214
▁ua	-5215
▁uw	-5216
afcd	-5217
afmg	-5218
char	-5219
chin	-5220
cnpt	-5221
dddd	-5222
ebcb	-5223
imik	-5224
iney	-5225
lief	-5226
ples	-5227
ques	-5228
rego	-5229
ried	-5230
roar	-5231
roid	-5232
rpnw	-5233
same	-5234
scur	-5235
sedi	-5236
sell	-5237
sive	-5238
slie	-5239
sqqq	-5240
srca	-5241
ssic	-5242
stan	-5243
stas	-5244
stow	-5245
sypl	-5246
tast	-5247
test	-5248
thed	-5249
thew	-5250
thod	-5251
thyj	-5252
till	-5253
tily	-5254
tips	-5255
tten	-5256
ttin	-5257
tton	-5258
tugt	-5259
ungs	-5260
uqrt	-5261
urch	-5262
user	-5263
uses	-5264
usic	-5265
uted	-5266
vamp	-5267
vels	-5268
vera	-5269
vslw	-5270
wage	-5271
wing	-5272
xcom	-5273
yfxx	-5274
ying	-5275
yson	-5276
yump	-5277
zzaj	-5278
▁afg	-5279
▁apr	-5280
▁ayx	-5281
▁bee	-5282
▁bru	-5283
▁bsf	-5284
▁bub	-5285
▁bul	-5286
▁cbd	-5287
▁ccp	-5288
▁cir	-5289
▁cle	-5290
▁cri	-5291
▁cvs	-5292
▁dim	-5293
▁dla	-5294
▁dot	-5295
▁ecl	-5296
▁ell	-5297
▁eom	-5298
▁fda	-5299
adi	-5300
aik	-5301
fcc	-5302
fec	-5303
gnl	-5304
uge	-5305
usd	-5306
vcy	-5307
beaf	-5308
becc	-5309
coct	-5310
deed	-5311
dmcd	-5312
doll	-5313
edda	-5314
erwi	-5315
ezju	-5316
heed	-5317
isst	-5318
mcdo	-5319
mmcd	-5320
quar	-5321
sent	-5322
vcyt	-5323
vent	-5324
▁bis	-5325
▁fir	-5326
▁fle	-5327
▁flu	-5328
▁fre	-5329
▁fro	-5330
▁fur	-5331
▁gak	-5332
▁gas	-5333
▁gna	-5334
▁gri	-5335
▁hir	-5336
▁hit	-5337
▁hom	-5338
▁hzo	-5339
▁ino	-5340
▁jfc	-5341
▁lar	-5342
▁lid	-5343
▁lil	-5344
▁lit	-5345
▁ltc	-5346
▁lul	-5347
▁mal	-5348
▁met	-5349
▁moo	-5350
▁mot	-5351
▁mva	-5352
▁nly	-5353
▁nnd	-5354
▁oft	-5355
▁ohh	-5356
▁ole	-5357
▁orb	-5358
▁pat	-5359
▁peb	-5360
▁pfd	-5361
▁pod	-5362
▁pol	-5363
▁pou	-5364
▁pun	-5365
▁reb	-5366
▁ree	-5367
▁rel	-5368
▁rot	-5369
▁scr	-5370
▁sep	-5371
▁sex	-5372
▁sig	-5373
▁sit	-5374
▁slv	-5375
▁sms	-5376
▁sow	-5377
▁spe	-5378
▁syy	-5379
▁tad	-5380
▁tai	-5381
▁thi	-5382
▁tqs	-5383
▁tre	-5384
▁tro	-5385
▁ual	-5386
▁una	-5387
▁uri	-5388
▁uti	-5389
▁vac	-5390
▁vff	-5391
▁wet	-5392
▁whi	-5393
▁wit	-5394
▁wmb	-5395
▁wme	-5396
▁zsf	-5397
abfec	-5398
acbdb	-5399
apt	-5400
ghe	-5401
ned	-5402
prt	-5403
sim	-5404
yyo	-5405
zil	-5406
aacc	-5407
andh	-5408
ando	-5409
assy	-5410
best	-5411
hase	-5412
icro	-5413
kesh	-5414
loaf	-5415
onth	-5416
otso	-5417
rish	-5418
smrn	-5419
syyo	-5420
thqu	-5421
▁gld	-5422
▁hfr	-5423
▁jay	-5424
▁sav	-5425
acfad	-5426
acket	-5427
acont	-5428
actly	-5429
afmga	-5430
aitxt	-5431
allel	-5432
ameli	-5433
ammay	-5434
ammer	-5435
ampid	-5436
ampnw	-5437
amznd	-5438
anews	-5439
apzhm	-5440
arios	-5441
artic	-5442
artmy	-5443
ascmg	-5444
astet	-5445
atans	-5446
axkuw	-5447
baeff	-5448
becbf	-5449
bedue	-5450
board	-5451
busbd	-5452
caeaf	-5453
capet	-5454
cdddc	-5455
cddfd	-5456
cdfab	-5457
cdfdd	-5458
ceacf	-5459
ceoon	-5460
charl	-5461
comus	-5462
ctive	-5463
daaeb	-5464
dddbb	-5465
divid	-5466
drink	-5467
dscom	-5468
earan	-5469
edged	-5470
eding	-5471
eeeze	-5472
ehist	-5473
elist	-5474
endor	-5475
enert	-5476
enmin	-5477
entle	-5478
estom	-5479
etsgt	-5480
eyqra	-5481
fcfaa	-5482
fefca	-5483
ffada	-5484
fizer	-5485
forap	-5486
gains	-5487
gesta	-5488
ggggg	-5489
ggies	-5490
gmecl	-5491
hands	-5492
hpone	-5493
ickel	-5494
idity	-5495
ielcc	-5496
iling	-5497
ingch	-5498
ingop	-5499
eak	-5500
hqq	-5501
nty	-5502
sde	-5503
vbt	-5504
▁jn	-5505
affe	-5506
dcsl	-5507
ebed	-5508
erss	-5509
next	-5510
orry	-5511
soar	-5512
soon	-5513
tend	-5514
▁ali	-5515
▁bdn	-5516
▁jun	-5517
▁lic	-5518
▁sho	-5519
▁sob	-5520
▁tho	-5521
▁tif	-5522
▁til	-5523
▁tim	-5524
▁tld	-5525
ampab	-5526
artin	-5527
ayers	-5528
buoiq	-5529
chain	-5530
ckers	-5531
degir	-5532
erson	-5533
ersss	-5534
fdbaf	-5535
icals	-5536
inese	-5537
ingup	-5538
ingus	-5539
initi	-5540
insnz	-5541
insur	-5542
intcb	-5543
inues	-5544
iones	-5545
ipage	-5546
iting	-5547
itive	-5548
ittek	-5549
izing	-5550
jects	-5551
judge	-5552
kkkkk	-5553
kvvbt	-5554
lbhqq	-5555
liest	-5556
llers	-5557
llfit	-5558
lmgsm	-5559
lowme	-5560
marks	-5561
mcdda	-5562
mcdyv	-5563
merqo	-5564
mping	-5565
odern	-5566
offic	-5567
olaus	-5568
omers	-5569
omura	-5570
ontal	-5571
ories	-5572
oring	-5573
ormer	-5574
ortun	-5575
otech	-5576
outlo	-5577
peter	-5578
plain	-5579
plits	-5580
print	-5581
qqqqq	-5582
quick	-5583
reboo	-5584
reend	-5585
rjoee	-5586
rolls	-5587
ronwe	-5588
ruptc	-5589
scoop	-5590
sease	-5591
shitt	-5592
sluog	-5593
smcdp	-5594
snext	-5595
start	-5596
sters	-5597
stest	-5598
stree	-5599
but	-5600
dag	-5601
fel	-5602
hic	-5603
htg	-5604
ikf	-5605
ldo	-5606
lov	-5607
ndi	-5608
pev	-5609
pex	-5610
pot	-5611
utd	-5612
zos	-5613
abuy	-5614
acaa	-5615
amid	-5616
ctth	-5617
dips	-5618
dles	-5619
enam	-5620
iaey	-5621
jikf	-5622
liqu	-5623
pper	-5624
witt	-5625
▁bam	-5626
▁dem	-5627
▁det	-5628
▁gut	-5629
▁hea	-5630
▁nic	-5631
▁utz	-5632
▁vym	-5633
arant	-5634
auslo	-5635
cbeeb	-5636
ceaca	-5637
champ	-5638
dagww	-5639
ensur	-5640
fcamo	-5641
ffett	-5642
hicor	-5643
ibits	-5644
losed	-5645
ordlb	-5646
otent	-5647
owndi	-5648
raday	-5649
stant	-5650
stein	-5651
story	-5652
tbeyg	-5653
terra	-5654
thedi	-5655
tions	-5656
tites	-5657
title	-5658
tradr	-5659
ttack	-5660
ttter	-5661
ulled	-5662
ultin	-5663
umper	-5664
uponq	-5665
urder	-5666
uture	-5667
vagxz	-5668
viron	-5669
water	-5670
windw	-5671
xydeb	-5672
zgohh	-5673
▁actc	-5674
▁acts	-5675
▁adjd	-5676
▁aere	-5677
▁arkk	-5678
▁arms	-5679
▁atcs	-5680
▁bamb	-5681
▁bant	-5682
▁bare	-5683
▁bart	-5684
▁bast	-5685
▁beau	-5686
▁bhtg	-5687
▁bigb	-5688
▁bigc	-5689
▁bind	-5690
▁bleh	-5691
▁btbt	-5692
▁bumb	-5693
▁bush	-5694
▁butt	-5695
▁buys	-5696
▁cand	-5697
▁cast	-5698
▁cbdd	-5699
cum	-5700
gio	-5701
loo	-5702
lum	-5703
qoj	-5704
ums	-5705
abab	-5706
afes	-5707
arau	-5708
astw	-5709
aust	-5710
aysf	-5711
ctsf	-5712
gnhu	-5713
loor	-5714
majo	-5715
malt	-5716
must	-5717
orlx	-5718
rims	-5719
tedc	-5720
▁exc	-5721
▁exh	-5722
▁exs	-5723
▁fox	-5724
▁rcl	-5725
▁slb	-5726
▁try	-5727
beamb	-5728
beers	-5729
gnhux	-5730
lover	-5731
nncom	-5732
oramp	-5733
qojhd	-5734
radio	-5735
ulent	-5736
wjmed	-5737
▁amat	-5738
▁aver	-5739
▁ball	-5740
▁beak	-5741
▁chic	-5742
▁chkn	-5743
▁chub	-5744
▁clim	-5745
▁clny	-5746
▁cool	-5747
▁cord	-5748
▁cour	-5749
▁dang	-5750
▁dark	-5751
▁dees	-5752
▁deez	-5753
▁dens	-5754
▁devi	-5755
▁dfen	-5756
▁dime	-5757
▁dist	-5758
▁doji	-5759
▁drip	-5760
▁epic	-5761
▁ever	-5762
▁evil	-5763
▁exon	-5764
▁famp	-5765
▁fart	-5766
▁fend	-5767
▁fest	-5768
▁fist	-5769
▁gcac	-5770
▁germ	-5771
▁ghiv	-5772
▁glad	-5773
▁gods	-5774
▁goin	-5775
▁grad	-5776
▁gtch	-5777
▁gump	-5778
▁hand	-5779
▁henn	-5780
▁hexo	-5781
▁holo	-5782
▁hous	-5783
▁indo	-5784
▁inex	-5785
▁inse	-5786
▁intl	-5787
▁itim	-5788
▁kiss	-5789
▁laco	-5790
▁lava	-5791
▁lezz	-5792
▁ling	-5793
▁loll	-5794
▁magn	-5795
▁mcev	-5796
▁mcfl	-5797
▁mcfu	-5798
▁mcra	-5799
ams	-5800
cif	-5801
ham	-5802
hpy	-5803
ilb	-5804
ssu	-5805
acor	-5806
acre	-5807
afaf	-5808
amic	-5809
bbff	-5810
bein	-5811
cice	-5812
coke	-5813
conn	-5814
gain	-5815
iams	-5816
inci	-5817
lids	-5818
rael	-5819
rall	-5820
ssol	-5821
year	-5822
▁abt	-5823
▁arb	-5824
▁cci	-5825
▁coo	-5826
▁cus	-5827
▁dss	-5828
▁oil	-5829
▁oke	-5830
▁smh	-5831
afafd	-5832
afhpy	-5833
chilb	-5834
ighin	-5835
outap	-5836
parts	-5837
raeli	-5838
stake	-5839
thoug	-5840
youtu	-5841
▁alci	-5842
▁call	-5843
▁days	-5844
▁furi	-5845
▁gnar	-5846
▁hide	-5847
▁jnpr	-5848
▁mcse	-5849
▁meas	-5850
▁meme	-5851
▁mfer	-5852
▁mike	-5853
▁moar	-5854
▁mtch	-5855
▁nate	-5856
▁newp	-5857
▁nndm	-5858
▁none	-5859
▁nugt	-5860
▁obes	-5861
▁ongo	-5862
▁page	-5863
▁path	-5864
▁payc	-5865
▁penn	-5866
▁petm	-5867
▁phio	-5868
▁pilg	-5869
▁plag	-5870
▁pola	-5871
▁pony	-5872
▁prim	-5873
▁pros	-5874
▁puts	-5875
▁qcom	-5876
▁raid	-5877
▁rare	-5878
▁rear	-5879
▁reve	-5880
▁rigo	-5881
▁roce	-5882
▁roic	-5883
▁roth	-5884
▁sams	-5885
▁seas	-5886
▁sett	-5887
▁shes	-5888
▁sino	-5889
▁skin	-5890
▁smci	-5891
▁solo	-5892
▁sonc	-5893
▁spam	-5894
▁srne	-5895
▁stan	-5896
▁stwd	-5897
▁suck	-5898
▁sunn	-5899
eab	-5900
elh	-5901
elt	-5902
emo	-5903
ggy	-5904
nem	-5905
ooz	-5906
vir	-5907
xxt	-5908
beab	-5909
chem	-5910
decd	-5911
ffer	-5912
ickp	-5913
itab	-5914
kont	-5915
reco	-5916
rule	-5917
tera	-5918
vily	-5919
will	-5920
▁mdt	-5921
▁unp	-5922
abase	-5923
anity	-5924
emblo	-5925
gonzo	-5926
omped	-5927
ooped	-5928
oozfz	-5929
orunc	-5930
ouldk	-5931
ratio	-5932
snake	-5933
statt	-5934
themo	-5935
would	-5936
▁acti	-5937
▁acum	-5938
▁bugs	-5939
▁celh	-5940
▁defo	-5941
▁felt	-5942
▁fibs	-5943
▁migh	-5944
▁momo	-5945
▁mrna	-5946
▁slap	-5947
▁suvr	-5948
▁talk	-5949
▁thed	-5950
▁thks	-5951
▁ties	-5952
▁tiss	-5953
▁tlsa	-5954
▁toro	-5955
▁tree	-5956
▁tren	-5957
▁trop	-5958
▁uavs	-5959
▁upst	-5960
▁used	-5961
▁vegg	-5962
▁vill	-5963
▁waff	-5964
▁waik	-5965
▁wary	-5966
▁wcvc	-5967
▁wenj	-5968
▁wick	-5969
▁xmas	-5970
▁yike	-5971
▁york	-5972
▁youd	-5973
▁zero	-5974
▁zzzz	-5975
abbeee	-5976
abbvie	-5977
abccdd	-5978
abzrbn	-5979
acfade	-5980
acfcbf	-5981
advice	-5982
ampthe	-5983
anders	-5984
andome	-5985
apanch	-5986
arming	-5987
asreop	-5988
atform	-5989
atness	-5990
axdwmw	-5991
aysitp	-5992
bababa	-5993
bafaff	-5994
bbcaef	-5995
bcacbc	-5996
bccdbe	-5997
bddabb	-5998
before	-5999
asp	-6000
cva	-6001
due	-6002
ias	-6003
nma	-6004
▁kc	-6005
▁qr	-6006
cawe	-6007
days	-6008
gram	-6009
ours	-6010
reli	-6011
roso	-6012
seas	-6013
ulin	-6014
▁adm	-6015
▁ira	-6016
▁ish	-6017
▁klo	-6018
▁lue	-6019
▁meh	-6020
▁rid	-6021
▁suk	-6022
▁twe	-6023
aaaec	-6024
acity	-6025
andco	-6026
chidd	-6027
coins	-6028
damps	-6029
idday	-6030
ignal	-6031
intom	-6032
itfor	-6033
mrghe	-6034
rcxai	-6035
sfour	-6036
ssian	-6037
ycorp	-6038
zevqs	-6039
▁cage	-6040
▁crsr	-6041
▁dete	-6042
▁jets	-6043
▁kcup	-6044
▁leco	-6045
▁qrvo	-6046
▁sine	-6047
▁smas	-6048
▁spur	-6049
▁sund	-6050
adfbab	-6051
begine	-6052
berger	-6053
bought	-6054
bucket	-6055
buoiqp	-6056
buynow	-6057
bytheb	-6058
cbddaa	-6059
cdbfbd	-6060
cently	-6061
coffee	-6062
commcd	-6063
common	-6064
comple	-6065
comppo	-6066
compre	-6067
comtop	-6068
comwol	-6069
dagwwc	-6070
dddigt	-6071
dience	-6072
disbmy	-6073
earned	-6074
earxod	-6075
ebbeab	-6076
edebaf	-6077
eeddeb	-6078
eeking	-6079
endars	-6080
endsap	-6081
enefit	-6082
enmark	-6083
enquot	-6084
enters	-6085
enuity	-6086
erials	-6087
ersfor	-6088
eslabo	-6089
estron	-6090
fbfaff	-6091
febada	-6092
ffbbbe	-6093
ffdaca	-6094
flated	-6095
fvaphh	-6096
gacglb	-6097
ginclu	-6098
handsk	-6099
afc	-6100
dog	-6101
mbl	-6102
suf	-6103
afbe	-6104
afte	-6105
dict	-6106
enet	-6107
erby	-6108
fddd	-6109
haas	-6110
orbs	-6111
prgo	-6112
qwgw	-6113
redi	-6114
sper	-6115
wyuq	-6116
xolu	-6117
▁naj	-6118
after	-6119
amanf	-6120
azons	-6121
ceive	-6122
ciary	-6123
every	-6124
forab	-6125
gleef	-6126
insic	-6127
ipsaw	-6128
lamar	-6129
olcec	-6130
power	-6131
sufhl	-6132
▁apxt	-6133
▁care	-6134
▁cost	-6135
▁diet	-6136
▁gmbl	-6137
▁gogo	-6138
▁lose	-6139
▁male	-6140
▁pool	-6141
▁prop	-6142
▁resu	-6143
▁tomo	-6144
▁unex	-6145
▁vacc	-6146
dition	-6147
eatbig	-6148
eeadcb	-6149
erwise	-6150
fbafbe	-6151
goodst	-6152
hemeat	-6153
hereas	-6154
htmlaf	-6155
icated	-6156
iction	-6157
igaman	-6158
ignsde	-6159
incach	-6160
income	-6161
ingful	-6162
inspec	-6163
ionsin	-6164
iopros	-6165
ipment	-6166
ission	-6167
jarian	-6168
keandh	-6169
kmarks	-6170
lbiocl	-6171
lement	-6172
liance	-6173
listrd	-6174
longed	-6175
minter	-6176
moving	-6177
nearan	-6178
ningst	-6179
ongand	-6180
online	-6181
opetvm	-6182
orious	-6183
orstop	-6184
orting	-6185
otcdyn	-6186
ougles	-6187
parton	-6188
pooped	-6189
posted	-6190
ppedto	-6191
prgoex	-6192
prison	-6193
proval	-6194
pshort	-6195
quarie	-6196
ranger	-6197
ratosp	-6198
raviss	-6199
ags	-6200
frh	-6201
▁rd	-6202
altr	-6203
like	-6204
mood	-6205
moon	-6206
owns	-6207
▁dun	-6208
▁pbw	-6209
▁pts	-6210
▁rmo	-6211
▁ron	-6212
▁rss	-6213
▁rtd	-6214
▁rum	-6215
▁sli	-6216
▁spi	-6217
front	-6218
ideas	-6219
juvex	-6220
meats	-6221
morey	-6222
njmcd	-6223
owner	-6224
swith	-6225
ttery	-6226
vered	-6227
ysmal	-6228
▁ammo	-6229
▁boot	-6230
▁crbp	-6231
▁doin	-6232
▁heel	-6233
▁incl	-6234
▁nope	-6235
▁spac	-6236
▁spwr	-6237
▁thmo	-6238
▁turn	-6239
altrwy	-6240
atcher	-6241
atered	-6242
atives	-6243
busbdh	-6244
cbfced	-6245
cnncom	-6246
facing	-6247
ohedge	-6248
redtog	-6249
regist	-6250
relief	-6251
rently	-6252
rested	-6253
ribute	-6254
rilled	-6255
rosoft	-6256
rossly	-6257
rxdcsl	-6258
scomre	-6259
shitts	-6260
sqqqmt	-6261
ssacre	-6262
stesla	-6263
sthing	-6264
sthisw	-6265
sufhlt	-6266
trader	-6267
ttoval	-6268
ultane	-6269
ummary	-6270
update	-6271
ureman	-6272
vering	-6273
vested	-6274
vidste	-6275
vingsk	-6276
voxcom	-6277
vwqwgw	-6278
yerhae	-6279
ymhtml	-6280
▁adspr	-6281
▁again	-6282
▁airpl	-6283
▁aquaf	-6284
▁arcos	-6285
▁atari	-6286
▁beast	-6287
▁beefy	-6288
▁bever	-6289
▁block	-6290
▁boxes	-6291
▁brake	-6292
▁cafes	-6293
▁camer	-6294
▁carib	-6295
▁champ	-6296
▁charl	-6297
▁cheee	-6298
▁clave	-6299
fef	-6300
guy	-6301
iki	-6302
nkn	-6303
trh	-6304
trn	-6305
care	-6306
dekg	-6307
dude	-6308
pwww	-6309
rupt	-6310
tard	-6311
uyin	-6312
vard	-6313
▁era	-6314
▁phm	-6315
▁qtr	-6316
baaed	-6317
ebabe	-6318
ensar	-6319
equot	-6320
fused	-6321
racer	-6322
rting	-6323
squot	-6324
ubson	-6325
▁alll	-6326
▁card	-6327
▁dnkn	-6328
▁etrn	-6329
▁frac	-6330
▁intc	-6331
▁intr	-6332
▁maps	-6333
▁pice	-6334
▁tact	-6335
▁wack	-6336
▁wtrh	-6337
araunt	-6338
arterm	-6339
chains	-6340
dekgdl	-6341
kadguy	-6342
merlin	-6343
pafmga	-6344
ractal	-6345
ruptor	-6346
tistic	-6347
▁brick	-6348
▁cliff	-6349
▁davis	-6350
▁depot	-6351
▁dildo	-6352
▁divvy	-6353
▁divys	-6354
▁drdel	-6355
▁dudei	-6356
▁ecoli	-6357
▁endup	-6358
▁enrol	-6359
▁ensur	-6360
▁expos	-6361
▁fatbp	-6362
▁fever	-6363
▁fquot	-6364
▁freak	-6365
▁fried	-6366
▁fungi	-6367
▁goals	-6368
▁googl	-6369
▁grows	-6370
▁gyros	-6371
▁hampt	-6372
▁hates	-6373
▁heard	-6374
▁henne	-6375
▁herey	-6376
▁homie	-6377
▁house	-6378
▁humor	-6379
▁hyper	-6380
▁idont	-6381
▁infin	-6382
▁inver	-6383
▁irish	-6384
▁jimmy	-6385
▁jonny	-6386
▁juice	-6387
▁ketch	-6388
▁leaps	-6389
▁lemon	-6390
▁longs	-6391
▁lucra	-6392
▁lungs	-6393
▁mccod	-6394
▁mcdou	-6395
▁micro	-6396
▁mquot	-6397
▁noone	-6398
▁notso	-6399
bcs	-6400
foa	-6401
irt	-6402
eebd	-6403
fare	-6404
ogra	-6405
pail	-6406
ptem	-6407
sets	-6408
acean	-6409
irtle	-6410
isrgt	-6411
lllly	-6412
minds	-6413
rules	-6414
yoush	-6415
▁appl	-6416
▁gave	-6417
▁ipay	-6418
▁july	-6419
▁junk	-6420
▁osis	-6421
▁phds	-6422
▁rbcs	-6423
▁rekt	-6424
▁scam	-6425
▁sevs	-6426
▁soft	-6427
cedefd	-6428
ciated	-6429
ctions	-6430
cussed	-6431
eraven	-6432
imated	-6433
lashed	-6434
llllyy	-6435
lowtxt	-6436
mediab	-6437
ograph	-6438
oplets	-6439
simceb	-6440
suming	-6441
▁futes	-6442
▁horiz	-6443
▁italy	-6444
▁liber	-6445
▁onion	-6446
▁outta	-6447
▁payti	-6448
▁peter	-6449
▁phill	-6450
▁piled	-6451
▁pivot	-6452
▁pleth	-6453
▁pollo	-6454
▁pover	-6455
▁pride	-6456
▁proof	-6457
▁proxy	-6458
▁quoti	-6459
▁quots	-6460
▁recre	-6461
▁reist	-6462
▁resis	-6463
▁revis	-6464
▁ricks	-6465
▁saleh	-6466
▁sando	-6467
▁scand	-6468
▁scary	-6469
▁scram	-6470
▁solic	-6471
▁songo	-6472
▁sonic	-6473
▁sooon	-6474
▁soooo	-6475
▁spain	-6476
▁speak	-6477
▁squee	-6478
▁stanf	-6479
▁stats	-6480
▁strad	-6481
▁sucks	-6482
▁swine	-6483
▁sykes	-6484
▁teach	-6485
▁techs	-6486
▁teens	-6487
▁thpar	-6488
▁titty	-6489
▁tomrw	-6490
▁trade	-6491
▁trays	-6492
▁trove	-6493
▁twats	-6494
▁ultim	-6495
▁vegas	-6496
▁vital	-6497
▁xrpar	-6498
▁youtu	-6499
cud	-6500
fba	-6501
jcb	-6502
nga	-6503
tcg	-6504
fbee	-6505
fefb	-6506
uaxy	-6507
▁agg	-6508
▁fng	-6509
▁pgr	-6510
▁rng	-6511
▁utc	-6512
▁zom	-6513
baaaa	-6514
befba	-6515
cudos	-6516
erman	-6517
gganh	-6518
jcbli	-6519
ogram	-6520
tterm	-6521
ttner	-6522
vable	-6523
▁logr	-6524
▁nons	-6525
▁sugg	-6526
▁tigr	-6527
▁waay	-6528
▁znga	-6529
ewable	-6530
faeecd	-6531
fbeeef	-6532
jcktcg	-6533
sinthe	-6534
stable	-6535
versqu	-6536
verywe	-6537
▁eying	-6538
▁music	-6539
▁ultra	-6540
▁youve	-6541
abbeefb	-6542
acaaaff	-6543
acbdbdc	-6544
aceebef	-6545
aecbeaf	-6546
airline	-6547
alltime	-6548
alphase	-6549
amidris	-6550
ampidcp	-6551
ampvamp	-6552
atedist	-6553
backsea	-6554
beaaaee	-6555
beambft	-6556
beeeaec	-6557
berance	-6558
binance	-6559
bonacci	-6560
brating	-6561
bulence	-6562
bullish	-6563
burgers	-6564
cafdaaa	-6565
callson	-6566
cddfdfe	-6567
cending	-6568
classic	-6569
cohenst	-6570
contact	-6571
dcbaaed	-6572
dcfcfaa	-6573
decdced	-6574
dollart	-6575
eakness	-6576
eatures	-6577
ebahtml	-6578
edcbeeb	-6579
eebdfee	-6580
eekonth	-6581
eration	-6582
fbebbca	-6583
ffadaeb	-6584
ffeenet	-6585
forapot	-6586
gainers	-6587
gainsas	-6588
gations	-6589
gestfar	-6590
gmeclxj	-6591
gradeam	-6592
gradeco	-6593
greatre	-6594
groupis	-6595
htarded	-6596
idameli	-6597
idation	-6598
ination	-6599
fdc	-6600
adbb	-6601
code	-6602
conc	-6603
efca	-6604
leep	-6605
thef	-6606
ught	-6607
wlee	-6608
word	-6609
▁cya	-6610
▁edc	-6611
▁wdc	-6612
ampsp	-6613
bless	-6614
cecff	-6615
efart	-6616
izrvy	-6617
leeds	-6618
plgon	-6619
thana	-6620
write	-6621
xrrkx	-6622
▁clov	-6623
▁cohu	-6624
▁incs	-6625
▁nays	-6626
▁pacb	-6627
▁pero	-6628
▁semi	-6629
▁tiny	-6630
▁woww	-6631
annual	-6632
bidtod	-6633
efcdfa	-6634
induce	-6635
izrvyz	-6636
ofglob	-6637
porate	-6638
reemen	-6639
zatime	-6640
▁bacon	-6641
▁coord	-6642
▁feels	-6643
▁fhead	-6644
▁hamps	-6645
▁parks	-6646
▁puckf	-6647
▁shirt	-6648
▁vegis	-6649
▁yummy	-6650
complex	-6651
concern	-6652
discuss	-6653
enampsp	-6654
gamesto	-6655
iaampts	-6656
individ	-6657
induced	-6658
inenews	-6659
ingreal	-6660
inuesso	-6661
issions	-6662
itiveag	-6663
laining	-6664
lantode	-6665
lection	-6666
licated	-6667
lobster	-6668
looking	-6669
lowmeyg	-6670
manning	-6671
markets	-6672
mcdnike	-6673
mcdynma	-6674
menddlv	-6675
million	-6676
misslaw	-6677
mmmwall	-6678
morning	-6679
mployee	-6680
onaldli	-6681
onanlds	-6682
ondegir	-6683
ontrump	-6684
oothats	-6685
orrible	-6686
ounding	-6687
ousalso	-6688
ousness	-6689
plgonna	-6690
prising	-6691
quietly	-6692
quities	-6693
regoing	-6694
rgampts	-6695
sinnews	-6696
smidday	-6697
ssolini	-6698
stalgic	-6699
msm	-6700
ski	-6701
zah	-6702
accb	-6703
cbbe	-6704
ceos	-6705
ival	-6706
msmf	-6707
osal	-6708
tesy	-6709
▁aby	-6710
▁aos	-6711
▁huh	-6712
▁tos	-6713
abbcc	-6714
babas	-6715
ceddd	-6716
ewith	-6717
orgma	-6718
orgth	-6719
xzion	-6720
▁bird	-6721
▁catv	-6722
▁fees	-6723
▁gonz	-6724
▁gtim	-6725
▁moms	-6726
▁whos	-6727
fecbbe	-6728
ichart	-6729
ighfor	-6730
msmfmr	-6731
perfor	-6732
zahyzf	-6733
▁dirty	-6734
▁grins	-6735
▁loadi	-6736
▁midaf	-6737
▁toxic	-6738
arkerst	-6739
cedddde	-6740
dedaccb	-6741
edebfac	-6742
ennight	-6743
fbacfad	-6744
ivalent	-6745
otroski	-6746
ptember	-6747
rallies	-6748
sthanks	-6749
stoaust	-6750
stockis	-6751
stocksf	-6752
storyta	-6753
testers	-6754
titleth	-6755
tjxzion	-6756
ttackon	-6757
uations	-6758
ultists	-6759
unities	-6760
urchase	-6761
uxequot	-6762
vampfin	-6763
vicecom	-6764
visions	-6765
xoluuep	-6766
yumbran	-6767
zgohhhh	-6768
zzajack	-6769
▁active	-6770
▁agothe	-6771
▁alpine	-6772
▁arnold	-6773
▁behold	-6774
▁better	-6775
▁birdie	-6776
▁brazil	-6777
▁buffer	-6778
▁bulish	-6779
▁calvas	-6780
▁canadi	-6781
▁cancer	-6782
▁cathie	-6783
▁charmx	-6784
▁chicky	-6785
▁choppy	-6786
▁chuyin	-6787
▁clowns	-6788
▁conjun	-6789
▁conser	-6790
▁contra	-6791
▁convol	-6792
▁costly	-6793
▁craves	-6794
▁cringe	-6795
▁cruise	-6796
▁cupamp	-6797
▁custom	-6798
▁desper	-6799
nkx	-6800
why	-6801
ahoo	-6802
cuit	-6803
emir	-6804
fdee	-6805
hism	-6806
livz	-6807
tyan	-6808
▁bii	-6809
▁isi	-6810
▁nov	-6811
▁sym	-6812
appre	-6813
rxnkx	-6814
spost	-6815
sweek	-6816
tiful	-6817
▁arkq	-6818
▁asap	-6819
▁asti	-6820
▁bids	-6821
▁bien	-6822
▁hilo	-6823
▁uses	-6824
▁woof	-6825
ausing	-6826
beyond	-6827
canews	-6828
imbson	-6829
livzur	-6830
mendes	-6831
picomb	-6832
postma	-6833
smcrib	-6834
▁danks	-6835
▁dorad	-6836
▁firms	-6837
▁tanks	-6838
▁theyd	-6839
▁yahoo	-6840
adbfdee	-6841
becbfcd	-6842
dexhtml	-6843
ensions	-6844
hismust	-6845
jpopamz	-6846
nowpost	-6847
olcecse	-6848
ombergs	-6849
oozfzmn	-6850
program	-6851
veraged	-6852
▁biiiig	-6853
▁cdemir	-6854
▁disney	-6855
▁except	-6856
▁exspen	-6857
▁fakkkk	-6858
▁famous	-6859
▁fastge	-6860
▁fatten	-6861
▁filled	-6862
▁fillet	-6863
▁florid	-6864
▁france	-6865
▁fuqery	-6866
▁gettin	-6867
▁godsma	-6868
▁goggle	-6869
▁gutter	-6870
▁heysho	-6871
▁highqu	-6872
▁hikers	-6873
▁hiring	-6874
▁hotdog	-6875
▁impris	-6876
▁inched	-6877
▁indeed	-6878
▁intime	-6879
▁itquot	-6880
▁janfeb	-6881
▁jingle	-6882
▁kloeig	-6883
▁ladies	-6884
▁latter	-6885
▁leslie	-6886
▁levels	-6887
▁lining	-6888
▁liquor	-6889
▁losing	-6890
▁lovers	-6891
▁manual	-6892
▁martin	-6893
▁matrix	-6894
▁mayhem	-6895
▁mcdump	-6896
▁mcload	-6897
▁models	-6898
▁monies	-6899
lbj	-6900
szy	-6901
▁xd	-6902
elxy	-6903
suit	-6904
sund	-6905
▁bmy	-6906
▁clx	-6907
▁lmk	-6908
▁occ	-6909
▁ori	-6910
▁yoy	-6911
backs	-6912
eebee	-6913
effee	-6914
incap	-6915
reely	-6916
▁cron	-6917
▁djia	-6918
▁nike	-6919
▁obee	-6920
▁pork	-6921
atesbe	-6922
eeadfa	-6923
estern	-6924
ffceac	-6925
kontro	-6926
▁belly	-6927
▁defaa	-6928
▁dolly	-6929
▁faded	-6930
▁occup	-6931
▁prosu	-6932
caffafc	-6933
chatter	-6934
gotiate	-6935
ingfrom	-6936
timulus	-6937
vylmgsm	-6938
▁access	-6939
▁buckle	-6940
▁freely	-6941
▁minium	-6942
▁months	-6943
▁moreso	-6944
▁morter	-6945
▁motors	-6946
▁multin	-6947
▁murder	-6948
▁neighb	-6949
▁nexeca	-6950
▁nickel	-6951
▁nonren	-6952
▁nordlb	-6953
▁numers	-6954
▁obeezy	-6955
▁offici	-6956
▁oracle	-6957
▁overin	-6958
▁patton	-6959
▁payout	-6960
▁perman	-6961
▁pulled	-6962
▁purple	-6963
▁quants	-6964
▁quotpo	-6965
▁raking	-6966
▁reiter	-6967
▁scalpm	-6968
▁sesame	-6969
▁setups	-6970
▁setyan	-6971
▁severs	-6972
▁shareh	-6973
▁sheesh	-6974
▁sidoti	-6975
▁silver	-6976
▁situac	-6977
▁slated	-6978
▁specif	-6979
▁stench	-6980
▁stifel	-6981
▁stolen	-6982
▁subpar	-6983
▁suffic	-6984
▁sweden	-6985
▁symbol	-6986
▁talked	-6987
▁tested	-6988
▁ticket	-6989
▁tissue	-6990
▁trapss	-6991
▁united	-6992
▁unprof	-6993
▁upjust	-6994
▁uplist	-6995
▁valent	-6996
▁videos	-6997
▁volver	-6998
▁vowbig	-6999
cxj	-7000
hik	-7001
lbq	-7002
mcn	-7003
bfeb	-7004
fcff	-7005
iano	-7006
inny	-7007
macs	-7008
ogfc	-7009
▁aka	-7010
adace	-7011
aphyr	-7012
ceaff	-7013
cxjfn	-7014
focus	-7015
foodw	-7016
isifu	-7017
oonly	-7018
zeand	-7019
▁adno	-7020
▁blue	-7021
▁boxl	-7022
▁gbtc	-7023
▁glbs	-7024
▁rofl	-7025
▁visi	-7026
dcbbbf	-7027
doesnt	-7028
eslaup	-7029
europe	-7030
ffaacc	-7031
jectsf	-7032
mcnlvp	-7033
vhinny	-7034
zzling	-7035
▁brian	-7036
▁curlf	-7037
▁suvrf	-7038
actless	-7039
aiampts	-7040
cussion	-7041
fcffabd	-7042
febpost	-7043
llllyyy	-7044
losefeb	-7045
▁artist	-7046
▁crying	-7047
▁dennis	-7048
▁havent	-7049
▁income	-7050
▁jisifu	-7051
▁kicker	-7052
▁metric	-7053
▁saphyr	-7054
▁subway	-7055
▁wallet	-7056
▁wallst	-7057
▁whiney	-7058
▁wildly	-7059
▁wmeade	-7060
▁worlds	-7061
▁woulda	-7062
acaefffb	-7063
adaceacd	-7064
adfbabcc	-7065
afterear	-7066
aincomiv	-7067
ajustice	-7068
aleconom	-7069
allenges	-7070
amicscom	-7071
amptwitt	-7072
ampvjikf	-7073
andcheap	-7074
andfully	-7075
andvalue	-7076
aperwork	-7077
beatpost	-7078
bidenmin	-7079
bidtodis	-7080
btjcktcg	-7081
bulldude	-7082
buoiqpjx	-7083
callfrom	-7084
cbfcedfa	-7085
cdfbafbe	-7086
ceacfdef	-7087
ceoinsur	-7088
chartmcd	-7089
chipotle	-7090
climbson	-7091
comtitle	-7092
comtrade	-7093
comuaspu	-7094
creenert	-7095
dacecbed	-7096
dbffbbbe	-7097
dddbbfca	-7098
ditionon	-7099
aws	-7100
abae	-7101
azis	-7102
bbfd	-7103
corn	-7104
fdbc	-7105
uywv	-7106
vikw	-7107
▁bdx	-7108
▁bgs	-7109
▁dav	-7110
▁fkn	-7111
▁nvm	-7112
▁tje	-7113
awsze	-7114
distr	-7115
ouced	-7116
queaf	-7117
vikwx	-7118
▁ddog	-7119
▁mcoa	-7120
▁mvis	-7121
▁rprx	-7122
▁shix	-7123
buying	-7124
cdcbfa	-7125
idthet	-7126
nasdaq	-7127
ricult	-7128
stoget	-7129
▁arbys	-7130
▁byron	-7131
▁drsto	-7132
▁folio	-7133
▁hnzpr	-7134
▁inbox	-7135
▁nazis	-7136
▁nuked	-7137
▁poked	-7138
abaecdd	-7139
buypost	-7140
popeyes	-7141
▁banana	-7142
▁chaser	-7143
▁decide	-7144
▁fryers	-7145
▁leader	-7146
▁memory	-7147
▁packet	-7148
▁shitty	-7149
▁spikes	-7150
▁symmet	-7151
atically	-7152
bbfdfacf	-7153
cdcbfaea	-7154
cription	-7155
ecfefefb	-7156
edebafed	-7157
edsplits	-7158
elrecomm	-7159
endorsed	-7160
entsquot	-7161
etrading	-7162
fivemajo	-7163
fromthef	-7164
gegchart	-7165
gencyuse	-7166
ginclude	-7167
gnlrcxai	-7168
ications	-7169
iduciary	-7170
iescomes	-7171
imumwage	-7172
inciples	-7173
inselect	-7174
isclosed	-7175
leration	-7176
livzurbn	-7177
llusbbwa	-7178
loselose	-7179
mcdaitxt	-7180
merqofoa	-7181
mmcdlong	-7182
morehtml	-7183
najarian	-7184
nyymhtml	-7185
nzdekgdl	-7186
oanalyst	-7187
odaystop	-7188
ogfcsypl	-7189
optionsf	-7190
orgmajor	-7191
oricreco	-7192
peaktheb	-7193
platform	-7194
ppedtose	-7195
psstraws	-7196
ptamputm	-7197
quantums	-7198
ramercit	-7199
czv	-7200
pzwy	-7201
qqqq	-7202
trex	-7203
xygs	-7204
▁abd	-7205
▁azn	-7206
▁gnw	-7207
▁nsp	-7208
▁rua	-7209
▁vza	-7210
capne	-7211
czvcc	-7212
ranny	-7213
reams	-7214
rewed	-7215
setto	-7216
xican	-7217
ynond	-7218
▁afri	-7219
▁biib	-7220
▁cprt	-7221
▁frap	-7222
▁ohio	-7223
▁phuv	-7224
▁sava	-7225
▁sgry	-7226
▁trip	-7227
▁trit	-7228
▁xtzx	-7229
aneous	-7230
nypost	-7231
priced	-7232
syyoxy	-7233
venger	-7234
ximado	-7235
▁allgl	-7236
▁canva	-7237
▁email	-7238
▁gaids	-7239
▁loven	-7240
▁moove	-7241
▁playa	-7242
▁veget	-7243
beccadb	-7244
captive	-7245
elistof	-7246
erimpre	-7247
inhours	-7248
mendous	-7249
onnaise	-7250
▁bagger	-7251
▁basing	-7252
▁brewed	-7253
▁bubble	-7254
▁curfew	-7255
▁curlyf	-7256
▁fuqqqq	-7257
▁gentle	-7258
▁inchas	-7259
▁makers	-7260
▁pattie	-7261
▁scherf	-7262
▁shiitt	-7263
▁thered	-7264
▁tossed	-7265
▁warren	-7266
▁wascmg	-7267
casually	-7268
chickens	-7269
olutions	-7270
onnaiseo	-7271
pzwywyuq	-7272
reliable	-7273
revenues	-7274
rightnow	-7275
rompride	-7276
screener	-7277
services	-7278
smcplant	-7279
stockhal	-7280
stocksin	-7281
tendersy	-7282
thedowth	-7283
thermore	-7284
thewaywe	-7285
thoughts	-7286
tionhtml	-7287
ualtweet	-7288
uralchem	-7289
wnmendes	-7290
yearplus	-7291
zatimefx	-7292
▁abysmal	-7293
▁againug	-7294
▁aggreem	-7295
▁alcapne	-7296
▁amagine	-7297
▁anyones	-7298
▁anytime	-7299
cxyk	-7300
stqd	-7301
▁ffs	-7302
▁fib	-7303
▁jcp	-7304
▁ltd	-7305
▁zcf	-7306
aygre	-7307
check	-7308
deedz	-7309
opped	-7310
theme	-7311
▁blmn	-7312
▁govx	-7313
▁hims	-7314
▁labu	-7315
▁luis	-7316
▁opex	-7317
▁tsnp	-7318
asorry	-7319
points	-7320
shared	-7321
shares	-7322
▁aerer	-7323
▁ganto	-7324
▁greed	-7325
▁lured	-7326
▁pongf	-7327
aygreen	-7328
whipage	-7329
▁abbvie	-7330
▁bummed	-7331
▁hosted	-7332
▁mcputs	-7333
▁predom	-7334
▁rerate	-7335
▁season	-7336
▁soonib	-7337
amanfish	-7338
blogpost	-7339
currency	-7340
erstocks	-7341
fcfaeecd	-7342
intraday	-7343
thorizon	-7344
▁arrived	-7345
▁arrives	-7346
▁avenues	-7347
▁bambino	-7348
▁basking	-7349
▁bernies	-7350
▁biggest	-7351
▁bighaas	-7352
▁biotech	-7353
▁bleeder	-7354
▁boomers	-7355
▁boosted	-7356
▁broquot	-7357
▁bsfakon	-7358
▁buffett	-7359
▁bumping	-7360
▁burgers	-7361
▁buyhold	-7362
▁cameras	-7363
▁ccracer	-7364
▁cheques	-7365
▁chinese	-7366
▁clearly	-7367
▁coiling	-7368
▁colored	-7369
▁comcast	-7370
▁comingg	-7371
▁convers	-7372
▁coolest	-7373
▁crystal	-7374
▁culture	-7375
▁dayquot	-7376
▁deadend	-7377
▁decided	-7378
▁deserve	-7379
▁disease	-7380
▁dorados	-7381
▁drdelta	-7382
▁dropped	-7383
▁dumbass	-7384
▁entered	-7385
▁exactly	-7386
▁factory	-7387
▁factual	-7388
▁flashed	-7389
▁flights	-7390
▁flipper	-7391
▁follows	-7392
▁foreign	-7393
▁foxconn	-7394
▁fridays	-7395
▁hahahaa	-7396
▁hampton	-7397
▁handled	-7398
▁hatehat	-7399
wmh	-7400
inkx	-7401
kdkd	-7402
navy	-7403
rayy	-7404
▁cuz	-7405
▁dbx	-7406
▁yep	-7407
ambar	-7408
idden	-7409
shark	-7410
think	-7411
tress	-7412
yhaua	-7413
ylank	-7414
▁clwd	-7415
▁crwd	-7416
▁cybr	-7417
▁dmas	-7418
▁krft	-7419
▁llit	-7420
▁ostk	-7421
▁tird	-7422
▁uwmc	-7423
abcfaa	-7424
anutbu	-7425
kdkdnc	-7426
ostics	-7427
rayyyy	-7428
webull	-7429
▁cajun	-7430
▁honor	-7431
▁linkx	-7432
▁melol	-7433
▁merge	-7434
▁sales	-7435
▁shitz	-7436
ducated	-7437
ismquot	-7438
krsluog	-7439
timesco	-7440
▁boeing	-7441
▁dylank	-7442
▁fortun	-7443
▁hidden	-7444
▁missed	-7445
▁server	-7446
▁virgin	-7447
abcfaaee	-7448
airlines	-7449
changing	-7450
lligence	-7451
whispers	-7452
▁adverse	-7453
▁bitches	-7454
▁briefly	-7455
▁emailed	-7456
▁helpful	-7457
▁horizon	-7458
▁httpsew	-7459
▁hurdles	-7460
▁initial	-7461
▁instill	-7462
▁insulin	-7463
▁irishru	-7464
▁jeffrey	-7465
▁ketchup	-7466
▁keycorp	-7467
▁lacoste	-7468
▁lfggggg	-7469
▁limited	-7470
▁locally	-7471
▁looting	-7472
▁mcraise	-7473
▁mcscoop	-7474
▁mcshort	-7475
▁members	-7476
▁mergers	-7477
▁mexican	-7478
▁mfersss	-7479
▁midgets	-7480
▁miscell	-7481
▁mistake	-7482
▁mondays	-7483
▁muchies	-7484
▁myartmy	-7485
▁needham	-7486
▁neither	-7487
▁nextera	-7488
▁nuggets	-7489
▁nuggies	-7490
▁obesity	-7491
▁options	-7492
▁orbital	-7493
▁overdue	-7494
▁overlay	-7495
▁ownquot	-7496
▁payable	-7497
▁players	-7498
▁plumper	-7499
kvb	-7500
tnm	-7501
dfac	-7502
hyxz	-7503
ivil	-7504
nrlf	-7505
oken	-7506
rkvb	-7507
wave	-7508
▁frx	-7509
▁gbp	-7510
▁mkt	-7511
▁psx	-7512
▁skt	-7513
▁vix	-7514
▁wsb	-7515
bccac	-7516
bfaff	-7517
eater	-7518
ecabc	-7519
knmcd	-7520
march	-7521
payne	-7522
uffed	-7523
vibes	-7524
▁arkg	-7525
▁bots	-7526
▁cows	-7527
▁gsat	-7528
▁lulu	-7529
adeead	-7530
alteam	-7531
dfacbd	-7532
iscope	-7533
ontrue	-7534
perisc	-7535
radekv	-7536
urries	-7537
▁bunny	-7538
▁civil	-7539
▁cowen	-7540
▁dharl	-7541
▁diagn	-7542
▁dumbf	-7543
▁extre	-7544
▁knrlf	-7545
▁peace	-7546
▁stash	-7547
▁thrus	-7548
▁treat	-7549
▁troof	-7550
breakis	-7551
foremer	-7552
planalp	-7553
titrust	-7554
xydebga	-7555
▁biogen	-7556
▁gbpusd	-7557
▁mcplan	-7558
▁remind	-7559
▁restri	-7560
▁smiles	-7561
▁spoken	-7562
iottwave	-7563
tionalxu	-7564
▁density	-7565
▁dlgonzo	-7566
▁expense	-7567
▁extreme	-7568
▁malaise	-7569
▁popcorn	-7570
▁poplets	-7571
▁portfol	-7572
▁procter	-7573
▁profile	-7574
▁protect	-7575
▁qualify	-7576
▁quarant	-7577
▁quotdis	-7578
▁quotman	-7579
▁quotwhy	-7580
▁rejects	-7581
▁related	-7582
▁reminds	-7583
▁reopens	-7584
▁respect	-7585
▁resumed	-7586
▁rigogme	-7587
▁rioting	-7588
▁rockies	-7589
▁rollout	-7590
▁rumored	-7591
▁secular	-7592
▁sellers	-7593
▁service	-7594
▁session	-7595
▁shitter	-7596
▁signals	-7597
▁slammed	-7598
▁staffed	-7599
pvk	-7600
qdm	-7601
tjs	-7602
atxo	-7603
fzuw	-7604
rpdb	-7605
▁axp	-7606
acdaf	-7607
apses	-7608
bebda	-7609
dcdaa	-7610
ffadf	-7611
nvqdm	-7612
reeeh	-7613
ricmi	-7614
sidjq	-7615
▁ipos	-7616
▁ozsc	-7617
▁silc	-7618
aindex	-7619
anqamp	-7620
taulli	-7621
▁ethan	-7622
▁gears	-7623
assment	-7624
caacdaf	-7625
drivers	-7626
emblogo	-7627
guampts	-7628
menatxo	-7629
▁ouchie	-7630
▁policy	-7631
▁retire	-7632
▁waster	-7633
forcemic	-7634
iversity	-7635
xpansion	-7636
▁austral	-7637
▁coaster	-7638
▁grossly	-7639
▁quotdel	-7640
▁shifted	-7641
▁stanley	-7642
▁stellar	-7643
▁stomped	-7644
▁stuffed	-7645
▁summary	-7646
▁sundial	-7647
▁sunnier	-7648
▁surging	-7649
▁tactics	-7650
▁tencent	-7651
▁tickers	-7652
▁toasted	-7653
▁topline	-7654
▁traders	-7655
▁tranche	-7656
▁tripple	-7657
▁ttaulli	-7658
▁twitter	-7659
▁tyranny	-7660
▁unoffic	-7661
▁useless	-7662
▁vantage	-7663
▁visible	-7664
▁webcast	-7665
▁wenjack	-7666
▁whereas	-7667
▁whipsaw	-7668
▁whooped	-7669
▁xrparmy	-7670
ababeebee	-7671
abcaafafd	-7672
abzrbnpvk	-7673
acfcbfbef	-7674
aindexhtm	-7675
allstreet	-7676
andwiches	-7677
angedrink	-7678
anmarkets	-7679
applemore	-7680
aysfuture	-7681
baeffffaf	-7682
bcbecbfcd	-7683
bdcaffafc	-7684
bebdaafcd	-7685
bfbdffadf	-7686
blapafmga	-7687
bsidizing	-7688
burgercom	-7689
cbddaaafb	-7690
ceqiampts	-7691
challenge	-7692
cheapquot	-7693
ciceisrgt	-7694
coctzevqs	-7695
combodeca	-7696
commcdfqu	-7697
comvideoo	-7698
contribut	-7699
xctz	-7700
▁mkc	-7701
▁mlk	-7702
▁otp	-7703
dsyum	-7704
mmmmm	-7705
shole	-7706
weird	-7707
▁dooo	-7708
▁ethx	-7709
▁labs	-7710
▁lori	-7711
▁mkts	-7712
▁mlfb	-7713
▁nhod	-7714
▁ntes	-7715
▁ryan	-7716
▁srpt	-7717
▁utah	-7718
▁vows	-7719
driven	-7720
fdapan	-7721
orriot	-7722
▁darts	-7723
▁deepf	-7724
▁lined	-7725
▁oreos	-7726
▁putin	-7727
▁radar	-7728
▁runup	-7729
▁simon	-7730
▁stero	-7731
▁tarts	-7732
▁theta	-7733
▁uncle	-7734
▁woods	-7735
cefaaca	-7736
edition	-7737
idtheta	-7738
janpost	-7739
keptics	-7740
payinge	-7741
profits	-7742
squeeze	-7743
▁asleep	-7744
▁ecolab	-7745
▁inputs	-7746
▁obsurd	-7747
▁phizer	-7748
▁recked	-7749
▁runner	-7750
▁sergio	-7751
▁straws	-7752
byinches	-7753
comcompe	-7754
rebooyah	-7755
teaandco	-7756
▁airline	-7757
▁aquatic	-7758
▁asshole	-7759
▁battery	-7760
▁debacle	-7761
▁goggles	-7762
▁license	-7763
▁nowhere	-7764
▁payouts	-7765
▁putcall	-7766
▁songoku	-7767
▁utility	-7768
breakfast	-7769
detective	-7770
dfosqqqmt	-7771
donations	-7772
dramacont	-7773
eddaecabc	-7774
eeacbccac	-7775
eeadcbfcc	-7776
eearnings	-7777
eebdfeeef	-7778
entersfin	-7779
erbytrade	-7780
eringjust	-7781
eyqrabuys	-7782
ffceacaba	-7783
flanigans	-7784
foodwaste	-7785
hatactics	-7786
hyxzhpone	-7787
ideaspart	-7788
ificently	-7789
ighinpost	-7790
igorating	-7791
inepicomb	-7792
intofocus	-7793
invdagwwc	-7794
isabetter	-7795
istocrats	-7796
itability	-7797
laysoutap	-7798
lumberger	-7799
ndwbc	-7800
owfes	-7801
rvnmg	-7802
vegans	-7803
▁aprox	-7804
▁built	-7805
▁soggy	-7806
onomics	-7807
▁banker	-7808
▁taiwan	-7809
▁thesis	-7810
▁weedst	-7811
besrvnmg	-7812
buyrated	-7813
estimize	-7814
islaunch	-7815
istmoney	-7816
launcher	-7817
straders	-7818
▁awarded	-7819
▁builish	-7820
▁grandma	-7821
cbokfsbux	-7822
combodecp	-7823
ingvegans	-7824
mcddaffed	-7825
mcdnikevs	-7826
mcripping	-7827
meatanaly	-7828
newburger	-7829
oftesting	-7830
oliticalb	-7831
oneyyahoo	-7832
ongandpro	-7833
onlinecom	-7834
orderfore	-7835
otherhead	-7836
ouncehtml	-7837
owdelayed	-7838
pectively	-7839
performed	-7840
plainable	-7841
portfolio	-7842
portunity	-7843
premarket	-7844
pridehtml	-7845
pubwebull	-7846
raliahtml	-7847
ratingsdj	-7848
rearnings	-7849
reementto	-7850
reendaily	-7851
regichart	-7852
releasesm	-7853
returnsin	-7854
ricketsgt	-7855
settosoar	-7856
sfourthqu	-7857
smcdingle	-7858
smcdpcgcp	-7859
steslavir	-7860
stockpick	-7861
theprison	-7862
titionnke	-7863
tmcontent	-7864
torelease	-7865
uaxyjcbli	-7866
vironment	-7867
xrrkxggyy	-7868
▁activist	-7869
▁africawe	-7870
▁alibabas	-7871
▁alliance	-7872
▁approves	-7873
▁audience	-7874
▁autistic	-7875
▁averaged	-7876
▁babababa	-7877
▁baseball	-7878
▁benzinga	-7879
▁beverage	-7880
▁bitcoins	-7881
▁bleeding	-7882
▁bluechip	-7883
▁bmueller	-7884
▁bumbling	-7885
▁buttered	-7886
▁calories	-7887
▁casually	-7888
▁changing	-7889
▁chipotle	-7890
▁cominggg	-7891
▁confused	-7892
▁constant	-7893
▁courtesy	-7894
▁cratered	-7895
▁critical	-7896
▁cultural	-7897
▁davender	-7898
▁davidste	-7899
cene	-7900
dhzh	-7901
kbou	-7902
ltry	-7903
nlew	-7904
qsdf	-7905
xrkf	-7906
▁cpb	-7907
▁dtl	-7908
▁mgm	-7909
▁wfm	-7910
▁zwf	-7911
above	-7912
aload	-7913
atuss	-7914
cccad	-7915
erref	-7916
fabac	-7917
iojom	-7918
mcdpq	-7919
oduct	-7920
patrn	-7921
sgals	-7922
zuaty	-7923
▁amlp	-7924
▁cbgl	-7925
▁dnmr	-7926
▁fomc	-7927
▁ftnt	-7928
▁gatx	-7929
▁gulp	-7930
▁hang	-7931
▁hodl	-7932
▁mnst	-7933
▁sara	-7934
▁txrh	-7935
▁vwap	-7936
▁xray	-7937
ankees	-7938
cangse	-7939
cbfxer	-7940
darcom	-7941
donkey	-7942
iefjdi	-7943
veyors	-7944
▁capex	-7945
▁cazzo	-7946
▁cohen	-7947
▁exxon	-7948
▁fubar	-7949
▁fuhhh	-7950
▁gulag	-7951
▁incep	-7952
▁maaan	-7953
▁nears	-7954
▁nexnf	-7955
▁notif	-7956
▁omarg	-7957
▁oppon	-7958
dspider	-7959
entimes	-7960
judgere	-7961
opsampp	-7962
xrkfonz	-7963
▁broads	-7964
▁fltugt	-7965
▁paypal	-7966
▁truths	-7967
ughtered	-7968
▁bullsey	-7969
▁obscene	-7970
▁peoduct	-7971
▁poultry	-7972
▁redacat	-7973
▁yankees	-7974
abuyingop	-7975
addcrispy	-7976
inflation	-7977
kbouzuaty	-7978
pwjiefjdi	-7979
themovies	-7980
▁agricult	-7981
▁dayparts	-7982
▁dazzling	-7983
▁debating	-7984
▁decently	-7985
▁decouple	-7986
▁definida	-7987
▁desantis	-7988
▁deserved	-7989
▁designer	-7990
▁dethrone	-7991
▁downward	-7992
▁dropping	-7993
▁engineer	-7994
▁enrolled	-7995
▁ensuring	-7996
▁estimize	-7997
▁evercore	-7998
▁exhibits	-7999
fffff	-8000
pdbwy	-8001
▁bruh	-8002
▁erik	-8003
▁ibio	-8004
▁ikea	-8005
▁saga	-8006
▁ttwo	-8007
▁yuge	-8008
ceefdc	-8009
eeebcb	-8010
fcaddd	-8011
inavia	-8012
isatfi	-8013
levels	-8014
mohoes	-8015
qjjqiq	-8016
thyjgs	-8017
ticker	-8018
userwy	-8019
yfxxwd	-8020
▁drank	-8021
▁fauci	-8022
▁gimik	-8023
▁jobas	-8024
▁jsell	-8025
▁kinda	-8026
▁south	-8027
▁tezos	-8028
▁tyson	-8029
▁verge	-8030
apfslri	-8031
cerocks	-8032
civcnpt	-8033
helping	-8034
odunkin	-8035
▁animal	-8036
▁chewie	-8037
▁erikam	-8038
▁geiger	-8039
▁glizzy	-8040
▁inchar	-8041
▁island	-8042
▁keeper	-8043
▁method	-8044
▁nosedi	-8045
▁rippin	-8046
▁rivera	-8047
▁thrice	-8048
▁uneven	-8049
afeaedee	-8050
aterisks	-8051
dcdfffff	-8052
faffbbed	-8053
itesquot	-8054
normmacd	-8055
rmkintcb	-8056
roarquot	-8057
stantive	-8058
stowatch	-8059
tastrike	-8060
▁android	-8061
▁bonuses	-8062
▁brainer	-8063
▁herbals	-8064
▁lowgrew	-8065
▁monitor	-8066
▁preying	-8067
ebedaaaec	-8068
fccedddde	-8069
tickermcd	-8070
zerohedge	-8071
▁expected	-8072
▁exposure	-8073
▁farmland	-8074
▁flipping	-8075
▁flirting	-8076
▁football	-8077
▁fredrick	-8078
▁function	-8079
▁galactic	-8080
▁gonzales	-8081
▁governor	-8082
▁grandpas	-8083
▁greenery	-8084
▁grilling	-8085
▁grouplol	-8086
▁gtgtgtgt	-8087
▁guysgals	-8088
▁hailmary	-8089
▁happened	-8090
▁headwind	-8091
▁horrible	-8092
▁hovering	-8093
▁impotent	-8094
▁insanity	-8095
▁inverted	-8096
▁jokingly	-8097
▁laughing	-8098
▁lemonade	-8099
▁tldr	-8100
▁xpev	-8101
iaeywn	-8102
ruptcy	-8103
▁adapt	-8104
▁fluct	-8105
▁gnads	-8106
▁jassy	-8107
▁larry	-8108
▁sowhy	-8109
astweek	-8110
ctthink	-8111
gfggggg	-8112
keshack	-8113
outlook	-8114
podscom	-8115
reambut	-8116
senting	-8117
▁binden	-8118
▁castle	-8119
▁circum	-8120
▁dingus	-8121
▁fleets	-8122
▁french	-8123
▁frosty	-8124
▁hammer	-8125
▁hitjob	-8126
▁manutd	-8127
▁mcmoon	-8128
▁nomura	-8129
▁sexual	-8130
▁tastet	-8131
adccdddc	-8132
ankrolls	-8133
articler	-8134
dipswhat	-8135
eefdaaeb	-8136
estomenu	-8137
glelbhqq	-8138
kvvbtppq	-8139
printing	-8140
uaciones	-8141
uqrtorlx	-8142
windwith	-8143
▁denmark	-8144
▁detract	-8145
▁dollers	-8146
▁gainsnz	-8147
▁gigaman	-8148
▁pebitda	-8149
▁podcast	-8150
▁reeeeal	-8151
▁savages	-8152
▁sobsoon	-8153
▁whipped	-8154
compfizer	-8155
comusnews	-8156
fromanews	-8157
▁bareback	-8158
▁bastards	-8159
▁climbing	-8160
▁freaking	-8161
▁httpmalt	-8162
▁lockheed	-8163
▁longhold	-8164
▁longterm	-8165
▁longtime	-8166
▁lowering	-8167
▁massacre	-8168
▁mobility	-8169
▁mortgage	-8170
▁nemohoes	-8171
▁nicolaus	-8172
▁nonsense	-8173
▁normalcy	-8174
▁nowabove	-8175
▁optional	-8176
▁overcome	-8177
▁overkill	-8178
▁overrule	-8179
▁overseas	-8180
▁password	-8181
▁pastures	-8182
▁peanutbu	-8183
▁phillips	-8184
▁plethora	-8185
▁pounders	-8186
▁pplgonna	-8187
▁precovid	-8188
▁prepping	-8189
▁produces	-8190
▁proposal	-8191
▁prosugar	-8192
▁proterra	-8193
▁quotgold	-8194
▁quotmust	-8195
▁reaction	-8196
▁realized	-8197
▁referral	-8198
▁resuming	-8199
▁balls	-8200
▁luego	-8201
▁tryna	-8202
▁yikes	-8203
bcacbcf	-8204
chinasp	-8205
fbfaffd	-8206
ickplug	-8207
ievessu	-8208
nemakam	-8209
oramphl	-8210
pdddigt	-8211
saysitp	-8212
waitfor	-8213
▁chubby	-8214
▁devise	-8215
▁gladly	-8216
▁jsnake	-8217
▁measly	-8218
▁veggie	-8219
▁zzzzzz	-8220
andomega	-8221
beinthis	-8222
bythebay	-8223
dictable	-8224
fitintom	-8225
mrghetto	-8226
sbenefit	-8227
▁absorbs	-8228
▁amazons	-8229
▁callfor	-8230
▁flytrex	-8231
▁germany	-8232
▁heavily	-8233
▁hideous	-8234
▁indoors	-8235
▁ingredi	-8236
▁insects	-8237
▁israeli	-8238
▁japanch	-8239
▁lolllll	-8240
▁mcbeers	-8241
▁newpage	-8242
▁ongoing	-8243
▁village	-8244
daysstock	-8245
ebbeabdeb	-8246
xxtrading	-8247
▁alcistas	-8248
▁capacity	-8249
▁chicfila	-8250
▁darkpool	-8251
▁database	-8252
▁detected	-8253
▁mightily	-8254
▁minchidd	-8255
▁momchilb	-8256
▁najarian	-8257
▁pathways	-8258
▁pilgrims	-8259
▁retested	-8260
▁ridecome	-8261
▁rollouts	-8262
▁saltress	-8263
▁savingsk	-8264
▁securiti	-8265
▁senarios	-8266
▁sessions	-8267
▁shakeout	-8268
▁shambles	-8269
▁shorties	-8270
▁shouldnt	-8271
▁sleeping	-8272
▁slowdown	-8273
▁soonibio	-8274
▁speakers	-8275
▁spending	-8276
▁squirtle	-8277
▁staffers	-8278
▁stanford	-8279
▁startups	-8280
▁steroids	-8281
▁stockxpo	-8282
▁straddle	-8283
▁stratosp	-8284
▁suckered	-8285
▁supports	-8286
▁surprise	-8287
▁sweepers	-8288
▁sweetens	-8289
▁teamwork	-8290
▁thatquot	-8291
▁theraven	-8292
▁thestron	-8293
▁timstock	-8294
▁traction	-8295
▁trashman	-8296
▁tropical	-8297
▁turnover	-8298
▁tweaking	-8299
▁dbags	-8300
▁dunno	-8301
▁heels	-8302
caeefef	-8303
ceivesp	-8304
gleeful	-8305
httpwww	-8306
sfacean	-8307
▁pensar	-8308
▁sliced	-8309
▁vitals	-8310
altrwyvm	-8311
befbaaba	-8312
ldrxdcsl	-8313
tyrelief	-8314
▁beefare	-8315
▁bittner	-8316
▁careful	-8317
▁fractal	-8318
▁harvard	-8319
▁hereyou	-8320
▁mccoder	-8321
▁waikiki	-8322
beaaaeeff	-8323
beeeaecce	-8324
eddcfcfaa	-8325
ffacbdbdc	-8326
ignsdefin	-8327
lbiocloud	-8328
receivesp	-8329
updatejan	-8330
▁airplane	-8331
▁curbless	-8332
▁glorious	-8333
▁gumptard	-8334
▁infinity	-8335
▁liberals	-8336
▁mcdouble	-8337
▁mcshitts	-8338
▁nearterm	-8339
▁removing	-8340
▁thrilled	-8341
▁unhedged	-8342
▁uninvest	-8343
▁vacation	-8344
▁waffling	-8345
▁wakingup	-8346
▁weighted	-8347
▁weyerhae	-8348
▁wildlife	-8349
▁williams	-8350
▁witstock	-8351
▁yearplus	-8352
abbeefbbcc	-8353
actionable	-8354
adbbeeddeb	-8355
adeeaddddd	-8356
adfdecdced	-8357
advicequot	-8358
americanbr	-8359
ampvampcol	-8360
applesales	-8361
arianvegan	-8362
aristocrat	-8363
atcherwhat	-8364
ausingitsp	-8365
ausloyalty	-8366
bdaffadaeb	-8367
bddabbcaff	-8368
bedueforab	-8369
bfaffbaaaa	-8370
bfebbafaff	-8371
cacoladown	-8372
cbpfgacglb	-8373
ccenregist	-8374
cheddarcom	-8375
compelling	-8376
comsummary	-8377
dayinhours	-8378
dcbaaedbef	-8379
dealdollar	-8380
dfacbdbbff	-8381
disappoint	-8382
dsyumstock	-8383
eatbigmacs	-8384
edcbeebafb	-8385
efarteater	-8386
erimpressi	-8387
ertainment	-8388
eslaboeing	-8389
estionplan	-8390
fdbafcccad	-8391
fortuesday	-8392
guipkampts	-8393
hemeatloaf	-8394
idthetacom	-8395
illgatesbe	-8396
industrial	-8397
industries	-8398
infebruary	-8399
▁bleeds	-8400
▁wowwww	-8401
ffaaccce	-8402
menddlvo	-8403
ondegirl	-8404
▁beynond	-8405
▁biscuit	-8406
▁heyshoe	-8407
▁imoonly	-8408
▁mariano	-8409
▁puckfan	-8410
▁western	-8411
eabeeadfa	-8412
eaknessin	-8413
edebfaccb	-8414
effeebfba	-8415
hikersfor	-8416
overwrite	-8417
saregoing	-8418
▁annouced	-8419
▁cultists	-8420
▁fadednow	-8421
▁features	-8422
▁passcode	-8423
▁rmanning	-8424
▁situacin	-8425
anequities	-8426
buyingthis	-8427
dddbbfcaeb	-8428
dollartree	-8429
initiative	-8430
isattackon	-8431
jpopamzbge	-8432
justdoesnt	-8433
kesbacksea	-8434
largestfar	-8435
llusbbwavf	-8436
marketnews	-8437
mcnlvphtml	-8438
mentsthisw	-8439
mlandowner	-8440
ningstweet	-8441
odernmeats	-8442
olcecselbq	-8443
onaldlikes	-8444
oozfzmnkev	-8445
opetvmisst	-8446
orginclude	-8447
positioned	-8448
powerorgth	-8449
prerelease	-8450
radioampab	-8451
ravisscott	-8452
scurrently	-8453
shakeshack	-8454
smcdprgoex	-8455
snextshort	-8456
sourcevice	-8457
sstarbucks	-8458
stradercom	-8459
strongbull	-8460
suitreport	-8461
tradersays	-8462
utmcontent	-8463
vagxzknmcd	-8464
versqueeze	-8465
vicecomamp	-8466
whichcould	-8467
xpocomwith	-8468
youshouldk	-8469
zeandtrade	-8470
▁acumdistr	-8471
▁againugly	-8472
▁algorithm	-8473
▁americans	-8474
▁analytics	-8475
▁announced	-8476
▁announces	-8477
▁appetites	-8478
▁approvals	-8479
▁autograph	-8480
▁averaging	-8481
▁beautiful	-8482
▁benzingas	-8483
▁bernstein	-8484
▁beverages	-8485
▁blackrock	-8486
▁bombarded	-8487
▁bookmarks	-8488
▁brokeandh	-8489
▁calendars	-8490
▁calvasina	-8491
▁candidate	-8492
▁cardboard	-8493
▁caribbean	-8494
▁champions	-8495
▁charmxone	-8496
▁chickofil	-8497
▁commented	-8498
▁community	-8499
xydebgavk	-8500
▁educated	-8501
▁fatshark	-8502
▁hmmmmmmm	-8503
▁janmarch	-8504
▁reshared	-8505
▁shiitttt	-8506
▁skeptics	-8507
amzndricmi	-8508
globalteam	-8509
pzwywyuqbj	-8510
smcdsyyoxy	-8511
tippedtose	-8512
ycoctzevqs	-8513
▁bigdreams	-8514
▁collapses	-8515
▁contrasts	-8516
▁corporate	-8517
▁costumers	-8518
▁dayscheck	-8519
▁daytrader	-8520
▁ddchannel	-8521
▁deaddeedz	-8522
▁decimated	-8523
▁deepfried	-8524
▁delivered	-8525
▁destroyed	-8526
▁discussed	-8527
▁disruptor	-8528
▁dogecoins	-8529
▁downaload	-8530
▁dumpsters	-8531
▁elemental	-8532
▁emergency	-8533
▁emissions	-8534
▁employers	-8535
▁envisions	-8536
▁equipment	-8537
▁everybody	-8538
▁everytime	-8539
▁fatburger	-8540
▁favorably	-8541
▁fiduciary	-8542
▁finalized	-8543
▁forefront	-8544
▁forwarded	-8545
▁futureman	-8546
▁gakkadguy	-8547
▁gatesquot	-8548
▁gentlemen	-8549
▁geonomics	-8550
▁gnarliest	-8551
▁goverment	-8552
▁gradually	-8553
▁greatness	-8554
▁guysmcrib	-8555
▁hahahahah	-8556
▁harvested	-8557
▁histogram	-8558
▁hollllyyy	-8559
▁honestabe	-8560
▁httpscnbc	-8561
▁implement	-8562
▁inception	-8563
▁indicates	-8564
▁ingenuity	-8565
▁insulting	-8566
▁intrinsic	-8567
▁jefferson	-8568
▁lfggggggg	-8569
▁lingering	-8570
▁liquidate	-8571
▁liquidity	-8572
▁lmaocudos	-8573
▁lmfaooooo	-8574
▁lucrative	-8575
▁lunchpail	-8576
▁macquarie	-8577
▁maksimceb	-8578
▁marketred	-8579
▁massively	-8580
▁materials	-8581
▁mcdougles	-8582
▁mcdthanks	-8583
▁mcfucking	-8584
▁mcloading	-8585
▁mclobster	-8586
▁mcselling	-8587
▁mealswith	-8588
▁meanwhile	-8589
▁medicated	-8590
▁monthlong	-8591
▁mussolini	-8592
▁natetradr	-8593
▁naysayers	-8594
▁negbetter	-8595
▁negotiate	-8596
▁neighbors	-8597
▁nostalgic	-8598
▁occupancy	-8599
bebbcacbcf	-8600
efcaceefdc	-8601
ispastweek	-8602
▁davidstea	-8603
▁mmhelping	-8604
▁oiljunkie	-8605
▁opponents	-8606
▁otherwise	-8607
▁outsource	-8608
▁paperwork	-8609
▁paytience	-8610
▁periscope	-8611
▁phuvcking	-8612
▁piotroski	-8613
▁primarily	-8614
▁privately	-8615
▁profittek	-8616
▁prolonged	-8617
▁purveyors	-8618
▁quickplug	-8619
▁quotfight	-8620
▁quotpatrn	-8621
▁quotwould	-8622
▁rearrange	-8623
▁rebalance	-8624
▁redditers	-8625
▁regarding	-8626
▁reistance	-8627
▁resorting	-8628
▁restoring	-8629
▁revealing	-8630
▁revenuepe	-8631
▁revisions	-8632
▁rotorriot	-8633
▁ruhtarded	-8634
▁scherfcom	-8635
▁september	-8636
▁settingup	-8637
▁sharesnow	-8638
▁shortages	-8639
▁shortterm	-8640
▁sidewards	-8641
▁simultane	-8642
▁solutions	-8643
▁sometimes	-8644
▁soonlines	-8645
▁stockjust	-8646
▁stocktips	-8647
▁streambar	-8648
▁streaming	-8649
▁structure	-8650
▁stupidity	-8651
▁superbowl	-8652
▁symmetric	-8653
▁thursdays	-8654
▁timesweek	-8655
▁todaythis	-8656
▁tradequot	-8657
▁tradewith	-8658
▁uncertain	-8659
▁watchquot	-8660
▁weedstonk	-8661
▁youtubers	-8662
acfadefefca	-8663
acorrection	-8664
aecbeafdcfb	-8665
aefffbcdfab	-8666
affecaacdaf	-8667
allelinvest	-8668
analystcall	-8669
aoeyqrabuys	-8670
apfslrirpnw	-8671
appreciated	-8672
arishighfor	-8673
arketreport	-8674
asreopening	-8675
aysfutureno	-8676
baeffffafdc	-8677
bbcaefabbcc	-8678
beccadbcdce	-8679
busbdhielcc	-8680
caccbfcedfa	-8681
cdcbfaeaaca	-8682
championsin	-8683
classicquot	-8684
comarticler	-8685
comfastfood	-8686
comtopstock	-8687
comwolfsbux	-8688
ecfbfbebbca	-8689
eeacacaaaff	-8690
etradinginc	-8691
fbeeefdcdaa	-8692
gestavenger	-8693
gganhanqamp	-8694
gingalactic	-8695
glelbhqqnty	-8696
gradeamongt	-8697
greatresets	-8698
incappoints	-8699
investorday	-8700
iohitechcom	-8701
jectsformer	-8702
llfitcomamp	-8703
lowmeygxctz	-8704
marketplace	-8705
ofoperation	-8706
oruncertain	-8707
owndividend	-8708
programhtml	-8709
quietlyquot	-8710
ruptivequot	-8711
ryancohenst	-8712
shawnmendes	-8713
stockbuynow	-8714
sunderestim	-8715
swymcdaitxt	-8716
tendersyolo	-8717
thanaverage	-8718
thedividend	-8719
tweetamputm	-8720
vikwxaxdwmw	-8721
vsfrompride	-8722
yumpzzajack	-8723
▁actionable	-8724
▁aggreement	-8725
▁applicants	-8726
▁aproximado	-8727
▁aristocrat	-8728
▁australias	-8729
▁background	-8730
▁bagholders	-8731
▁bankruptcy	-8732
▁believable	-8733
▁beyondmeat	-8734
▁blockchain	-8735
▁blondegirl	-8736
▁bloombergs	-8737
▁charlatans	-8738
▁convenient	-8739
▁conviction	-8740
▁convoluted	-8741
▁cupsstraws	-8742
▁curlyfries	-8743
▁deforested	-8744
▁descending	-8745
▁destroying	-8746
▁dharlmorey	-8747
▁dimensions	-8748
▁dipseeking	-8749
▁discussion	-8750
▁equivalent	-8751
▁executives	-8752
▁exspensive	-8753
▁fartpooped	-8754
▁fractional	-8755
▁fraudulent	-8756
▁frustrated	-8757
▁godsmacked	-8758
▁goooothats	-8759
▁greennight	-8760
▁harassment	-8761
▁hatehaters	-8762
▁healthcare	-8763
▁herebooyah	-8764
▁horizontal	-8765
▁housemoney	-8766
▁httpsyoutu	-8767
▁industrial	-8768
▁inflection	-8769
▁japanchina	-8770
▁jaygleeful	-8771
▁lowcontact	-8772
▁manipulate	-8773
▁marcusnavy	-8774
▁mcchickens	-8775
▁mcdonanlds	-8776
▁mcflurries	-8777
▁mclauncher	-8778
▁meaningful	-8779
▁midmorning	-8780
▁nosediving	-8781
▁officially	-8782
▁oftentimes	-8783
▁outbreakis	-8784
▁overbought	-8785
▁overpriced	-8786
▁population	-8787
▁presenting	-8788
▁presidente	-8789
▁principles	-8790
▁prnewswire	-8791
▁profession	-8792
▁protesters	-8793
▁quarantine	-8794
▁rationalxu	-8795
▁rcatredcat	-8796
▁reaccionar	-8797
▁reiterated	-8798
▁relatively	-8799
▁restaraunt	-8800
▁roundtable	-8801
▁salesforce	-8802
▁soliciting	-8803
▁squeeeeeze	-8804
▁statements	-8805
▁structural	-8806
▁successful	-8807
▁sufficient	-8808
▁suggesting	-8809
▁surprising	-8810
▁techfacing	-8811
▁threatwhat	-8812
▁tremendous	-8813
▁turbulence	-8814
▁ultimately	-8815
▁underwater	-8816
▁university	-8817
▁unofficial	-8818
▁valentines	-8819
▁watchlists	-8820
▁weekthanks	-8821
▁wwwillegal	-8822
adaceacdfdbc	-8823
afbbeaaaeeff	-8824
amidrisingch	-8825
ampthegoodst	-8826
bbfdfacfcefa	-8827
bebdaafcdbab	-8828
beststocksin	-8829
cacolaabbvie	-8830
ceosbidtodis	-8831
charlidameli	-8832
chinaspammay	-8833
coffeechains	-8834
comnewsstock	-8835
compposition	-8836
comstocksmcd	-8837
concernspost	-8838
dcbbbfbccdbe	-8839
ebahtmltheme	-8840
enamgnlrcxai	-8841
endsapproval	-8842
erstockslike	-8843
faecffaaccce	-8844
fdccbddaaafb	-8845
fdddceacfdef	-8846
fromthefloor	-8847
gmeclxjnjmcd	-8848
inuessoaring	-8849
mcdstocksrca	-8850
mcdynmachart	-8851
minteractive	-8852
mmmwallstree	-8853
najarianhtml	-8854
onnaiseoreos	-8855
oricrecovery	-8856
pdbwyaiampts	-8857
pdddigtampnw	-8858
pshortsthing	-8859
ralliesafter	-8860
salesdrivers	-8861
scomresearch	-8862
sharesnearan	-8863
socialamputm	-8864
squeezecould	-8865
stattractive	-8866
stockhaltedc	-8867
stockischeap	-8868
stockscomsha	-8869
stronggrowth	-8870
titlethreeeh	-8871
ttovaluation	-8872
urchaseorder	-8873
valuebuilder	-8874
vampfindamps	-8875
versoldstock	-8876
xygsnyymhtml	-8877
▁algorithmic	-8878
▁allegations	-8879
▁animalbased	-8880
▁anywayweird	-8881
▁application	-8882
▁aquafarming	-8883
▁aristocrats	-8884
▁briefingcom	-8885
▁celebrating	-8886
▁circumcised	-8887
▁collaborate	-8888
▁complaining	-8889
▁complicated	-8890
▁compounding	-8891
▁conditionon	-8892
▁conjunction	-8893
▁contactless	-8894
▁convergence	-8895
▁deltastrike	-8896
▁description	-8897
▁desperation	-8898
▁diagnostics	-8899
▁dollyparton	-8900
▁elliottwave	-8901
▁environment	-8902
▁equalweight	-8903
▁everythings	-8904
▁fakkkkkkkkk	-8905
▁flowdelayed	-8906
▁fltugtckers	-8907
▁fortunately	-8908
▁frustrating	-8909
▁fuqqqqqqqqq	-8910
▁furiousalso	-8911
▁furthermore	-8912
▁generations	-8913
▁highquality	-8914
▁housingreal	-8915
▁httpsnypost	-8916
▁improvement	-8917
▁initiations	-8918
▁initiatives	-8919
▁interesting	-8920
▁lezzzgohhhh	-8921
▁liquidtheta	-8922
▁lmfaooooooo	-8923
▁lunchbucket	-8924
▁marcuspayne	-8925
▁marketwatch	-8926
▁melblackbox	-8927
▁millionaire	-8928
▁operational	-8929
▁permanently	-8930
▁preannounce	-8931
▁predictable	-8932
▁predictions	-8933
▁preearnings	-8934
▁probability	-8935
▁quotcaptive	-8936
▁quotskeptic	-8937
▁refinancing	-8938
▁retracement	-8939
▁ricksbetter	-8940
▁scalpmaster	-8941
▁scandinavia	-8942
▁seriousness	-8943
▁setupsentry	-8944
▁slaughtered	-8945
▁sonicmerlin	-8946
▁stockdonkey	-8947
▁stockjunkie	-8948
▁subsidizing	-8949
▁substantive	-8950
▁teahttpswww	-8951
▁temporarily	-8952
▁thatcompany	-8953
▁thedarkerst	-8954
▁tittyrayyyy	-8955
▁traderrjoee	-8956
▁transaction	-8957
▁transitions	-8958
▁trendspider	-8959
▁undisclosed	-8960
▁upstreambut	-8961
▁vaccinenews	-8962
▁whispermiss	-8963
abaecddabccdd	-8964
afeaedeececff	-8965
arketrightnow	-8966
arterandfully	-8967
atedistribute	-8968
besrvnmgfcamo	-8969
bonaccilevels	-8970
callfromubson	-8971
cddfdfeabbeee	-8972
ceoonchanging	-8973
comesamericas	-8974
comnewsconsum	-8975
comnewsmcdwen	-8976
compoliticalb	-8977
comprelosefeb	-8978
comweaknessin	-8979
dacecbedcaeaf	-8980
ecfefefbceaca	-8981
eekonthursday	-8982
eslaupgradeco	-8983
fastfoodstock	-8984
fecbbeaceebef	-8985
forapotential	-8986
gainsasmarket	-8987
growthstoryta	-8988
htmlafcefaaca	-8989
httpwwwsecgov	-8990
incachievessu	-8991
inyurlcomyhsr	-8992
ioprospective	-8993
istmoneylover	-8994
lantodethrone	-8995
leoguhcevtutm	-8996
lligencebased	-8997
mcdonaldsquot	-8998
mcdyvgegchart	-8999
mediatelyquot	-9000
milliondollar	-9001
mployeestoget	-9002
nemakamdisbmy	-9003
nlewceqiampts	-9004
ongandprosper	-9005
quantumscapet	-9006
ramercitronwe	-9007
remainsstable	-9008
stestsmcplant	-9009
stockscreener	-9010
streetremains	-9011
uponqearnings	-9012
uralchemicals	-9013
willaddcrispy	-9014
wjmedmmcdlong	-9015
▁acceleration	-9016
▁administered	-9017
▁americasorry	-9018
▁audiencequot	-9019
▁battleground	-9020
▁bigbankrolls	-9021
▁cheerskdkdnc	-9022
▁citybythebay	-9023
▁confirmation	-9024
▁conservative	-9025
▁consolidates	-9026
▁conventional	-9027
▁conversation	-9028
▁coordination	-9029
▁correlations	-9030
▁cupamphandle	-9031
▁diamondbacks	-9032
▁drdeltaquant	-9033
▁fastgeonomic	-9034
▁financerocks	-9035
▁floridabased	-9036
▁fluctuations	-9037
▁hahahahahaha	-9038
▁historically	-9039
▁httpdividend	-9040
▁httpepsshcal	-9041
▁httpswwwliqu	-9042
▁improvements	-9043
▁invalidation	-9044
▁invigorating	-9045
▁irishrussian	-9046
▁loseloselose	-9047
▁ltcricketsgt	-9048
▁majorwhipage	-9049
▁mcmuffincoke	-9050
▁midafternoon	-9051
▁miserbytrade	-9052
▁myartmyrules	-9053
▁nonrenewable	-9054
▁overinflated	-9055
▁policydriven	-9056
▁predominance	-9057
▁productthink	-9058
▁putcallratio	-9059
▁putsprinting	-9060
▁quotamericas	-9061
▁quotmanaging	-9062
▁quotpositive	-9063
▁quotroarquot	-9064
▁reaccionando	-9065
▁recreational	-9066
▁repositioned	-9067
▁respectfully	-9068
▁respectively	-9069
▁restrictions	-9070
▁saturdaymood	-9071
▁schlumberger	-9072
▁shareholders	-9073
▁specifically	-9074
▁stocksinnews	-9075
▁stocksthanks	-9076
▁stocktrading	-9077
▁stratosphere	-9078
▁stronghandsk	-9079
▁tastetesting	-9080
▁thefarteater	-9081
▁uninvestable	-9082
▁unprofitable	-9083
▁websitesquot	-9084
▁wickedsplits	-9085
aincomivmcdmff	-9086
airlineprofits	-9087
ampvjikfcangse	-9088
annualdividend	-9089
aristocratpost	-9090
beefbacfcbfbef	-9091
beginexpansion	-9092
ccessfulinspec	-9093
cdfddeebdfeeef	-9094
cdonaldsisatfi	-9095
cnncombusiness	-9096
comnewsjudgere	-9097
comstockstobuy	-9098
dividendincome	-9099
eeebcbadfbabcc	-9100
everytimeicash	-9101
fdapanelrecomm	-9102
featureemblogo	-9103
featureyoutube	-9104
febadaedebafed	-9105
ffeenetfeature	-9106
forcemicrosoft	-9107
generaloutlook	-9108
hicorangedrink	-9109
inselecteurope	-9110
inyurlcomyelxy	-9111
inyurlcomyqtjs	-9112
kbouzuatyampts	-9113
krsluogtwitter	-9114
marketbeatcomd	-9115
marketbeatcomp	-9116
marketbeatcoms	-9117
mcdpqregichart	-9118
mediabiohitech	-9119
newswirecanews	-9120
ofglobaleconom	-9121
opsamppgainers	-9122
oramphlenampsp	-9123
otcdynamicscom	-9124
podscomcompany	-9125
stockscreenert	-9126
thewaywehandle	-9127
tradescomtrade	-9128
uaxyjcbliampts	-9129
voxcomplatform	-9130
wallstreetpost	-9131
▁aheaddividend	-9132
▁alphaandomega	-9133
▁automatically	-9134
▁berniesanders	-9135
▁billiondollar	-9136
▁bootsmcdingle	-9137
▁communication	-9138
▁consolidating	-9139
▁developmental	-9140
▁entertainment	-9141
▁fastfoodstock	-9142
▁foreignearned	-9143
▁fredricklamar	-9144
▁functionality	-9145
▁httpdlvritrsb	-9146
▁httpepsshdmcd	-9147
▁httpsoptionsf	-9148
▁httpstaygreen	-9149
▁httpstcoowfes	-9150
▁httpsuqrtorlx	-9151
▁imprisontrump	-9152
▁inchartitrust	-9153
▁inexperienced	-9154
▁magnificently	-9155
▁mathemeatloaf	-9156
▁mcchickenwing	-9157
▁mcdonaldscorp	-9158
▁miscellaneous	-9159
▁multinational	-9160
▁nicelylooking	-9161
▁notifications	-9162
▁opportunities	-9163
▁peacebyinches	-9164
▁peanutbuttter	-9165
▁povertyrelief	-9166
▁profitability	-9167
▁quotcheapquot	-9168
▁saturdayvibes	-9169
▁savethemovies	-9170
▁scratcherwhat	-9171
▁silversqueeze	-9172
▁teachamanfish	-9173
▁transitioning	-9174
▁unexplainable	-9175
▁unitedtraders	-9176
▁vantagealerts	-9177
▁wallstchatter	-9178
▁wealthbuilder	-9179
abcfaaeecafdaaa	-9180
alltimepeaktheb	-9181
andwichestomenu	-9182
beyondmeatanaly	-9183
buoiqpjxiaampts	-9184
ccenregisterref	-9185
ceoinsurrection	-9186
channelmrghetto	-9187
comfastfoodmcdo	-9188
commondaysstock	-9189
comnewsblogpost	-9190
comvideoanalyst	-9191
contributorstop	-9192
corporationpost	-9193
dfosqqqmtwitter	-9194
dividendstocksf	-9195
earningsampidcp	-9196
ebbeabdebcedefd	-9197
efcdfaeeadcbfcc	-9198
elistofdividend	-9199
fcadddeeacbccac	-9200
fcfaeecdcaeefef	-9201
ffdacaababeebee	-9202
foremergencyuse	-9203
imumwageplanalp	-9204
individualtweet	-9205
inyurlcomyawsze	-9206
inyurlcomycstqd	-9207
inyurlcomygnhux	-9208
inyurlcomyydsop	-9209
inyurlcomyywlee	-9210
kontrolbiocloud	-9211
kvvbtppqtwitter	-9212
ldrxdcslrgampts	-9213
mcdonaldsreport	-9214
mlandownerwhile	-9215
nzdekgdlguampts	-9216
odaystopcallson	-9217
qfamputmtermmcd	-9218
redtogreendaily	-9219
restaurantsquot	-9220
sbenefitingfrom	-9221
sinthepremarket	-9222
startradioampab	-9223
stockssettosoar	-9224
stradersdiscuss	-9225
tippedtoseehist	-9226
xrrkxggyykampts	-9227
ycoctzevqsampts	-9228
▁brokeandhungry	-9229
▁collaborations	-9230
▁continuaciones	-9231
▁cryptocurrency	-9232
▁cupsstrawslids	-9233
▁dividendstocks	-9234
▁drstoxxtrading	-9235
▁everytimeicash	-9236
▁httpdlvritrpwc	-9237
▁httpspubwebull	-9238
▁httpswwwnasdaq	-9239
▁httpswwwperisc	-9240
▁httpswwwvhinny	-9241
▁hyperinflation	-9242
▁limitededition	-9243
▁mcribmcripping	-9244
▁mobileordering	-9245
▁nowheretrading	-9246
▁pharmaceutical	-9247
▁quotadvicequot	-9248
▁quotdeluxequot	-9249
▁quotgoldenquot	-9250
▁simultaneously	-9251
▁stockoverwrite	-9252
▁suggestionplan	-9253
▁underperformed	-9254
▁weyerhaeuserwy	-9255
airlinesgamestop	-9256
allelinvestments	-9257
alphaseoftesting	-9258
aoeyqrabuysignal	-9259
beforebuyingthis	-9260
decemberamptwitt	-9261
earningswhispers	-9262
earxodmcnlvphtml	-9263
erimpressiontrue	-9264
fcceddddefcffabd	-9265
ffceacabaadbfdee	-9266
fromanewstimulus	-9267
groupisabuyingop	-9268
ignsdefinitiveag	-9269
incappointspeter	-9270
inepicombmueller	-9271
invdagwwccivcnpt	-9272
inyurlcomycbfxer	-9273
inyurlcomyqcxjfn	-9274
inyurlcomyyaxkuw	-9275
inyurlcomyyfxxwd	-9276
isabetterbuypost	-9277
lowtxtcbpfgacglb	-9278
mcdmcdonaldscorp	-9279
mcdonaldsgamesto	-9280
mcdonaldssaysitp	-9281
mcdonaldswaitfor	-9282
mcdstockanalysis	-9283
opetvmisstradekv	-9284
positioninconsum	-9285
returnsindexhtml	-9286
revenuesbeatpost	-9287
ryancohenstatuss	-9288
sfaceanotherhead	-9289
sflashalertmehmq	-9290
sflashalertmeszy	-9291
sflashalertmeuwb	-9292
stoaustraliahtml	-9293
stradercompostma	-9294
thorizoncomuaspu	-9295
tradesfortuesday	-9296
updatejanfebpost	-9297
vsfrompridegroup	-9298
windwithbidenmin	-9299
xpocomwallstreet	-9300
▁analyzeandtrade	-9301
▁basicindustries	-9302
▁betterportfolio	-9303
▁bubbledetective	-9304
▁engineeringjust	-9305
▁hfrfromthefloor	-9306
▁httpdlvritrnwmh	-9307
▁httpdlvritrphts	-9308
▁httpdlvritrpncq	-9309
▁httpdlvritrrkvb	-9310
▁httpdlvritrrpdb	-9311
▁httpsbitlyjuvex	-9312
▁httpsbitlynvqdm	-9313
▁httpsbitlyqojhd	-9314
▁httpsbitlyqueaf	-9315
▁httpscheddarcom	-9316
▁httpsmoneyyahoo	-9317
▁httpswwwbinance	-9318
▁httpswwwvicecom	-9319
▁httpwwwestimize	-9320
▁idonteatbigmacs	-9321
▁ingredientsquot	-9322
▁lfgggggggfggggg	-9323
▁pandemicinduced	-9324
▁quotclassicquot	-9325
▁quotmcplantquot	-9326
▁quotquietlyquot	-9327
▁recommendations	-9328
▁restaurantquick	-9329
▁serviceordering	-9330
▁stockmarketnews	-9331
▁stockscurrently	-9332
▁technologythink	-9333
▁tradewithalerts	-9334
▁underperforming	-9335
▁unprecedentedly	-9336
▁vegetarianvegan	-9337
▁wendysbreakfast	-9338
aq	-9339
av	-9340
bh	-9341
bk	-9342
bl	-9343
bv	-9344
cm	-9345
cq	-9346
dg	-9347
dm	-9348
dp	-9349
dt	-9350
dv	-9351
dw	-9352
dy	-9353
eo	-9354
ep	-9355
eq	-9356
eu	-9357
ev	-9358
fg	-9359
fk	-9360
fy	-9361
gb	-9362
gd	-9363
gi	-9364
gj	-9365
gv	-9366
hi	-9367
hm	-9368
hn	-9369
hr	-9370
hv	-9371
hx	-9372
ij	-9373
iw	-9374
ja	-9375
jg	-9376
jm	-9377
jn	-9378
jr	-9379
js	-9380
kh	-9381
kl	-9382
km	-9383
kp	-9384
ky	-9385
lj	-9386
lm	-9387
lr	-9388
ls	-9389
lz	-9390
md	-9391
mf	-9392
mu	-9393
nh	-9394
ni	-9395
nm	-9396
np	-9397
nq	-9398
ns	-9399
bq	-9400
ih	-9401
iu	-9402
jy	-9403
mw	-9404
mz	-9405
ob	-9406
oc	-9407
oe	-9408
oh	-9409
oi	-9410
ov	-9411
ox	-9412
pa	-9413
pc	-9414
pd	-9415
pg	-9416
pk	-9417
pm	-9418
pn	-9419
pw	-9420
qa	-9421
rb	-9422
rc	-9423
rf	-9424
rk	-9425
rr	-9426
rs	-9427
sd	-9428
sn	-9429
sq	-9430
sy	-9431
tb	-9432
tg	-9433
tp	-9434
ua	-9435
uc	-9436
uf	-9437
ui	-9438
uo	-9439
uu	-9440
vd	-9441
vg	-9442
vj	-9443
vl	-9444
vn	-9445
vp	-9446
wb	-9447
wl	-9448
wo	-9449
wt	-9450
wx	-9451
xc	-9452
xd	-9453
xf	-9454
xi	-9455
xm	-9456
ya	-9457
yb	-9458
yc	-9459
yd	-9460
ye	-9461
yi	-9462
yk	-9463
yo	-9464
yp	-9465
yr	-9466
yt	-9467
yu	-9468
yw	-9469
zd	-9470
zi	-9471
zm	-9472
aal	-9473
abs	-9474
aeb	-9475
afm	-9476
aig	-9477
ala	-9478
alf	-9479
alg	-9480
alt	-9481
alv	-9482
anb	-9483
anm	-9484
anp	-9485
anz	-9486
apn	-9487
apo	-9488
are	-9489
aro	-9490
asl	-9491
ata	-9492
atc	-9493
atp	-9494
att	-9495
ayq	-9496
bad	-9497
bbe	-9498
bcd	-9499
bm	-9500
cs	-9501
dk	-9502
hb	-9503
hw	-9504
kq	-9505
lc	-9506
nl	-9507
oz	-9508
qb	-9509
uk	-9510
vv	-9511
xe	-9512
yv	-9513
zg	-9514
alw	-9515
anu	-9516
arc	-9517
beg	-9518
bor	-9519
bsc	-9520
bwy	-9521
cda	-9522
cdh	-9523
cdi	-9524
cdl	-9525
cdv	-9526
cdw	-9527
cea	-9528
cee	-9529
ceh	-9530
ckg	-9531
ckh	-9532
ckw	-9533
clo	-9534
cou	-9535
cpb	-9536
csh	-9537
cte	-9538
ctf	-9539
dab	-9540
dal	-9541
dam	-9542
dce	-9543
dee	-9544
der	-9545
dli	-9546
dom	-9547
dou	-9548
dow	-9549
dsb	-9550
dsg	-9551
dtn	-9552
dul	-9553
eal	-9554
ean	-9555
ece	-9556
edn	-9557
eer	-9558
elm	-9559
emb	-9560
eom	-9561
eon	-9562
erc	-9563
erq	-9564
erv	-9565
erw	-9566
esg	-9567
ete	-9568
ewb	-9569
ewc	-9570
eyw	-9571
fal	-9572
fbc	-9573
fcd	-9574
fdi	-9575
fid	-9576
flo	-9577
fri	-9578
gel	-9579
ggl	-9580
gis	-9581
gra	-9582
gti	-9583
hce	-9584
hds	-9585
hee	-9586
hew	-9587
hin	-9588
hon	-9589
hte	-9590
ien	-9591
ift	-9592
ima	-9593
inm	-9594
inp	-9595
inr	-9596
inw	-9597
ioc	-9598
ipe	-9599
bg	-9600
bz	-9601
gc	-9602
ii	-9603
ix	-9604
jc	-9605
jd	-9606
kc	-9607
lg	-9608
lk	-9609
mk	-9610
mv	-9611
qc	-9612
qe	-9613
rj	-9614
sv	-9615
tk	-9616
tv	-9617
tz	-9618
wp	-9619
wu	-9620
xn	-9621
xw	-9622
zj	-9623
aab	-9624
aht	-9625
cce	-9626
dps	-9627
edc	-9628
edp	-9629
enc	-9630
esq	-9631
fet	-9632
hau	-9633
hod	-9634
ilv	-9635
iri	-9636
irm	-9637
isd	-9638
itf	-9639
kis	-9640
kop	-9641
ksc	-9642
kth	-9643
laa	-9644
lap	-9645
las	-9646
lat	-9647
lav	-9648
lec	-9649
lef	-9650
lev	-9651
lex	-9652
llc	-9653
lor	-9654
lra	-9655
lry	-9656
mad	-9657
max	-9658
mci	-9659
mef	-9660
mei	-9661
mel	-9662
meu	-9663
mez	-9664
mis	-9665
mme	-9666
mnd	-9667
mpc	-9668
mpd	-9669
mpm	-9670
mpu	-9671
mpz	-9672
mre	-9673
nar	-9674
nat	-9675
nda	-9676
ndt	-9677
ngo	-9678
nin	-9679
nme	-9680
nol	-9681
nre	-9682
nys	-9683
oar	-9684
oat	-9685
oce	-9686
ocu	-9687
odw	-9688
oin	-9689
oll	-9690
olz	-9691
omi	-9692
omw	-9693
omx	-9694
onb	-9695
onr	-9696
onw	-9697
ook	-9698
oom	-9699
bx	-9700
dz	-9701
fh	-9702
fq	-9703
hf	-9704
hk	-9705
hz	-9706
lh	-9707
ln	-9708
oj	-9709
oq	-9710
qt	-9711
rq	-9712
sj	-9713
sz	-9714
tx	-9715
uz	-9716
vq	-9717
xa	-9718
xh	-9719
xk	-9720
yq	-9721
aed	-9722
alu	-9723
asi	-9724
ckc	-9725
dse	-9726
hre	-9727
ics	-9728
ool	-9729
opl	-9730
orb	-9731
orc	-9732
orl	-9733
ost	-9734
otf	-9735
ots	-9736
ott	-9737
ouz	-9738
owa	-9739
owb	-9740
pan	-9741
pdd	-9742
pha	-9743
ppr	-9744
psc	-9745
pse	-9746
psi	-9747
psn	-9748
psw	-9749
psy	-9750
pti	-9751
qiq	-9752
qre	-9753
qtj	-9754
qui	-9755
raf	-9756
rai	-9757
raz	-9758
rce	-9759
reh	-9760
rei	-9761
rek	-9762
rel	-9763
rem	-9764
rig	-9765
rik	-9766
rim	-9767
rio	-9768
rip	-9769
riq	-9770
rly	-9771
rma	-9772
roc	-9773
roi	-9774
roo	-9775
rri	-9776
rsi	-9777
rut	-9778
rve	-9779
rvy	-9780
ryn	-9781
sar	-9782
sem	-9783
ses	-9784
shx	-9785
som	-9786
sre	-9787
srn	-9788
sse	-9789
stf	-9790
tai	-9791
tcd	-9792
tck	-9793
tha	-9794
thl	-9795
thq	-9796
thx	-9797
tia	-9798
tig	-9799
gp	-9800
gx	-9801
hq	-9802
jh	-9803
mh	-9804
pj	-9805
pv	-9806
qm	-9807
qr	-9808
rh	-9809
vb	-9810
vc	-9811
yj	-9812
zp	-9813
zv	-9814
anl	-9815
ccd	-9816
cdt	-9817
cin	-9818
dds	-9819
din	-9820
dsc	-9821
eve	-9822
fon	-9823
hou	-9824
inl	-9825
itr	-9826
oco	-9827
oly	-9828
pel	-9829
rak	-9830
rme	-9831
tll	-9832
tom	-9833
ton	-9834
tqu	-9835
tse	-9836
tst	-9837
tth	-9838
tti	-9839
ttp	-9840
tts	-9841
ttw	-9842
uar	-9843
uat	-9844
uen	-9845
uke	-9846
umw	-9847
ura	-9848
usp	-9849
ute	-9850
uth	-9851
van	-9852
vat	-9853
vec	-9854
veg	-9855
vib	-9856
vri	-9857
wal	-9858
was	-9859
whe	-9860
won	-9861
wvi	-9862
xes	-9863
xgg	-9864
xle	-9865
xtr	-9866
yan	-9867
yas	-9868
yon	-9869
yor	-9870
yru	-9871
yst	-9872
yti	-9873
zal	-9874
zev	-9875
zis	-9876
zom	-9877
zon	-9878
▁ay	-9879
▁bd	-9880
▁bs	-9881
▁cf	-9882
▁ci	-9883
▁cm	-9884
▁cn	-9885
▁cs	-9886
▁df	-9887
▁ed	-9888
▁ei	-9889
▁eq	-9890
▁ew	-9891
▁fd	-9892
▁fk	-9893
▁fn	-9894
▁gh	-9895
▁hf	-9896
▁hm	-9897
▁lr	-9898
▁mb	-9899
ej	-9900
fj	-9901
jf	-9902
jj	-9903
jl	-9904
kj	-9905
qn	-9906
qp	-9907
sx	-9908
tq	-9909
vu	-9910
wg	-9911
wq	-9912
wz	-9913
xg	-9914
xq	-9915
xv	-9916
zb	-9917
zc	-9918
zf	-9919
zk	-9920
zs	-9921
zw	-9922
alb	-9923
bal	-9924
chm	-9925
ego	-9926
erh	-9927
ira	-9928
ita	-9929
kid	-9930
oan	-9931
olf	-9932
onu	-9933
oul	-9934
psl	-9935
pww	-9936
rex	-9937
rou	-9938
upp	-9939
uti	-9940
yra	-9941
▁aa	-9942
▁dp	-9943
▁mg	-9944
▁mn	-9945
▁mv	-9946
▁na	-9947
▁ns	-9948
▁pb	-9949
▁pf	-9950
▁pp	-9951
▁py	-9952
▁pz	-9953
▁qs	-9954
▁sg	-9955
▁tq	-9956
▁tu	-9957
▁vy	-9958
▁wm	-9959
▁wr	-9960
abac	-9961
abou	-9962
acbe	-9963
acro	-9964
adcb	-9965
adee	-9966
aden	-9967
ader	-9968
afad	-9969
afee	-9970
aila	-9971
aleh	-9972
alks	-9973
alre	-9974
alst	-9975
alys	-9976
amou	-9977
ampa	-9978
ampc	-9979
ampi	-9980
anch	-9981
andc	-9982
anen	-9983
anis	-9984
anit	-9985
anpo	-9986
anti	-9987
antu	-9988
anve	-9989
anyw	-9990
apit	-9991
aral	-9992
arks	-9993
arou	-9994
arre	-9995
artm	-9996
ayab	-9997
ayer	-9998
ayth	-9999
alx	-10000
atw	-10001
bli	-10002
cdb	-10003
cdc	-10004
cde	-10005
cdm	-10006
cdn	-10007
cdo	-10008
cdp	-10009
cdq	-10010
cds	-10011
cdu	-10012
cdy	-10013
chp	-10014
cro	-10015
dsi	-10016
dsj	-10017
ecd	-10018
esy	-10019
ewp	-10020
idc	-10021
klo	-10022
mpa	-10023
odc	-10024
omd	-10025
omz	-10026
onl	-10027
pqu	-10028
rer	-10029
tcx	-10030
tib	-10031
win	-10032
xdc	-10033
yai	-10034
▁bf	-10035
▁cv	-10036
▁hz	-10037
▁mq	-10038
▁mt	-10039
▁sb	-10040
bebb	-10041
beed	-10042
befo	-10043
caaf	-10044
cbdd	-10045
cdaf	-10046
cdem	-10047
cdin	-10048
cdon	-10049
cecb	-10050
cein	-10051
cemb	-10052
cere	-10053
cess	-10054
chal	-10055
chli	-10056
civc	-10057
ckbu	-10058
cket	-10059
ckon	-10060
ckro	-10061
coin	-10062
coli	-10063
comc	-10064
crac	-10065
ctur	-10066
daca	-10067
dcom	-10068
dent	-10069
ders	-10070
dien	-10071
docx	-10072
dsti	-10073
eart	-10074
ebig	-10075
ecom	-10076
edar	-10077
edbe	-10078
edis	-10079
endi	-10080
enew	-10081
enin	-10082
enri	-10083
ento	-10084
entt	-10085
envi	-10086
eral	-10087
eran	-10088
erap	-10089
eras	-10090
eriv	-10091
erly	-10092
ermo	-10093
erra	-10094
ersd	-10095
ersm	-10096
erta	-10097
esan	-10098
eson	-10099
aon	-10100
bre	-10101
cas	-10102
ckb	-10103
cox	-10104
dre	-10105
ebg	-10106
ect	-10107
env	-10108
fre	-10109
hig	-10110
iid	-10111
inb	-10112
inn	-10113
ire	-10114
itq	-10115
jar	-10116
jon	-10117
kfs	-10118
kon	-10119
lei	-10120
leu	-10121
lif	-10122
lre	-10123
mep	-10124
mou	-10125
mti	-10126
onf	-10127
onh	-10128
oni	-10129
onj	-10130
onm	-10131
ono	-10132
onp	-10133
onv	-10134
ore	-10135
oun	-10136
pce	-10137
reo	-10138
rep	-10139
rre	-10140
vys	-10141
yre	-10142
▁aw	-10143
▁sn	-10144
▁ss	-10145
alri	-10146
alty	-10147
ateg	-10148
ccad	-10149
ente	-10150
esst	-10151
esth	-10152
esti	-10153
etre	-10154
evel	-10155
ever	-10156
ewar	-10157
fcom	-10158
fece	-10159
fers	-10160
ffab	-10161
ffad	-10162
ffce	-10163
fins	-10164
ford	-10165
game	-10166
gand	-10167
geal	-10168
geon	-10169
gges	-10170
gggf	-10171
ggre	-10172
hing	-10173
icku	-10174
icti	-10175
idas	-10176
idew	-10177
idge	-10178
idly	-10179
idri	-10180
idro	-10181
igen	-10182
igge	-10183
igit	-10184
imen	-10185
imit	-10186
immy	-10187
imon	-10188
inal	-10189
ined	-10190
ingg	-10191
ingm	-10192
ingo	-10193
ingt	-10194
ingu	-10195
ingw	-10196
intc	-10197
inti	-10198
ints	-10199
acs	-10200
alc	-10201
ald	-10202
ali	-10203
alm	-10204
alr	-10205
apz	-10206
asd	-10207
did	-10208
eea	-10209
ein	-10210
eop	-10211
esd	-10212
esr	-10213
fbd	-10214
fli	-10215
igb	-10216
inu	-10217
ive	-10218
kre	-10219
nal	-10220
oal	-10221
pps	-10222
rej	-10223
reu	-10224
rin	-10225
sal	-10226
seg	-10227
seq	-10228
stu	-10229
tal	-10230
tin	-10231
ttm	-10232
umf	-10233
uor	-10234
vee	-10235
wle	-10236
wre	-10237
zin	-10238
zwy	-10239
▁wd	-10240
aeef	-10241
alin	-10242
alli	-10243
alon	-10244
anan	-10245
anle	-10246
cine	-10247
enta	-10248
gday	-10249
iefj	-10250
ingj	-10251
iond	-10252
irus	-10253
ista	-10254
isto	-10255
iver	-10256
jmed	-10257
jorc	-10258
kean	-10259
kees	-10260
keth	-10261
late	-10262
lave	-10263
ldly	-10264
ldve	-10265
leed	-10266
lesf	-10267
liev	-10268
lled	-10269
llin	-10270
llio	-10271
llit	-10272
llll	-10273
llsh	-10274
mack	-10275
mcda	-10276
mcdh	-10277
mcdm	-10278
mcdu	-10279
mcdw	-10280
memb	-10281
mers	-10282
mone	-10283
mple	-10284
nand	-10285
nate	-10286
ncec	-10287
nfil	-10288
niti	-10289
nmcd	-10290
oamp	-10291
ocki	-10292
ocko	-10293
ocku	-10294
ogle	-10295
oguh	-10296
olor	-10297
oman	-10298
omar	-10299
abz	-10300
bce	-10301
bin	-10302
bou	-10303
ckr	-10304
elo	-10305
erd	-10306
jin	-10307
jis	-10308
ker	-10309
lit	-10310
mla	-10311
opi	-10312
pin	-10313
ply	-10314
pus	-10315
pxt	-10316
pyt	-10317
raw	-10318
rnd	-10319
ser	-10320
var	-10321
vem	-10322
wer	-10323
wou	-10324
xst	-10325
yin	-10326
▁ao	-10327
▁bh	-10328
▁bm	-10329
▁cp	-10330
▁ct	-10331
▁uv	-10332
▁wf	-10333
aler	-10334
bile	-10335
bser	-10336
cely	-10337
ckst	-10338
comt	-10339
dsap	-10340
eedd	-10341
erin	-10342
gere	-10343
inin	-10344
itre	-10345
keou	-10346
luen	-10347
lyqu	-10348
mmmm	-10349
omat	-10350
omch	-10351
omin	-10352
omor	-10353
omst	-10354
omth	-10355
onai	-10356
onam	-10357
ongb	-10358
onge	-10359
onin	-10360
onit	-10361
onna	-10362
onon	-10363
onor	-10364
onre	-10365
onse	-10366
onte	-10367
open	-10368
opic	-10369
opid	-10370
orab	-10371
oran	-10372
orce	-10373
orde	-10374
orge	-10375
orli	-10376
orly	-10377
ormf	-10378
oron	-10379
orts	-10380
ortv	-10381
otcd	-10382
ouch	-10383
oure	-10384
outb	-10385
owab	-10386
owat	-10387
owen	-10388
pcom	-10389
perb	-10390
perm	-10391
ping	-10392
pleu	-10393
poli	-10394
pose	-10395
psee	-10396
psen	-10397
pswh	-10398
qear	-10399
afe	-10400
anv	-10401
ati	-10402
cis	-10403
cko	-10404
cti	-10405
erb	-10406
erg	-10407
erk	-10408
erl	-10409
erp	-10410
err	-10411
eti	-10412
ffb	-10413
ipu	-10414
kep	-10415
lid	-10416
lti	-10417
mpf	-10418
nan	-10419
nti	-10420
obe	-10421
oma	-10422
omy	-10423
otb	-10424
ove	-10425
pop	-10426
qer	-10427
rti	-10428
shi	-10429
sti	-10430
til	-10431
tip	-10432
uic	-10433
vps	-10434
zde	-10435
▁aq	-10436
▁dk	-10437
atab	-10438
comf	-10439
erat	-10440
erre	-10441
erti	-10442
esaf	-10443
esqu	-10444
iant	-10445
meic	-10446
odis	-10447
oull	-10448
oust	-10449
qual	-10450
quan	-10451
quor	-10452
rabu	-10453
raid	-10454
rave	-10455
read	-10456
rece	-10457
reck	-10458
redc	-10459
reen	-10460
rela	-10461
rele	-10462
relo	-10463
rere	-10464
reti	-10465
rgin	-10466
riat	-10467
ribm	-10468
ribu	-10469
rich	-10470
rien	-10471
rint	-10472
rise	-10473
riti	-10474
roct	-10475
role	-10476
roll	-10477
room	-10478
rose	-10479
roth	-10480
ruct	-10481
rump	-10482
sare	-10483
secu	-10484
seht	-10485
sele	-10486
seor	-10487
sere	-10488
sett	-10489
shal	-10490
shdi	-10491
sing	-10492
sisc	-10493
smak	-10494
sold	-10495
sour	-10496
ssed	-10497
stay	-10498
stct	-10499
bat	-10500
ckt	-10501
cku	-10502
cky	-10503
dcb	-10504
dst	-10505
ede	-10506
ena	-10507
ewa	-10508
gst	-10509
hor	-10510
hst	-10511
hti	-10512
htn	-10513
idg	-10514
ken	-10515
kti	-10516
lst	-10517
mst	-10518
pst	-10519
rst	-10520
sst	-10521
stc	-10522
std	-10523
stl	-10524
stm	-10525
str	-10526
tir	-10527
tiz	-10528
wst	-10529
wti	-10530
xai	-10531
xdo	-10532
zen	-10533
▁dt	-10534
▁du	-10535
▁dy	-10536
▁nf	-10537
▁rt	-10538
alfo	-10539
alou	-10540
atti	-10541
cule	-10542
fbcd	-10543
fter	-10544
iden	-10545
inst	-10546
ison	-10547
omre	-10548
onar	-10549
onst	-10550
orst	-10551
orti	-10552
outp	-10553
qcom	-10554
sist	-10555
sten	-10556
stes	-10557
stge	-10558
stim	-10559
stin	-10560
stmo	-10561
stog	-10562
stom	-10563
stor	-10564
stre	-10565
stst	-10566
stti	-10567
stwi	-10568
tcri	-10569
tens	-10570
that	-10571
then	-10572
thly	-10573
thre	-10574
thur	-10575
tial	-10576
ticl	-10577
tipp	-10578
tire	-10579
tist	-10580
titi	-10581
titt	-10582
ture	-10583
twee	-10584
type	-10585
uald	-10586
udge	-10587
uell	-10588
umpa	-10589
umpz	-10590
urno	-10591
urth	-10592
uspe	-10593
utmc	-10594
utms	-10595
utog	-10596
vals	-10597
vate	-10598
verp	-10599
ani	-10600
ano	-10601
arp	-10602
bol	-10603
bst	-10604
cbp	-10605
cel	-10606
cst	-10607
dsq	-10608
fan	-10609
han	-10610
iff	-10611
kan	-10612
kst	-10613
lan	-10614
lig	-10615
nis	-10616
oov	-10617
oru	-10618
pac	-10619
psb	-10620
rie	-10621
san	-10622
sou	-10623
stg	-10624
stq	-10625
tan	-10626
uan	-10627
ull	-10628
wce	-10629
zan	-10630
▁hn	-10631
▁hr	-10632
▁ht	-10633
alan	-10634
anal	-10635
cdst	-10636
cmcd	-10637
ctal	-10638
eech	-10639
ersk	-10640
inan	-10641
inch	-10642
inex	-10643
isap	-10644
meio	-10645
pend	-10646
pone	-10647
psse	-10648
radi	-10649
raps	-10650
rdps	-10651
rean	-10652
ssly	-10653
ston	-10654
tfli	-10655
tutm	-10656
utor	-10657
verr	-10658
vese	-10659
vidv	-10660
viss	-10661
volu	-10662
went	-10663
xter	-10664
yend	-10665
yest	-10666
ymcd	-10667
yolo	-10668
yoti	-10669
yout	-10670
▁ain	-10671
▁als	-10672
▁ane	-10673
▁ano	-10674
▁aon	-10675
▁bal	-10676
▁beh	-10677
▁ber	-10678
▁bin	-10679
▁bls	-10680
▁bod	-10681
▁bom	-10682
▁bre	-10683
▁cam	-10684
▁car	-10685
▁cas	-10686
▁caz	-10687
▁cen	-10688
▁cha	-10689
▁chi	-10690
▁cho	-10691
▁chu	-10692
▁chw	-10693
▁cmc	-10694
▁cop	-10695
▁dar	-10696
▁der	-10697
▁dev	-10698
▁dif	-10699
anw	-10700
ban	-10701
ckd	-10702
cke	-10703
cki	-10704
ckj	-10705
ckl	-10706
ckm	-10707
ckn	-10708
ckp	-10709
ckq	-10710
ckx	-10711
dan	-10712
den	-10713
dsy	-10714
eck	-10715
eid	-10716
igm	-10717
ipp	-10718
izz	-10719
jim	-10720
leg	-10721
mpe	-10722
mqu	-10723
ose	-10724
sme	-10725
sor	-10726
ten	-10727
uck	-10728
vck	-10729
▁oc	-10730
alke	-10731
anin	-10732
apne	-10733
aret	-10734
ayti	-10735
bver	-10736
cdan	-10737
ceor	-10738
ckan	-10739
ckin	-10740
ckti	-10741
coma	-10742
htss	-10743
idon	-10744
inga	-10745
lown	-10746
mper	-10747
mpke	-10748
ockx	-10749
rain	-10750
reas	-10751
ride	-10752
rior	-10753
rist	-10754
roup	-10755
stck	-10756
stle	-10757
tick	-10758
vssh	-10759
▁doj	-10760
▁don	-10761
▁dre	-10762
▁dru	-10763
▁dte	-10764
▁emp	-10765
▁exx	-10766
▁fen	-10767
▁fid	-10768
▁flt	-10769
▁fom	-10770
▁fqu	-10771
▁fts	-10772
▁gal	-10773
▁gan	-10774
▁gar	-10775
▁gat	-10776
▁ger	-10777
▁gim	-10778
▁gla	-10779
▁gti	-10780
▁gul	-10781
▁han	-10782
▁haw	-10783
▁hee	-10784
▁hod	-10785
▁hor	-10786
▁hou	-10787
▁ike	-10788
▁ine	-10789
▁ini	-10790
▁inn	-10791
▁jap	-10792
▁jon	-10793
▁lat	-10794
▁lez	-10795
▁loy	-10796
▁maa	-10797
▁mcc	-10798
▁mck	-10799
arr	-10800
ayj	-10801
ben	-10802
dde	-10803
dsw	-10804
edt	-10805
een	-10806
enb	-10807
ene	-10808
eng	-10809
enh	-10810
eni	-10811
enj	-10812
eno	-10813
enq	-10814
enr	-10815
enw	-10816
enz	-10817
fce	-10818
har	-10819
hol	-10820
iar	-10821
idj	-10822
jen	-10823
jom	-10824
leb	-10825
len	-10826
mpt	-10827
ole	-10828
omn	-10829
rar	-10830
rot	-10831
sur	-10832
usb	-10833
war	-10834
yen	-10835
▁eg	-10836
▁wa	-10837
abch	-10838
alen	-10839
arti	-10840
atej	-10841
chid	-10842
enre	-10843
hile	-10844
idst	-10845
nowp	-10846
omop	-10847
onen	-10848
onus	-10849
orme	-10850
owle	-10851
ring	-10852
roce	-10853
stht	-10854
tcom	-10855
tien	-10856
urbu	-10857
xtsh	-10858
▁chk	-10859
▁den	-10860
▁fuh	-10861
▁hen	-10862
▁mcm	-10863
▁men	-10864
▁mig	-10865
▁mla	-10866
▁mur	-10867
▁nak	-10868
▁nas	-10869
▁nat	-10870
▁net	-10871
▁nig	-10872
▁nop	-10873
▁num	-10874
▁nur	-10875
▁ong	-10876
▁opc	-10877
▁pan	-10878
▁pee	-10879
▁pen	-10880
▁pet	-10881
▁phu	-10882
▁ple	-10883
▁pon	-10884
▁pow	-10885
▁pra	-10886
▁pst	-10887
▁pub	-10888
▁pzz	-10889
▁rea	-10890
▁rem	-10891
▁rep	-10892
▁rer	-10893
▁reu	-10894
▁rok	-10895
▁san	-10896
▁sap	-10897
▁sar	-10898
▁sco	-10899
arf	-10900
arm	-10901
arn	-10902
arq	-10903
arv	-10904
arx	-10905
car	-10906
dlg	-10907
ebu	-10908
esn	-10909
fle	-10910
igc	-10911
ipk	-10912
ppl	-10913
riv	-10914
uce	-10915
yar	-10916
▁gc	-10917
▁of	-10918
▁tc	-10919
▁tg	-10920
▁tn	-10921
▁tt	-10922
▁tx	-10923
aran	-10924
arin	-10925
arst	-10926
ayst	-10927
chst	-10928
ctse	-10929
daym	-10930
dsan	-10931
eeds	-10932
enar	-10933
entr	-10934
ince	-10935
inde	-10936
inid	-10937
mpin	-10938
ockr	-10939
once	-10940
orre	-10941
ouve	-10942
pran	-10943
raci	-10944
rosk	-10945
rows	-10946
russ	-10947
sfak	-10948
star	-10949
verb	-10950
ycom	-10951
yhau	-10952
▁doo	-10953
▁fis	-10954
▁gen	-10955
▁ima	-10956
▁nor	-10957
▁sea	-10958
▁ses	-10959
▁sev	-10960
▁sog	-10961
▁son	-10962
▁sou	-10963
▁stu	-10964
▁tan	-10965
▁tar	-10966
▁ter	-10967
▁tes	-10968
▁thk	-10969
▁thp	-10970
▁tin	-10971
▁tip	-10972
▁tod	-10973
▁tou	-10974
▁ttw	-10975
▁une	-10976
▁ver	-10977
▁wee	-10978
▁won	-10979
▁wou	-10980
▁yor	-10981
acaba	-10982
achie	-10983
ackwh	-10984
agepl	-10985
ahtml	-10986
ailyn	-10987
aimon	-10988
alout	-10989
ample	-10990
analp	-10991
andem	-10992
andow	-10993
andro	-10994
aning	-10995
anker	-10996
antod	-10997
antum	-10998
anymo	-10999
agg	-11000
aym	-11001
cef	-11002
cem	-11003
ceq	-11004
cet	-11005
cey	-11006
chq	-11007
dnt	-11008
fly	-11009
hri	-11010
igd	-11011
lce	-11012
lda	-11013
ldl	-11014
mce	-11015
nel	-11016
ooc	-11017
orr	-11018
psp	-11019
sce	-11020
ssm	-11021
vow	-11022
xce	-11023
▁fc	-11024
▁fh	-11025
▁fq	-11026
▁fr	-11027
▁nd	-11028
▁ng	-11029
▁nk	-11030
▁nl	-11031
▁nn	-11032
▁nt	-11033
aile	-11034
alds	-11035
alor	-11036
alte	-11037
arri	-11038
cean	-11039
cest	-11040
chce	-11041
ersh	-11042
icky	-11043
icom	-11044
ielc	-11045
ipul	-11046
lace	-11047
lipp	-11048
olks	-11049
omaf	-11050
onig	-11051
oole	-11052
psop	-11053
reig	-11054
swee	-11055
tent	-11056
ttps	-11057
vidu	-11058
▁bun	-11059
▁fal	-11060
▁mce	-11061
▁mco	-11062
▁tce	-11063
akers	-11064
ampli	-11065
artre	-11066
aryid	-11067
aseor	-11068
asten	-11069
astfo	-11070
astht	-11071
atbig	-11072
atere	-11073
atime	-11074
atosp	-11075
ature	-11076
ayout	-11077
aysit	-11078
babil	-11079
bdaaf	-11080
beamp	-11081
beatp	-11082
blede	-11083
blogw	-11084
cbfcd	-11085
cdbfb	-11086
chase	-11087
chmcd	-11088
comar	-11089
comre	-11090
comry	-11091
comse	-11092
comyq	-11093
cpbus	-11094
ctual	-11095
daeed	-11096
datej	-11097
dayth	-11098
ddabb	-11099
cle	-11100
eda	-11101
eep	-11102
ele	-11103
ell	-11104
ett	-11105
gat	-11106
goe	-11107
his	-11108
iod	-11109
iom	-11110
kat	-11111
lea	-11112
leh	-11113
lem	-11114
leo	-11115
lep	-11116
lez	-11117
llb	-11118
lle	-11119
nle	-11120
odi	-11121
omf	-11122
oml	-11123
omm	-11124
omr	-11125
oms	-11126
omt	-11127
omv	-11128
oum	-11129
sle	-11130
tel	-11131
vet	-11132
wom	-11133
ynd	-11134
▁ax	-11135
▁oe	-11136
alle	-11137
alsh	-11138
artn	-11139
cher	-11140
ebga	-11141
edfc	-11142
enef	-11143
ewhe	-11144
ewit	-11145
ggan	-11146
indu	-11147
lean	-11148
lear	-11149
mace	-11150
mand	-11151
ners	-11152
ockh	-11153
omcd	-11154
omti	-11155
onom	-11156
reed	-11157
rett	-11158
stat	-11159
tile	-11160
uein	-11161
▁nom	-11162
▁reo	-11163
▁sle	-11164
▁som	-11165
decom	-11166
detec	-11167
ebfac	-11168
edish	-11169
eekth	-11170
endch	-11171
endup	-11172
enger	-11173
enmcd	-11174
entin	-11175
entst	-11176
erday	-11177
erock	-11178
ersin	-11179
erspe	-11180
esand	-11181
esfor	-11182
esint	-11183
esson	-11184
estsm	-11185
faaca	-11186
febad	-11187
getco	-11188
great	-11189
hqqnt	-11190
htmla	-11191
htnow	-11192
ictiv	-11193
idens	-11194
ideos	-11195
ighti	-11196
igner	-11197
ignso	-11198
ileor	-11199
bea	-11200
csu	-11201
dor	-11202
eor	-11203
ewm	-11204
gec	-11205
lir	-11206
lyq	-11207
ods	-11208
oor	-11209
orn	-11210
orp	-11211
orw	-11212
shy	-11213
tor	-11214
tte	-11215
ttn	-11216
ttr	-11217
ttt	-11218
usu	-11219
utt	-11220
vea	-11221
vor	-11222
yla	-11223
aand	-11224
ampl	-11225
atal	-11226
atan	-11227
cham	-11228
cope	-11229
elte	-11230
eror	-11231
inor	-11232
istm	-11233
leor	-11234
mach	-11235
nual	-11236
odds	-11237
olst	-11238
ongs	-11239
orar	-11240
orin	-11241
ortt	-11242
samp	-11243
seth	-11244
shaw	-11245
trnd	-11246
tttt	-11247
umor	-11248
verv	-11249
yfor	-11250
▁bor	-11251
▁dor	-11252
▁fad	-11253
▁por	-11254
▁rec	-11255
▁rei	-11256
▁rej	-11257
▁rek	-11258
▁ren	-11259
▁tee	-11260
▁tor	-11261
acing	-11262
ajack	-11263
fcadd	-11264
imate	-11265
imumw	-11266
inavi	-11267
ingen	-11268
inger	-11269
ingon	-11270
ingsh	-11271
ingst	-11272
ingth	-11273
ining	-11274
inspe	-11275
isamp	-11276
iters	-11277
ityby	-11278
leand	-11279
lecom	-11280
leear	-11281
lemen	-11282
liamp	-11283
llars	-11284
llout	-11285
llows	-11286
lycom	-11287
mains	-11288
mpris	-11289
mquot	-11290
muell	-11291
nceht	-11292
newsb	-11293
newsh	-11294
newsn	-11295
newsw	-11296
nical	-11297
nmend	-11298
nowle	-11299
atb	-11300
atf	-11301
atl	-11302
atn	-11303
atq	-11304
atr	-11305
atv	-11306
bll	-11307
dai	-11308
dsa	-11309
ext	-11310
gep	-11311
gri	-11312
iat	-11313
iew	-11314
kru	-11315
lla	-11316
lld	-11317
llf	-11318
llg	-11319
llu	-11320
mat	-11321
oad	-11322
sat	-11323
sly	-11324
sod	-11325
tat	-11326
tri	-11327
wat	-11328
wav	-11329
xtz	-11330
yll	-11331
▁ae	-11332
▁ak	-11333
afeb	-11334
alec	-11335
alue	-11336
alyz	-11337
arat	-11338
atle	-11339
delo	-11340
enat	-11341
enda	-11342
iamp	-11343
ilis	-11344
ipot	-11345
kfor	-11346
llan	-11347
llen	-11348
merq	-11349
orat	-11350
rant	-11351
sact	-11352
tiat	-11353
urve	-11354
yros	-11355
zzzz	-11356
▁are	-11357
▁hat	-11358
▁piz	-11359
▁sat	-11360
▁sau	-11361
▁tir	-11362
atchf	-11363
confe	-11364
filap	-11365
idoti	-11366
ingre	-11367
nowpo	-11368
ocial	-11369
ockan	-11370
ockch	-11371
ockqu	-11372
ockti	-11373
ocrat	-11374
odels	-11375
odmcd	-11376
olden	-11377
oldst	-11378
olmcd	-11379
oment	-11380
ometh	-11381
oming	-11382
ondme	-11383
onent	-11384
onest	-11385
oneyy	-11386
ongbu	-11387
onged	-11388
ongly	-11389
onren	-11390
onsen	-11391
onver	-11392
ormcd	-11393
orsed	-11394
orted	-11395
orter	-11396
oulda	-11397
ouldb	-11398
ourme	-11399
aad	-11400
cci	-11401
cid	-11402
dew	-11403
ewf	-11404
ewi	-11405
gbe	-11406
iou	-11407
kou	-11408
mpl	-11409
nou	-11410
ntf	-11411
oee	-11412
otw	-11413
pis	-11414
rid	-11415
rir	-11416
rit	-11417
sfr	-11418
ueb	-11419
utu	-11420
ainf	-11421
anew	-11422
artp	-11423
atri	-11424
cevi	-11425
cing	-11426
enou	-11427
ercu	-11428
ewan	-11429
fing	-11430
gern	-11431
ignp	-11432
imce	-11433
inds	-11434
ingb	-11435
ingc	-11436
ingf	-11437
ingi	-11438
ingl	-11439
ingv	-11440
itte	-11441
jing	-11442
llou	-11443
oing	-11444
onew	-11445
opap	-11446
orit	-11447
ptoc	-11448
rian	-11449
rill	-11450
riou	-11451
roqu	-11452
ting	-11453
wwwc	-11454
▁bou	-11455
▁lon	-11456
▁pau	-11457
▁rog	-11458
cding	-11459
eedst	-11460
ffeeb	-11461
gpost	-11462
icate	-11463
ingal	-11464
ingin	-11465
itigr	-11466
oning	-11467
ontri	-11468
ourth	-11469
outst	-11470
owbig	-11471
owcom	-11472
peris	-11473
pital	-11474
pment	-11475
portf	-11476
ptics	-11477
ption	-11478
qqqmt	-11479
quiet	-11480
ransp	-11481
reann	-11482
recan	-11483
relie	-11484
ricul	-11485
ridge	-11486
rimin	-11487
ritrr	-11488
rived	-11489
rnews	-11490
rough	-11491
rustr	-11492
sebur	-11493
sform	-11494
shake	-11495
sonal	-11496
stall	-11497
stamp	-11498
stopd	-11499
chc	-11500
dfd	-11501
dla	-11502
eas	-11503
efe	-11504
eim	-11505
eou	-11506
eps	-11507
esc	-11508
fou	-11509
lou	-11510
lse	-11511
lyt	-11512
mps	-11513
nig	-11514
osu	-11515
oub	-11516
ouc	-11517
ouv	-11518
pou	-11519
psa	-11520
psf	-11521
psh	-11522
psm	-11523
pso	-11524
psq	-11525
psu	-11526
psx	-11527
umb	-11528
urf	-11529
wei	-11530
yax	-11531
▁lt	-11532
▁lx	-11533
▁rn	-11534
▁wi	-11535
▁wt	-11536
abed	-11537
andv	-11538
atsh	-11539
comd	-11540
eedh	-11541
erou	-11542
lyla	-11543
omps	-11544
oper	-11545
outt	-11546
psew	-11547
psin	-11548
rese	-11549
rins	-11550
ront	-11551
selo	-11552
sily	-11553
tran	-11554
ured	-11555
vmcd	-11556
▁dou	-11557
▁gog	-11558
▁gol	-11559
▁gou	-11560
▁gov	-11561
▁lan	-11562
▁len	-11563
▁lor	-11564
amput	-11565
esome	-11566
govar	-11567
mcdte	-11568
orman	-11569
stral	-11570
tenti	-11571
terac	-11572
terna	-11573
terno	-11574
thers	-11575
theta	-11576
tiate	-11577
timef	-11578
tionb	-11579
tionc	-11580
tionf	-11581
tionp	-11582
tionw	-11583
tivea	-11584
tterp	-11585
tting	-11586
ttmcd	-11587
ttoso	-11588
txtcb	-11589
ummer	-11590
umpzz	-11591
utive	-11592
vecom	-11593
veget	-11594
veral	-11595
verco	-11596
verru	-11597
veryb	-11598
veryw	-11599
cct	-11600
cse	-11601
dig	-11602
dro	-11603
ese	-11604
fig	-11605
ioa	-11606
kee	-11607
lau	-11608
liz	-11609
put	-11610
seb	-11611
see	-11612
sef	-11613
sel	-11614
seo	-11615
sep	-11616
snt	-11617
ssa	-11618
uee	-11619
vge	-11620
wid	-11621
wse	-11622
yse	-11623
ysh	-11624
▁wb	-11625
▁wc	-11626
▁ws	-11627
abas	-11628
ckse	-11629
comr	-11630
degr	-11631
ebce	-11632
endd	-11633
erse	-11634
essi	-11635
eyre	-11636
indw	-11637
isce	-11638
llis	-11639
lloy	-11640
llse	-11641
mead	-11642
ncom	-11643
omse	-11644
sity	-11645
umer	-11646
usse	-11647
▁ets	-11648
▁ket	-11649
▁sta	-11650
▁str	-11651
▁stw	-11652
▁wat	-11653
▁wom	-11654
▁wre	-11655
esign	-11656
essin	-11657
ingse	-11658
inity	-11659
leged	-11660
llust	-11661
ousal	-11662
owing	-11663
trans	-11664
ution	-11665
vices	-11666
vicet	-11667
vidst	-11668
wwwes	-11669
ybean	-11670
zinga	-11671
▁adap	-11672
▁advi	-11673
▁amon	-11674
▁anim	-11675
▁anni	-11676
▁barn	-11677
▁bear	-11678
▁bigh	-11679
▁biog	-11680
▁boll	-11681
▁bord	-11682
▁brad	-11683
▁buck	-11684
▁budd	-11685
▁bunn	-11686
▁buyb	-11687
▁chan	-11688
▁chev	-11689
▁chie	-11690
▁choo	-11691
▁coff	-11692
▁corp	-11693
▁curf	-11694
▁dart	-11695
▁dayp	-11696
▁debi	-11697
▁ding	-11698
▁disc	-11699
cop	-11700
dop	-11701
ely	-11702
fop	-11703
fut	-11704
hop	-11705
hun	-11706
ime	-11707
jse	-11708
lop	-11709
mht	-11710
nes	-11711
oop	-11712
opa	-11713
opc	-11714
opd	-11715
oph	-11716
opm	-11717
opo	-11718
opr	-11719
opu	-11720
rop	-11721
seh	-11722
sop	-11723
yds	-11724
▁uo	-11725
ckla	-11726
coop	-11727
erhe	-11728
ewsc	-11729
hine	-11730
hisw	-11731
kmcd	-11732
ldbe	-11733
opor	-11734
opst	-11735
opti	-11736
rack	-11737
rare	-11738
sany	-11739
sont	-11740
▁bel	-11741
▁hai	-11742
▁hop	-11743
▁mee	-11744
abbee	-11745
anamp	-11746
ancec	-11747
cafda	-11748
ennis	-11749
ercit	-11750
esntf	-11751
igans	-11752
ildly	-11753
ition	-11754
otion	-11755
sinde	-11756
stion	-11757
tionr	-11758
vesin	-11759
▁batt	-11760
▁dise	-11761
▁disp	-11762
▁divv	-11763
▁dran	-11764
▁drow	-11765
▁drst	-11766
▁expo	-11767
▁fins	-11768
▁flow	-11769
▁flyt	-11770
▁foll	-11771
▁fort	-11772
▁fuap	-11773
▁gant	-11774
▁gott	-11775
▁hamp	-11776
▁happ	-11777
▁heal	-11778
▁here	-11779
▁hone	-11780
▁ille	-11781
▁inch	-11782
▁inve	-11783
▁jing	-11784
▁late	-11785
▁laun	-11786
▁loot	-11787
▁love	-11788
▁lowc	-11789
▁mayh	-11790
▁mcch	-11791
▁mcdo	-11792
▁mcdt	-11793
▁mcdu	-11794
▁mcla	-11795
▁mcsh	-11796
▁nast	-11797
▁netw	-11798
▁nost	-11799
ave	-11800
dad	-11801
des	-11802
dsv	-11803
ela	-11804
gro	-11805
ila	-11806
ilc	-11807
kro	-11808
lai	-11809
lam	-11810
mro	-11811
roa	-11812
rob	-11813
rod	-11814
rog	-11815
rok	-11816
roq	-11817
rov	-11818
rox	-11819
sla	-11820
ssc	-11821
swh	-11822
tro	-11823
ula	-11824
uni	-11825
urg	-11826
uro	-11827
wgw	-11828
yro	-11829
ansi	-11830
besr	-11831
ciar	-11832
ebaf	-11833
ened	-11834
lati	-11835
lede	-11836
loom	-11837
mcdp	-11838
mplo	-11839
ockt	-11840
onac	-11841
opro	-11842
orro	-11843
ownw	-11844
rast	-11845
riot	-11846
rost	-11847
stro	-11848
twor	-11849
zuat	-11850
▁asc	-11851
▁bla	-11852
▁dro	-11853
▁gro	-11854
▁pie	-11855
▁sel	-11856
▁sem	-11857
▁yal	-11858
among	-11859
arcom	-11860
dsamp	-11861
istog	-11862
lders	-11863
ptive	-11864
racts	-11865
tiona	-11866
tione	-11867
tionh	-11868
tioni	-11869
tionn	-11870
verti	-11871
▁allo	-11872
▁buro	-11873
▁obsc	-11874
▁pean	-11875
▁piot	-11876
▁pres	-11877
▁prey	-11878
▁proa	-11879
▁prot	-11880
▁qter	-11881
▁reck	-11882
▁reit	-11883
▁rele	-11884
▁repo	-11885
▁rese	-11886
▁resi	-11887
▁shre	-11888
▁soar	-11889
▁sour	-11890
▁star	-11891
▁stat	-11892
▁sten	-11893
▁ster	-11894
▁stif	-11895
▁stim	-11896
▁stol	-11897
▁stom	-11898
▁ston	-11899
adg	-11900
amg	-11901
aqu	-11902
dme	-11903
dsm	-11904
dss	-11905
eme	-11906
ido	-11907
iga	-11908
ige	-11909
igg	-11910
igi	-11911
jme	-11912
lak	-11913
mea	-11914
mec	-11915
mee	-11916
meh	-11917
mej	-11918
mem	-11919
meq	-11920
mev	-11921
mey	-11922
mit	-11923
oda	-11924
sig	-11925
tco	-11926
tly	-11927
tme	-11928
ume	-11929
vig	-11930
wme	-11931
▁eo	-11932
▁eu	-11933
eese	-11934
erla	-11935
etri	-11936
ewsf	-11937
ewsm	-11938
fcam	-11939
igan	-11940
ithm	-11941
last	-11942
latt	-11943
llab	-11944
mest	-11945
mile	-11946
nner	-11947
omme	-11948
onzo	-11949
ords	-11950
orid	-11951
ramp	-11952
reme	-11953
rime	-11954
usan	-11955
xper	-11956
▁fru	-11957
▁gig	-11958
▁hig	-11959
▁snd	-11960
▁suc	-11961
ackbu	-11962
comti	-11963
estre	-11964
ingit	-11965
rader	-11966
ronal	-11967
ssymb	-11968
versi	-11969
▁comc	-11970
▁doug	-11971
▁fung	-11972
▁stri	-11973
▁teen	-11974
▁than	-11975
▁thes	-11976
▁thre	-11977
▁tomr	-11978
▁toug	-11979
▁trac	-11980
▁trav	-11981
▁tray	-11982
▁unde	-11983
▁unre	-11984
▁volu	-11985
▁well	-11986
▁west	-11987
▁yout	-11988
afdcfb	-11989
afeaed	-11990
aftern	-11991
ainful	-11992
allies	-11993
alysis	-11994
alysta	-11995
alytic	-11996
amptwi	-11997
amrock	-11998
amwork	-11999
ami	-12000
bly	-12001
cly	-12002
die	-12003
dly	-12004
dra	-12005
dsh	-12006
dsk	-12007
dsn	-12008
dsr	-12009
gly	-12010
hly	-12011
kly	-12012
lyc	-12013
lyd	-12014
lyg	-12015
lyi	-12016
lyj	-12017
lyl	-12018
lyn	-12019
lyw	-12020
mcs	-12021
mpi	-12022
nds	-12023
qra	-12024
rae	-12025
rap	-12026
ras	-12027
rau	-12028
sra	-12029
uly	-12030
vil	-12031
xra	-12032
xyg	-12033
atem	-12034
ccin	-12035
dsce	-12036
dsen	-12037
dsin	-12038
dsre	-12039
dsse	-12040
dsst	-12041
edad	-12042
hone	-12043
idat	-12044
omly	-12045
only	-12046
onta	-12047
rame	-12048
rati	-12049
ruck	-12050
shed	-12051
stma	-12052
stra	-12053
ttra	-12054
▁ads	-12055
▁dra	-12056
▁gra	-12057
▁hnz	-12058
▁mus	-12059
andal	-12060
endou	-12061
ingly	-12062
odeth	-12063
psent	-12064
shack	-12065
state	-12066
tesla	-12067
▁amou	-12068
▁anno	-12069
▁litt	-12070
▁sect	-12071
▁shei	-12072
▁stra	-12073
▁unus	-12074
andche	-12075
andmcd	-12076
angedr	-12077
annelm	-12078
anning	-12079
anymcd	-12080
anyone	-12081
aplant	-12082
apples	-12083
appleu	-12084
appsha	-12085
aptive	-12086
arians	-12087
arketh	-12088
arketp	-12089
arning	-12090
artrad	-12091
astcom	-12092
atchli	-12093
ationf	-12094
ationw	-12095
axslfx	-12096
ayable	-12097
bebbca	-12098
bsence	-12099
ake	-12100
bit	-12101
chf	-12102
eht	-12103
eit	-12104
hit	-12105
idv	-12106
itc	-12107
itd	-12108
itj	-12109
itu	-12110
itx	-12111
kem	-12112
ket	-12113
kit	-12114
lis	-12115
nit	-12116
oke	-12117
olm	-12118
otp	-12119
pit	-12120
pke	-12121
rth	-12122
shm	-12123
sit	-12124
ske	-12125
uct	-12126
uit	-12127
vit	-12128
wap	-12129
wit	-12130
yke	-12131
yur	-12132
▁vo	-12133
alit	-12134
arit	-12135
ctab	-12136
hett	-12137
htar	-12138
init	-12139
itin	-12140
itll	-12141
itst	-12142
kest	-12143
lake	-12144
ockd	-12145
ockm	-12146
ongh	-12147
onke	-12148
rake	-12149
roke	-12150
sidj	-12151
tsor	-12152
umfa	-12153
urge	-12154
▁did	-12155
▁eit	-12156
▁mes	-12157
▁ske	-12158
▁spw	-12159
aiamp	-12160
ainer	-12161
gerch	-12162
icent	-12163
lieve	-12164
oncom	-12165
orpla	-12166
▁chin	-12167
▁colo	-12168
▁cong	-12169
▁lowg	-12170
▁orac	-12171
backse	-12172
canamp	-12173
cation	-12174
cbfbef	-12175
cdcaee	-12176
cdonal	-12177
cement	-12178
ceoins	-12179
ceutic	-12180
citing	-12181
combus	-12182
comext	-12183
comsou	-12184
comtit	-12185
comvid	-12186
conomy	-12187
covery	-12188
cplant	-12189
ctural	-12190
daqcom	-12191
dataus	-12192
disrup	-12193
diters	-12194
earing	-12195
ebpost	-12196
edtrad	-12197
eekend	-12198
emands	-12199
amd	-12200
aya	-12201
bfd	-12202
cim	-12203
eeb	-12204
eec	-12205
eez	-12206
gol	-12207
mul	-12208
nde	-12209
olk	-12210
pee	-12211
sol	-12212
vol	-12213
xee	-12214
xrt	-12215
yee	-12216
yth	-12217
akth	-12218
apac	-12219
atqu	-12220
edou	-12221
eece	-12222
eeee	-12223
eest	-12224
erch	-12225
ewsa	-12226
ffac	-12227
gamp	-12228
live	-12229
lock	-12230
mcds	-12231
ockb	-12232
ockc	-12233
ockj	-12234
ockn	-12235
ockp	-12236
ockq	-12237
ockw	-12238
olle	-12239
olog	-12240
ppli	-12241
quee	-12242
riqu	-12243
thou	-12244
ulat	-12245
verk	-12246
▁bud	-12247
▁buf	-12248
▁bui	-12249
▁bum	-12250
▁bus	-12251
▁fee	-12252
▁fuq	-12253
▁hol	-12254
▁mqu	-12255
▁pok	-12256
▁sol	-12257
ional	-12258
itcom	-12259
ockse	-12260
ockst	-12261
ortst	-12262
outin	-12263
stops	-12264
tient	-12265
tired	-12266
umped	-12267
usann	-12268
▁arou	-12269
▁dece	-12270
▁dela	-12271
▁mark	-12272
▁mull	-12273
▁resh	-12274
ebedaa	-12275
enario	-12276
ending	-12277
endous	-12278
enough	-12279
ension	-12280
erally	-12281
erican	-12282
erious	-12283
erport	-12284
ersays	-12285
erscom	-12286
ersmin	-12287
esdayg	-12288
esquot	-12289
essage	-12290
esters	-12291
etpost	-12292
ewards	-12293
ewaywe	-12294
finite	-12295
fromaf	-12296
gation	-12297
gercom	-12298
ghtnow	-12299
aha	-12300
bod	-12301
cul	-12302
dch	-12303
dve	-12304
eod	-12305
eyd	-12306
hve	-12307
kod	-12308
mod	-12309
odm	-12310
olv	-12311
ood	-12312
pol	-12313
rua	-12314
trw	-12315
uve	-12316
veq	-12317
wol	-12318
xol	-12319
yol	-12320
yve	-12321
anco	-12322
arve	-12323
cate	-12324
cion	-12325
defd	-12326
erco	-12327
erve	-12328
ewsw	-12329
gger	-12330
inve	-12331
item	-12332
lent	-12333
leve	-12334
mcdt	-12335
oder	-12336
olce	-12337
olin	-12338
rive	-12339
usin	-12340
veal	-12341
vein	-12342
veor	-12343
vere	-12344
▁cod	-12345
▁hid	-12346
▁mod	-12347
▁upj	-12348
ardat	-12349
aygle	-12350
comin	-12351
cyuse	-12352
czins	-12353
ginex	-12354
idend	-12355
ingve	-12356
ockis	-12357
umoto	-12358
uring	-12359
wjief	-12360
▁buyh	-12361
▁crav	-12362
▁stup	-12363
acfdef	-12364
andown	-12365
atquot	-12366
cashxy	-12367
cddabc	-12368
enting	-12369
gineer	-12370
ginexp	-12371
golden	-12372
headdi	-12373
iation	-12374
icator	-12375
icquot	-12376
ideous	-12377
ighted	-12378
ignfil	-12379
ileord	-12380
illcom	-12381
illust	-12382
ingmcd	-12383
inhour	-12384
intrad	-12385
invdag	-12386
iohite	-12387
iosfus	-12388
itches	-12389
itical	-12390
itiesy	-12391
kscore	-12392
lantod	-12393
layedp	-12394
listde	-12395
llarst	-12396
loyees	-12397
mcdvag	-12398
monday	-12399
abf	-12400
ayb	-12401
ayg	-12402
ayo	-12403
ayp	-12404
ayt	-12405
ayw	-12406
bay	-12407
chv	-12408
ldk	-12409
mpp	-12410
rne	-12411
say	-12412
tfs	-12413
uch	-12414
vyl	-12415
agep	-12416
ayin	-12417
bcom	-12418
ccom	-12419
comi	-12420
comn	-12421
comv	-12422
comx	-12423
comz	-12424
esta	-12425
eway	-12426
ewsb	-12427
ewsh	-12428
ewsj	-12429
ewsn	-12430
hats	-12431
hcom	-12432
isra	-12433
kcom	-12434
lcom	-12435
lemo	-12436
lice	-12437
mpro	-12438
ocom	-12439
secl	-12440
shri	-12441
summ	-12442
sump	-12443
urit	-12444
wcom	-12445
▁fed	-12446
▁mcf	-12447
▁vis	-12448
alcom	-12449
atcom	-12450
aying	-12451
cecom	-12452
comen	-12453
comme	-12454
comop	-12455
comst	-12456
enews	-12457
ewcom	-12458
ewsre	-12459
ewsst	-12460
ewsti	-12461
icked	-12462
igest	-12463
incom	-12464
llcom	-12465
orcom	-12466
radew	-12467
recom	-12468
stcom	-12469
▁juic	-12470
▁mill	-12471
▁unle	-12472
▁vant	-12473
comcom	-12474
ewscom	-12475
ingcom	-12476
mption	-12477
nation	-12478
nction	-12479
newsai	-12480
newsht	-12481
newsre	-12482
newsst	-12483
ningsc	-12484
ningse	-12485
nowcom	-12486
nowmcd	-12487
ocrats	-12488
odayst	-12489
odayth	-12490
omarke	-12491
omated	-12492
onally	-12493
onteat	-12494
ooking	-12495
orginc	-12496
ormfeb	-12497
orsecl	-12498
ortage	-12499
asc	-12500
ayc	-12501
ayh	-12502
ayn	-12503
ayv	-12504
bqu	-12505
cch	-12506
chl	-12507
chr	-12508
chs	-12509
chu	-12510
gch	-12511
jay	-12512
ldm	-12513
log	-12514
och	-12515
oow	-12516
owc	-12517
owd	-12518
owf	-12519
owg	-12520
owh	-12521
owl	-12522
owm	-12523
owp	-12524
ows	-12525
owt	-12526
oww	-12527
pow	-12528
pth	-12529
rch	-12530
sch	-12531
umc	-12532
utr	-12533
vik	-12534
wch	-12535
zpr	-12536
acin	-12537
alch	-12538
alid	-12539
arch	-12540
ayon	-12541
ayou	-12542
beoo	-12543
camp	-12544
chan	-12545
dver	-12546
itch	-12547
kxgg	-12548
oins	-12549
onch	-12550
oten	-12551
owar	-12552
owme	-12553
ppro	-12554
stab	-12555
uest	-12556
urly	-12557
▁jet	-12558
▁nay	-12559
▁tig	-12560
alyze	-12561
amble	-12562
chcom	-12563
cusna	-12564
ellar	-12565
ingfr	-12566
leeks	-12567
omate	-12568
quity	-12569
rence	-12570
rying	-12571
▁bump	-12572
▁fait	-12573
▁tipp	-12574
arketd	-12575
comycb	-12576
liable	-12577
mcding	-12578
orthco	-12579
orties	-12580
ortion	-12581
ostock	-12582
otherf	-12583
ounces	-12584
ourcef	-12585
ourmet	-12586
ousing	-12587
owards	-12588
owatch	-12589
owning	-12590
paying	-12591
pocomw	-12592
preann	-12593
prnews	-12594
propri	-12595
pticis	-12596
quatic	-12597
racial	-12598
radequ	-12599
aid	-12600
aiz	-12601
bch	-12602
cam	-12603
cbo	-12604
cbz	-12605
chb	-12606
emp	-12607
esa	-12608
esb	-12609
esf	-12610
esi	-12611
esp	-12612
hes	-12613
hmp	-12614
idk	-12615
idn	-12616
idt	-12617
imp	-12618
mid	-12619
mph	-12620
mpn	-12621
mpo	-12622
mpv	-12623
nam	-12624
oes	-12625
uid	-12626
usn	-12627
ych	-12628
yid	-12629
▁qt	-12630
agre	-12631
cdid	-12632
chre	-12633
esch	-12634
eser	-12635
esig	-12636
esin	-12637
esit	-12638
esom	-12639
esre	-12640
icit	-12641
idit	-12642
kemp	-12643
lech	-12644
lege	-12645
leid	-12646
mpen	-12647
mpid	-12648
mply	-12649
mpst	-12650
mter	-12651
opes	-12652
pses	-12653
stch	-12654
upon	-12655
zins	-12656
zmcd	-12657
▁amg	-12658
▁gai	-12659
▁isl	-12660
▁wid	-12661
ching	-12662
comch	-12663
escom	-12664
ingau	-12665
jorwh	-12666
ogyth	-12667
▁dild	-12668
▁fund	-12669
▁inti	-12670
▁kemp	-12671
▁pong	-12672
▁scra	-12673
▁thet	-12674
oricre	-12675
outper	-12676
raders	-12677
radual	-12678
ransac	-12679
reakis	-12680
recast	-12681
reeand	-12682
reetre	-12683
restim	-12684
retion	-12685
retrad	-12686
rickla	-12687
rising	-12688
risont	-12689
rongbu	-12690
roying	-12691
secfil	-12692
select	-12693
sement	-12694
sisamp	-12695
srnkus	-12696
ssible	-12697
stkcom	-12698
stockh	-12699
abu	-12700
bis	-12701
ebc	-12702
fis	-12703
isb	-12704
isf	-12705
isk	-12706
isl	-12707
isn	-12708
lth	-12709
pxf	-12710
tht	-12711
trp	-12712
uis	-12713
xis	-12714
yed	-12715
▁ub	-12716
adis	-12717
astu	-12718
ceis	-12719
emon	-12720
enge	-12721
eous	-12722
epre	-12723
eris	-12724
fish	-12725
inab	-12726
isch	-12727
iser	-12728
iske	-12729
isla	-12730
isod	-12731
isor	-12732
jmcd	-12733
mcdd	-12734
mcdf	-12735
mcdv	-12736
mped	-12737
mpri	-12738
orma	-12739
pmcd	-12740
▁inb	-12741
▁inl	-12742
▁inp	-12743
▁lif	-12744
▁mag	-12745
▁mas	-12746
▁pea	-12747
adacd	-12748
ayonn	-12749
creas	-12750
eeadd	-12751
endle	-12752
ensat	-12753
inmcd	-12754
iscom	-12755
mcdan	-12756
mcdst	-12757
mpact	-12758
rendf	-12759
semcd	-12760
stran	-12761
urant	-12762
▁ince	-12763
▁tast	-12764
arketw	-12765
edcbee	-12766
ewsmcd	-12767
gative	-12768
inpost	-12769
mcdamp	-12770
ockmcd	-12771
oneylo	-12772
ritrnd	-12773
stocki	-12774
stockx	-12775
stopap	-12776
straws	-12777
susmcd	-12778
teaand	-12779
thoriz	-12780
ticein	-12781
ticlep	-12782
timeic	-12783
timing	-12784
tionab	-12785
tionar	-12786
tionbe	-12787
tioned	-12788
tionin	-12789
tionis	-12790
tionon	-12791
tionst	-12792
tiveag	-12793
tiveex	-12794
tivequ	-12795
ttered	-12796
uacion	-12797
umored	-12798
umpain	-12799
aur	-12800
caa	-12801
edf	-12802
hur	-12803
qua	-12804
tur	-12805
uaf	-12806
urp	-12807
urr	-12808
urt	-12809
▁os	-12810
▁rm	-12811
abil	-12812
acae	-12813
ampn	-12814
asin	-12815
ayqu	-12816
entp	-12817
entu	-12818
erth	-12819
heme	-12820
illi	-12821
issi	-12822
kint	-12823
labo	-12824
mcdl	-12825
meiz	-12826
orum	-12827
uran	-12828
urop	-12829
urre	-12830
used	-12831
wver	-12832
ynam	-12833
▁eur	-12834
abbca	-12835
alent	-12836
anent	-12837
cknow	-12838
entar	-12839
enter	-12840
ermcd	-12841
esmcd	-12842
ewsai	-12843
ident	-12844
kemcd	-12845
loyal	-12846
mpmcd	-12847
owmcd	-12848
ownqu	-12849
reent	-12850
stmcd	-12851
▁full	-12852
▁gent	-12853
▁mcri	-12854
▁prov	-12855
▁quar	-12856
entmcd	-12857
eslavi	-12858
gfgggg	-12859
inecom	-12860
liodun	-12861
mcdmcd	-12862
ningsp	-12863
opical	-12864
sinine	-12865
unchbu	-12866
uqrtor	-12867
uralsh	-12868
urlcom	-12869
urther	-12870
utdown	-12871
venues	-12872
verall	-12873
verlay	-12874
veryon	-12875
veryti	-12876
viceor	-12877
videom	-12878
vmisst	-12879
wallst	-12880
wiches	-12881
ypegre	-12882
yumpzz	-12883
▁absor	-12884
▁alcoh	-12885
▁annoy	-12886
▁arran	-12887
▁backg	-12888
▁bleed	-12889
▁chall	-12890
▁colla	-12891
▁conce	-12892
▁coron	-12893
▁crate	-12894
▁cryst	-12895
▁dayqu	-12896
▁decre	-12897
▁delay	-12898
▁devel	-12899
aia	-12900
aim	-12901
aiw	-12902
cta	-12903
ctc	-12904
ctu	-12905
ctz	-12906
dff	-12907
eur	-12908
gsn	-12909
ict	-12910
lur	-12911
mai	-12912
nai	-12913
oct	-12914
oof	-12915
pai	-12916
pur	-12917
sai	-12918
ssh	-12919
urb	-12920
vai	-12921
zur	-12922
▁vr	-12923
alai	-12924
alcy	-12925
anad	-12926
anai	-12927
arad	-12928
ateh	-12929
atet	-12930
becb	-12931
ctle	-12932
ctly	-12933
dong	-12934
edue	-12935
iate	-12936
isdi	-12937
lead	-12938
ledi	-12939
mast	-12940
mate	-12941
mine	-12942
orac	-12943
pete	-12944
sect	-12945
urri	-12946
▁bai	-12947
▁dia	-12948
▁fai	-12949
▁foc	-12950
▁wai	-12951
adies	-12952
ading	-12953
allti	-12954
arate	-12955
cting	-12956
enbla	-12957
erate	-12958
incon	-12959
issed	-12960
lical	-12961
llage	-12962
ndric	-12963
newsc	-12964
orate	-12965
reate	-12966
riate	-12967
▁hara	-12968
▁surg	-12969
elayed	-12970
emical	-12971
ignear	-12972
inning	-12973
lative	-12974
mergen	-12975
owhere	-12976
reakth	-12977
urrent	-12978
vately	-12979
▁diver	-12980
▁divid	-12981
▁donal	-12982
▁equip	-12983
▁estim	-12984
▁exper	-12985
▁febru	-12986
▁foref	-12987
▁gains	-12988
▁gigam	-12989
▁guest	-12990
▁hateh	-12991
▁headl	-12992
▁httpd	-12993
▁httpm	-12994
▁imple	-12995
▁impot	-12996
▁incom	-12997
▁insan	-12998
▁intro	-12999
aaa	-13000
adj	-13001
adl	-13002
adv	-13003
adw	-13004
cad	-13005
edb	-13006
edd	-13007
edu	-13008
eth	-13009
fad	-13010
fed	-13011
gem	-13012
gex	-13013
gth	-13014
hed	-13015
icm	-13016
imi	-13017
iqp	-13018
oey	-13019
oge	-13020
ped	-13021
sus	-13022
tad	-13023
umu	-13024
wed	-13025
▁ja	-13026
▁rr	-13027
▁va	-13028
▁vf	-13029
alad	-13030
arge	-13031
eded	-13032
eden	-13033
edly	-13034
edow	-13035
geth	-13036
ileg	-13037
itqu	-13038
llad	-13039
onad	-13040
ourt	-13041
pssh	-13042
road	-13043
sage	-13044
stry	-13045
tein	-13046
tric	-13047
uech	-13048
vege	-13049
veth	-13050
▁fhe	-13051
▁has	-13052
▁hed	-13053
▁nda	-13054
▁van	-13055
▁var	-13056
▁vid	-13057
▁vit	-13058
allfr	-13059
cappo	-13060
estro	-13061
gecom	-13062
gestf	-13063
ilter	-13064
mcdvi	-13065
ramht	-13066
vssha	-13067
▁chal	-13068
▁chew	-13069
▁deth	-13070
▁marr	-13071
▁prod	-13072
▁prol	-13073
▁proo	-13074
▁prox	-13075
itlygf	-13076
raking	-13077
reener	-13078
tively	-13079
ulated	-13080
▁japan	-13081
▁macqu	-13082
▁massi	-13083
▁matri	-13084
▁mcdon	-13085
▁mcken	-13086
▁mcsco	-13087
▁memor	-13088
▁minim	-13089
▁minut	-13090
▁mobil	-13091
▁monit	-13092
▁myart	-13093
▁neart	-13094
▁nugge	-13095
▁optim	-13096
▁other	-13097
▁overk	-13098
▁overv	-13099
cqu	-13100
equ	-13101
glb	-13102
hqu	-13103
imb	-13104
imm	-13105
imo	-13106
imu	-13107
iqu	-13108
lim	-13109
loe	-13110
nqu	-13111
quo	-13112
qut	-13113
shc	-13114
shd	-13115
shr	-13116
shs	-13117
sht	-13118
thb	-13119
thc	-13120
tsh	-13121
ush	-13122
wth	-13123
adab	-13124
amgn	-13125
anim	-13126
arqu	-13127
aver	-13128
cequ	-13129
chqu	-13130
enqu	-13131
imad	-13132
imer	-13133
imme	-13134
inim	-13135
inth	-13136
laim	-13137
meth	-13138
mpth	-13139
name	-13140
oush	-13141
quid	-13142
quis	-13143
quit	-13144
rash	-13145
shar	-13146
shor	-13147
shou	-13148
than	-13149
thin	-13150
thor	-13151
thst	-13152
vequ	-13153
▁him	-13154
▁hun	-13155
▁mic	-13156
class	-13157
comsh	-13158
cover	-13159
erger	-13160
exper	-13161
fbacf	-13162
idame	-13163
owers	-13164
prere	-13165
ritic	-13166
ryers	-13167
shcom	-13168
ualdi	-13169
▁exdi	-13170
esbeat	-13171
justed	-13172
ticalb	-13173
yaltyp	-13174
▁buyer	-13175
▁chine	-13176
▁crave	-13177
▁mcdth	-13178
▁meanw	-13179
▁overw	-13180
▁penro	-13181
▁plump	-13182
▁prean	-13183
▁predi	-13184
▁proac	-13185
▁proct	-13186
▁purve	-13187
▁quant	-13188
▁quiet	-13189
▁quotp	-13190
▁rapid	-13191
▁recom	-13192
▁redac	-13193
▁refer	-13194
▁regul	-13195
▁rocki	-13196
▁ronal	-13197
▁round	-13198
▁sandl	-13199
iog	-13200
twi	-13201
uas	-13202
uax	-13203
ueg	-13204
utb	-13205
zkn	-13206
aafb	-13207
ande	-13208
andf	-13209
andl	-13210
andm	-13211
andp	-13212
andt	-13213
andw	-13214
asea	-13215
aseb	-13216
asem	-13217
aseo	-13218
ases	-13219
avid	-13220
base	-13221
cand	-13222
dayg	-13223
eand	-13224
estr	-13225
etpo	-13226
eyve	-13227
fits	-13228
hand	-13229
hest	-13230
iest	-13231
kend	-13232
ldli	-13233
nits	-13234
pand	-13235
peed	-13236
prin	-13237
rand	-13238
sand	-13239
uhce	-13240
vesm	-13241
wits	-13242
xual	-13243
▁die	-13244
▁dil	-13245
▁dir	-13246
▁upp	-13247
andch	-13248
ander	-13249
andid	-13250
andin	-13251
andre	-13252
artra	-13253
aseth	-13254
chest	-13255
erand	-13256
ested	-13257
estes	-13258
estin	-13259
estly	-13260
estst	-13261
infeb	-13262
keand	-13263
onand	-13264
rease	-13265
ssoci	-13266
tiest	-13267
tiveg	-13268
▁dire	-13269
▁nomu	-13270
▁prid	-13271
anding	-13272
hahaha	-13273
inable	-13274
itscom	-13275
ustrad	-13276
viewfu	-13277
zingas	-13278
▁alger	-13279
▁secul	-13280
▁sello	-13281
▁smile	-13282
▁steph	-13283
▁thest	-13284
▁times	-13285
▁truth	-13286
▁turbu	-13287
▁unpro	-13288
▁where	-13289
▁whine	-13290
▁willi	-13291
abbcaff	-13292
abetter	-13293
aborate	-13294
adaedeb	-13295
affling	-13296
ageplan	-13297
agnific	-13298
ailable	-13299
jia	-13300
mak	-13301
rna	-13302
anas	-13303
anht	-13304
bits	-13305
endf	-13306
endh	-13307
endp	-13308
endu	-13309
endv	-13310
endy	-13311
idab	-13312
itco	-13313
itsa	-13314
lits	-13315
oneb	-13316
oone	-13317
srma	-13318
vend	-13319
wend	-13320
xone	-13321
yone	-13322
zone	-13323
▁alc	-13324
▁alg	-13325
▁alm	-13326
▁alw	-13327
▁lib	-13328
▁tis	-13329
adend	-13330
alend	-13331
anair	-13332
anyon	-13333
ecfbf	-13334
emand	-13335
endai	-13336
endes	-13337
endin	-13338
endst	-13339
esper	-13340
forli	-13341
imits	-13342
marke	-13343
perin	-13344
riday	-13345
riend	-13346
thurs	-13347
▁aler	-13348
▁alon	-13349
▁alre	-13350
▁alri	-13351
▁gend	-13352
▁mone	-13353
▁netf	-13354
▁prem	-13355
▁titt	-13356
▁wend	-13357
▁worl	-13358
ationp	-13359
ddaily	-13360
ingits	-13361
itsmcd	-13362
lladdc	-13363
onemcd	-13364
stment	-13365
▁cring	-13366
▁datab	-13367
▁lower	-13368
▁marke	-13369
aincomi	-13370
ainment	-13371
aintime	-13372
alertme	-13373
alesdri	-13374
allblog	-13375
allfrom	-13376
ambling	-13377
ampfeat	-13378
ampkeyf	-13379
ampleog	-13380
amplist	-13381
amputms	-13382
andomly	-13383
annelmr	-13384
arketam	-13385
arketri	-13386
arkpool	-13387
armland	-13388
arnings	-13389
artmyru	-13390
asthtml	-13391
atalyst	-13392
atchers	-13393
atetrad	-13394
aturday	-13395
average	-13396
bership	-13397
bsonord	-13398
bytrade	-13399
fib	-13400
irc	-13401
lue	-13402
pdb	-13403
qnt	-13404
rpx	-13405
tnt	-13406
ube	-13407
unt	-13408
▁jc	-13409
▁je	-13410
▁jf	-13411
▁jm	-13412
▁js	-13413
acks	-13414
arab	-13415
ersi	-13416
ersp	-13417
ervi	-13418
isnt	-13419
nies	-13420
ntly	-13421
ntre	-13422
oppy	-13423
orco	-13424
ownt	-13425
pers	-13426
reci	-13427
sers	-13428
tell	-13429
ters	-13430
thel	-13431
ymbo	-13432
▁jen	-13433
▁jis	-13434
▁jse	-13435
▁nem	-13436
▁pil	-13437
▁the	-13438
▁thm	-13439
akkad	-13440
artit	-13441
atbur	-13442
ccinv	-13443
chers	-13444
comyg	-13445
discu	-13446
ersar	-13447
erser	-13448
ersit	-13449
ersme	-13450
ersol	-13451
iners	-13452
itlyj	-13453
omies	-13454
ongst	-13455
opean	-13456
▁anal	-13457
▁curl	-13458
▁plas	-13459
▁poke	-13460
▁rent	-13461
▁ther	-13462
▁thou	-13463
▁thri	-13464
▁thur	-13465
arketa	-13466
arketb	-13467
arketc	-13468
arketn	-13469
arkets	-13470
ckered	-13471
livery	-13472
lyquot	-13473
ormamp	-13474
ticley	-13475
urnsin	-13476
arketre	-13477
canampt	-13478
cathold	-13479
cestock	-13480
chedule	-13481
chnical	-13482
cialamp	-13483
combmue	-13484
comeand	-13485
commedi	-13486
comwall	-13487
crative	-13488
ctation	-13489
datejan	-13490
degroup	-13491
delayed	-13492
ebarish	-13493
eedback	-13494
efiting	-13495
enblack	-13496
endaily	-13497
ensator	-13498
entedly	-13499
amn	-13500
dek	-13501
dic	-13502
ffa	-13503
fic	-13504
foc	-13505
hap	-13506
ica	-13507
lbs	-13508
nic	-13509
oku	-13510
oog	-13511
akis	-13512
amon	-13513
arte	-13514
artu	-13515
eers	-13516
erac	-13517
ersa	-13518
ersf	-13519
ersu	-13520
fart	-13521
gtap	-13522
iaht	-13523
ican	-13524
icat	-13525
icer	-13526
ityc	-13527
mart	-13528
meaf	-13529
ryst	-13530
thbu	-13531
uity	-13532
yart	-13533
yers	-13534
▁gho	-13535
▁kod	-13536
▁she	-13537
▁shu	-13538
▁sof	-13539
▁zer	-13540
arton	-13541
artop	-13542
ateri	-13543
aters	-13544
dcris	-13545
ersay	-13546
ersqu	-13547
level	-13548
llart	-13549
mpers	-13550
newsf	-13551
newsj	-13552
older	-13553
pider	-13554
pnews	-13555
quart	-13556
smcdl	-13557
snews	-13558
tnews	-13559
▁mart	-13560
▁shee	-13561
▁shit	-13562
▁shou	-13563
▁shri	-13564
▁tart	-13565
artmcd	-13566
chnews	-13567
compol	-13568
enders	-13569
ersold	-13570
faffba	-13571
innews	-13572
inscre	-13573
olders	-13574
olding	-13575
sstock	-13576
wwwcon	-13577
▁medic	-13578
▁unhap	-13579
amarket	-13580
astrike	-13581
betterp	-13582
ebruary	-13583
ercovid	-13584
ersonal	-13585
erstock	-13586
esforce	-13587
estreet	-13588
explain	-13589
ffeebfb	-13590
fferent	-13591
foodmcd	-13592
foracor	-13593
gements	-13594
gerking	-13595
ggested	-13596
httpsse	-13597
idercom	-13598
ightfor	-13599
bil	-13600
els	-13601
emi	-13602
eut	-13603
fir	-13604
icf	-13605
ici	-13606
iot	-13607
lsi	-13608
mot	-13609
mut	-13610
oot	-13611
otd	-13612
otm	-13613
pic	-13614
rty	-13615
sic	-13616
sut	-13617
tut	-13618
utc	-13619
uto	-13620
vic	-13621
zsf	-13622
▁yt	-13623
anta	-13624
antb	-13625
antd	-13626
bard	-13627
earn	-13628
ebar	-13629
edic	-13630
erio	-13631
esam	-13632
icin	-13633
icly	-13634
icon	-13635
icor	-13636
icqu	-13637
icre	-13638
inut	-13639
mput	-13640
obuy	-13641
olut	-13642
otal	-13643
otat	-13644
psic	-13645
rger	-13646
roic	-13647
rpar	-13648
umre	-13649
utin	-13650
utom	-13651
vant	-13652
▁bea	-13653
▁not	-13654
▁vot	-13655
acfde	-13656
amgnl	-13657
antin	-13658
antqu	-13659
antst	-13660
chall	-13661
ersut	-13662
icant	-13663
izont	-13664
mcdut	-13665
opide	-13666
otcom	-13667
portu	-13668
▁acro	-13669
▁reut	-13670
artner	-13671
effers	-13672
kingal	-13673
mstock	-13674
rivers	-13675
▁anyon	-13676
▁longb	-13677
▁timef	-13678
doption	-13679
illiond	-13680
ingjust	-13681
ingsmcd	-13682
ingwork	-13683
iocloud	-13684
itactiv	-13685
itiesbe	-13686
itstock	-13687
itycopy	-13688
kingalp	-13689
koption	-13690
kreturn	-13691
lackbox	-13692
lationh	-13693
lations	-13694
leasesm	-13695
marketd	-13696
mcdlong	-13697
mcdonal	-13698
mcdqear	-13699
ape	-13700
cos	-13701
epe	-13702
fiz	-13703
gie	-13704
hiz	-13705
htf	-13706
ldr	-13707
miz	-13708
ndf	-13709
ota	-13710
otc	-13711
otg	-13712
pea	-13713
peg	-13714
pet	-13715
pht	-13716
ppe	-13717
spe	-13718
uht	-13719
und	-13720
xht	-13721
xpe	-13722
aliz	-13723
argo	-13724
asor	-13725
ceht	-13726
chbu	-13727
dium	-13728
edab	-13729
edbu	-13730
geco	-13731
hted	-13732
idiz	-13733
imbs	-13734
insk	-13735
izon	-13736
mepe	-13737
mpot	-13738
nder	-13739
oost	-13740
ormb	-13741
ormd	-13742
ormm	-13743
otad	-13744
otch	-13745
otor	-13746
otqu	-13747
otre	-13748
ownd	-13749
pell	-13750
pere	-13751
perf	-13752
peti	-13753
reht	-13754
▁bab	-13755
▁bht	-13756
▁msf	-13757
▁piv	-13758
▁siz	-13759
acbcc	-13760
atter	-13761
ickpo	-13762
insas	-13763
izmcd	-13764
mcdht	-13765
mmedi	-13766
ormal	-13767
otmcd	-13768
xtrad	-13769
▁bake	-13770
▁bott	-13771
▁noti	-13772
▁peop	-13773
▁repe	-13774
orming	-13775
stockw	-13776
tionht	-13777
tioniz	-13778
▁galac	-13779
▁httpe	-13780
▁insid	-13781
ashcomw	-13782
forebuy	-13783
mediumf	-13784
mediums	-13785
mentsth	-13786
merging	-13787
microso	-13788
moneylo	-13789
mporary	-13790
ndament	-13791
newscom	-13792
ockdown	-13793
ocknews	-13794
ogreend	-13795
olatile	-13796
ologyth	-13797
omarket	-13798
omentum	-13799
aoo	-13800
apa	-13801
aph	-13802
app	-13803
auc	-13804
bui	-13805
dap	-13806
eap	-13807
ebp	-13808
ldb	-13809
ndm	-13810
sap	-13811
ssg	-13812
tap	-13813
uap	-13814
vap	-13815
znd	-13816
alph	-13817
apot	-13818
apqu	-13819
apti	-13820
asre	-13821
emen	-13822
grad	-13823
lder	-13824
ldnt	-13825
mize	-13826
ndis	-13827
ndri	-13828
orap	-13829
orld	-13830
qqnt	-13831
radd	-13832
radr	-13833
radu	-13834
rief	-13835
stav	-13836
▁aap	-13837
▁dep	-13838
▁ost	-13839
▁pap	-13840
apmcd	-13841
arran	-13842
comap	-13843
ernst	-13844
ideal	-13845
ieand	-13846
lding	-13847
nders	-13848
nding	-13849
ority	-13850
owned	-13851
radar	-13852
rades	-13853
ustom	-13854
weigh	-13855
wwwvo	-13856
▁bigg	-13857
▁bmue	-13858
▁cath	-13859
▁deat	-13860
▁deve	-13861
▁mick	-13862
▁nose	-13863
ationc	-13864
ationh	-13865
mation	-13866
otenti	-13867
ourceh	-13868
outint	-13869
smcdht	-13870
▁bigge	-13871
▁profi	-13872
ationst	-13873
itation	-13874
llation	-13875
llowing	-13876
omation	-13877
omotion	-13878
onaldsa	-13879
onaldsb	-13880
onaldsc	-13881
onaldsg	-13882
onaldsh	-13883
onaldsi	-13884
onaldsj	-13885
onaldsm	-13886
onaldsn	-13887
onaldsp	-13888
onaldsq	-13889
onaldsr	-13890
onaldss	-13891
onaldsv	-13892
onaldsw	-13893
onation	-13894
oneyyah	-13895
onfight	-13896
ongoing	-13897
opening	-13898
opstock	-13899
amw	-13900
glo	-13901
ilo	-13902
loa	-13903
nmg	-13904
plo	-13905
rum	-13906
slo	-13907
tlo	-13908
uma	-13909
umd	-13910
umm	-13911
umo	-13912
umt	-13913
vld	-13914
ylo	-13915
▁yi	-13916
▁yo	-13917
▁yu	-13918
afin	-13919
atlo	-13920
bafb	-13921
ccdd	-13922
clay	-13923
ewab	-13924
idaf	-13925
iont	-13926
luct	-13927
lver	-13928
lylo	-13929
stum	-13930
uman	-13931
umot	-13932
umst	-13933
verc	-13934
verd	-13935
verm	-13936
vern	-13937
verw	-13938
▁beg	-13939
▁clo	-13940
▁ext	-13941
▁flo	-13942
▁fub	-13943
▁ope	-13944
▁roc	-13945
▁suv	-13946
▁upd	-13947
▁yan	-13948
▁yol	-13949
andma	-13950
asual	-13951
ataly	-13952
bebbc	-13953
dayqu	-13954
erine	-13955
erver	-13956
feedb	-13957
ipped	-13958
olver	-13959
oovel	-13960
riple	-13961
river	-13962
rowth	-13963
uming	-13964
verin	-13965
verla	-13966
whisp	-13967
▁cond	-13968
▁conj	-13969
▁relo	-13970
▁valu	-13971
▁yest	-13972
alaise	-13973
ticlem	-13974
vercom	-13975
▁broke	-13976
▁const	-13977
▁monke	-13978
▁potat	-13979
▁usern	-13980
intelio	-13981
optionr	-13982
orating	-13983
oration	-13984
orizont	-13985
orplace	-13986
ourceio	-13987
ourthqu	-13988
outubeb	-13989
outubeg	-13990
outubeo	-13991
overwri	-13992
ownquot	-13993
ownward	-13994
portfol	-13995
qiampts	-13996
quidate	-13997
raction	-13998
ramhtml	-13999
bff	-14000
boe	-14001
dda	-14002
dvi	-14003
fbf	-14004
npr	-14005
aamp	-14006
ampf	-14007
amph	-14008
astf	-14009
cedd	-14010
cfil	-14011
eamp	-14012
famp	-14013
ffin	-14014
inas	-14015
kamp	-14016
nond	-14017
oast	-14018
pamp	-14019
past	-14020
poop	-14021
qamp	-14022
rann	-14023
segr	-14024
tamp	-14025
turn	-14026
uamp	-14027
ulle	-14028
vess	-14029
wast	-14030
xamp	-14031
yamp	-14032
▁ama	-14033
▁amz	-14034
▁bei	-14035
▁bey	-14036
▁cbr	-14037
▁doz	-14038
▁lea	-14039
▁lec	-14040
▁lem	-14041
▁les	-14042
▁lev	-14043
▁mex	-14044
▁rof	-14045
alamp	-14046
alize	-14047
ampen	-14048
ampke	-14049
ampst	-14050
ampth	-14051
asted	-14052
astge	-14053
astle	-14054
astri	-14055
eramp	-14056
meamp	-14057
opast	-14058
psamp	-14059
today	-14060
umamp	-14061
▁amer	-14062
▁bett	-14063
▁circ	-14064
▁leve	-14065
▁outb	-14066
▁peab	-14067
▁samp	-14068
▁wast	-14069
ampmcd	-14070
aseamp	-14071
asting	-14072
entamp	-14073
ersamp	-14074
gement	-14075
itiesg	-14076
itsamp	-14077
izecom	-14078
oovers	-14079
otally	-14080
▁baseb	-14081
▁quart	-14082
▁separ	-14083
dsfeedb	-14084
owerorg	-14085
ranscri	-14086
ratingt	-14087
reation	-14088
restaur	-14089
resting	-14090
retched	-14091
ritical	-14092
ronment	-14093
samputm	-14094
scomsha	-14095
semoney	-14096
sequiti	-14097
sflowme	-14098
sfriend	-14099
aug	-14100
aun	-14101
eam	-14102
hfr	-14103
oau	-14104
osf	-14105
pau	-14106
sfs	-14107
uss	-14108
ybe	-14109
amel	-14110
anyb	-14111
anye	-14112
anym	-14113
atau	-14114
aull	-14115
aunt	-14116
auti	-14117
beyg	-14118
earp	-14119
faac	-14120
many	-14121
mbol	-14122
nake	-14123
pany	-14124
▁aml	-14125
▁amm	-14126
▁cau	-14127
▁env	-14128
▁exa	-14129
▁exd	-14130
▁fau	-14131
▁fos	-14132
▁opp	-14133
amest	-14134
anyth	-14135
anyti	-14136
arity	-14137
etcom	-14138
overw	-14139
ranch	-14140
times	-14141
valid	-14142
vethr	-14143
▁expe	-14144
▁game	-14145
▁geig	-14146
▁glor	-14147
▁hurd	-14148
▁near	-14149
▁neig	-14150
▁neit	-14151
▁neut	-14152
▁same	-14153
acific	-14154
ilegre	-14155
leases	-14156
stockb	-14157
stockm	-14158
stockp	-14159
stockt	-14160
stocku	-14161
ulture	-14162
vember	-14163
xstock	-14164
▁burri	-14165
▁newsm	-14166
▁scher	-14167
alstock	-14168
chstock	-14169
esstock	-14170
fensive	-14171
isscott	-14172
leaseth	-14173
mberamp	-14174
odstock	-14175
socials	-14176
socialt	-14177
spxfrom	-14178
ssively	-14179
stening	-14180
stockan	-14181
stockbu	-14182
stockqu	-14183
stocksa	-14184
stockse	-14185
stockst	-14186
stockti	-14187
stockus	-14188
stumers	-14189
terioab	-14190
terioac	-14191
terioad	-14192
tiation	-14193
ticlear	-14194
ticleid	-14195
ticlesf	-14196
tionary	-14197
tioning	-14198
tionize	-14199
hio	-14200
lio	-14201
oss	-14202
pul	-14203
rss	-14204
sca	-14205
sfa	-14206
sfi	-14207
sfl	-14208
sfu	-14209
sli	-14210
spy	-14211
ssf	-14212
ssw	-14213
ssy	-14214
tsf	-14215
ains	-14216
ceio	-14217
ctic	-14218
erbu	-14219
ioad	-14220
ioar	-14221
itic	-14222
lass	-14223
mefb	-14224
olio	-14225
sfla	-14226
sfor	-14227
sfou	-14228
sfut	-14229
ustr	-14230
utic	-14231
week	-14232
ytic	-14233
▁arc	-14234
▁ari	-14235
▁arm	-14236
▁arn	-14237
▁aro	-14238
▁arr	-14239
▁ass	-14240
▁ore	-14241
aecbe	-14242
atain	-14243
ctory	-14244
eekly	-14245
eekon	-14246
fries	-14247
ingss	-14248
ioamp	-14249
ision	-14250
mwall	-14251
onavi	-14252
pseek	-14253
rance	-14254
ticis	-14255
vages	-14256
▁arch	-14257
▁diag	-14258
▁diff	-14259
▁foss	-14260
eekmcd	-14261
ermany	-14262
ertops	-14263
flanig	-14264
hibits	-14265
lackro	-14266
mayonn	-14267
reccom	-14268
ticmcd	-14269
usnews	-14270
▁artic	-14271
▁compa	-14272
▁compl	-14273
▁longh	-14274
▁overd	-14275
▁parab	-14276
▁shake	-14277
▁walle	-14278
compoli	-14279
marketp	-14280
tiveint	-14281
trinsic	-14282
tterbuy	-14283
ttercom	-14284
txtcbpf	-14285
uaxyjcb	-14286
uebuild	-14287
uesdayg	-14288
ulating	-14289
ultiple	-14290
umstock	-14291
unction	-14292
urities	-14293
urlcomy	-14294
urrency	-14295
ursdays	-14296
ustomer	-14297
valfore	-14298
vantage	-14299
aac	-14300
acb	-14301
acg	-14302
aci	-14303
amm	-14304
bac	-14305
dac	-14306
gog	-14307
iam	-14308
iev	-14309
jie	-14310
kam	-14311
nwm	-14312
pam	-14313
sac	-14314
tam	-14315
vac	-14316
yam	-14317
▁ob	-14318
▁ov	-14319
acac	-14320
acit	-14321
acon	-14322
acqu	-14323
acti	-14324
aman	-14325
amro	-14326
anie	-14327
arie	-14328
atac	-14329
chie	-14330
edac	-14331
erwe	-14332
gist	-14333
ioac	-14334
oked	-14335
omie	-14336
peci	-14337
quie	-14338
ssac	-14339
stac	-14340
yees	-14341
▁bnn	-14342
▁btf	-14343
▁gam	-14344
▁ham	-14345
▁lac	-14346
▁oct	-14347
▁sag	-14348
▁tac	-14349
actic	-14350
ament	-14351
anish	-14352
close	-14353
comam	-14354
crats	-14355
losef	-14356
urday	-14357
urner	-14358
ysvzz	-14359
▁diam	-14360
▁leag	-14361
▁prom	-14362
▁reac	-14363
▁trap	-14364
ainers	-14365
aspxsu	-14366
atings	-14367
callra	-14368
loselo	-14369
radech	-14370
relose	-14371
selose	-14372
terioa	-14373
ticlef	-14374
▁whips	-14375
acation	-14376
anceyah	-14377
ctionis	-14378
erwhile	-14379
mediate	-14380
vements	-14381
verages	-14382
versary	-14383
versity	-14384
vesting	-14385
videndf	-14386
videndh	-14387
weepers	-14388
wwwvery	-14389
▁accord	-14390
▁adjust	-14391
▁aftern	-14392
▁analyz	-14393
▁appeti	-14394
▁backgr	-14395
▁batter	-14396
▁bonuse	-14397
▁bullis	-14398
▁cather	-14399
bec	-14400
beo	-14401
bey	-14402
cbe	-14403
ebe	-14404
ema	-14405
ibe	-14406
ilj	-14407
ilk	-14408
ilt	-14409
jlb	-14410
kus	-14411
lus	-14412
nus	-14413
oil	-14414
sbe	-14415
sul	-14416
usg	-14417
wil	-14418
yet	-14419
▁il	-14420
ango	-14421
aybe	-14422
beam	-14423
bett	-14424
chil	-14425
daqc	-14426
eard	-14427
ears	-14428
earx	-14429
esbe	-14430
hout	-14431
ilit	-14432
ivid	-14433
near	-14434
opam	-14435
otam	-14436
ovid	-14437
pope	-14438
pych	-14439
roug	-14440
scre	-14441
sout	-14442
spec	-14443
tham	-14444
▁clw	-14445
▁eng	-14446
▁orc	-14447
▁ros	-14448
▁rou	-14449
ainti	-14450
anlds	-14451
becom	-14452
ckets	-14453
edoug	-14454
enoug	-14455
ilver	-14456
inist	-14457
insst	-14458
ische	-14459
orget	-14460
ought	-14461
ougle	-14462
reear	-14463
vidro	-14464
▁dayt	-14465
▁imme	-14466
▁redd	-14467
▁scal	-14468
▁secu	-14469
▁warr	-14470
anyear	-14471
bafccc	-14472
ersary	-14473
igence	-14474
mcdutm	-14475
orical	-14476
tionpl	-14477
umping	-14478
vident	-14479
▁award	-14480
arketbe	-14481
blogday	-14482
sidente	-14483
▁altman	-14484
▁chicko	-14485
▁citigr	-14486
▁collab	-14487
▁commer	-14488
▁compar	-14489
▁compen	-14490
▁compla	-14491
▁comple	-14492
▁compou	-14493
▁comput	-14494
▁conflu	-14495
▁conver	-14496
▁corpor	-14497
▁curble	-14498
▁decent	-14499
boo	-14500
cip	-14501
eoo	-14502
eus	-14503
hoo	-14504
jus	-14505
nas	-14506
oci	-14507
ooy	-14508
poo	-14509
ryp	-14510
ryy	-14511
try	-14512
uci	-14513
▁ry	-14514
aeed	-14515
anci	-14516
aras	-14517
arry	-14518
bsen	-14519
cdff	-14520
cile	-14521
cise	-14522
cist	-14523
ebay	-14524
eedz	-14525
erci	-14526
feed	-14527
icke	-14528
ickf	-14529
icko	-14530
ioab	-14531
iote	-14532
iper	-14533
ject	-14534
kick	-14535
laus	-14536
ongg	-14537
oods	-14538
oove	-14539
orta	-14540
ortf	-14541
ortg	-14542
ortu	-14543
seeh	-14544
sfus	-14545
sort	-14546
umci	-14547
urry	-14548
usti	-14549
vity	-14550
yper	-14551
▁fue	-14552
▁quo	-14553
▁soo	-14554
▁upg	-14555
▁upl	-14556
▁upw	-14557
▁vry	-14558
acion	-14559
icind	-14560
icken	-14561
icker	-14562
ineer	-14563
ongti	-14564
onion	-14565
oocom	-14566
oport	-14567
ortre	-14568
ortsf	-14569
terst	-14570
wvery	-14571
▁feed	-14572
▁nick	-14573
▁song	-14574
▁subs	-14575
▁uplo	-14576
ericas	-14577
icking	-14578
ticleh	-14579
ticles	-14580
▁disap	-14581
▁footb	-14582
▁quick	-14583
cretive	-14584
osphere	-14585
rispych	-14586
▁discre	-14587
▁discus	-14588
▁disrup	-14589
▁dogeco	-14590
▁downal	-14591
▁everyb	-14592
▁everyw	-14593
▁forefr	-14594
▁franch	-14595
▁freder	-14596
▁gakkad	-14597
▁httpmm	-14598
▁httpsc	-14599
agx	-14600
bru	-14601
clr	-14602
emw	-14603
fff	-14604
ffl	-14605
osi	-14606
pos	-14607
rue	-14608
ruh	-14609
rui	-14610
run	-14611
sqq	-14612
syy	-14613
tem	-14614
tru	-14615
addi	-14616
anel	-14617
bert	-14618
bpar	-14619
cert	-14620
dayj	-14621
ddaa	-14622
edff	-14623
eeff	-14624
eman	-14625
emor	-14626
ertm	-14627
erto	-14628
erts	-14629
eter	-14630
ffre	-14631
inpo	-14632
isru	-14633
onde	-14634
qter	-14635
raff	-14636
resi	-14637
ruar	-14638
ruht	-14639
rush	-14640
ruth	-14641
shru	-14642
them	-14643
▁ans	-14644
▁boe	-14645
▁off	-14646
ckert	-14647
comzy	-14648
ement	-14649
ertme	-14650
ffers	-14651
ftest	-14652
inter	-14653
oupis	-14654
siest	-14655
strav	-14656
tives	-14657
▁acct	-14658
▁buff	-14659
▁coor	-14660
▁craz	-14661
▁desp	-14662
▁suis	-14663
antive	-14664
ensity	-14665
entert	-14666
ertrad	-14667
ongter	-14668
ormbee	-14669
ouldnt	-14670
rative	-14671
retive	-14672
stards	-14673
things	-14674
tisnow	-14675
tivein	-14676
tiveor	-14677
▁inter	-14678
▁thera	-14679
alanaly	-14680
enstatu	-14681
erstran	-14682
hispers	-14683
oulders	-14684
tivecom	-14685
▁httpsf	-14686
▁httpsh	-14687
▁httpsl	-14688
▁httpsn	-14689
▁httpsp	-14690
▁httpsq	-14691
▁httpss	-14692
▁httpsu	-14693
▁httpsy	-14694
▁httpww	-14695
▁insult	-14696
▁integr	-14697
▁jeffre	-14698
▁liquid	-14699
aby	-14700
avi	-14701
cab	-14702
goh	-14703
iab	-14704
ovi	-14705
prg	-14706
rpr	-14707
spr	-14708
tvi	-14709
vab	-14710
xtc	-14711
abad	-14712
abcd	-14713
abee	-14714
abff	-14715
abio	-14716
abol	-14717
acab	-14718
advi	-14719
ailm	-14720
ayvi	-14721
ceab	-14722
chvi	-14723
forw	-14724
icfi	-14725
isab	-14726
itty	-14727
itxt	-14728
laab	-14729
lavi	-14730
pron	-14731
prop	-14732
psha	-14733
revi	-14734
tivi	-14735
viou	-14736
vise	-14737
▁cpr	-14738
▁fak	-14739
abdeb	-14740
adefe	-14741
ampvj	-14742
cohen	-14743
ightf	-14744
ingvi	-14745
italy	-14746
mcdpr	-14747
radec	-14748
sfile	-14749
▁answ	-14750
▁fatt	-14751
▁midm	-14752
▁opti	-14753
▁patt	-14754
▁pile	-14755
▁rand	-14756
▁stab	-14757
abcaaf	-14758
afuhve	-14759
eously	-14760
isfast	-14761
ollect	-14762
onment	-14763
ouldbe	-14764
ouldve	-14765
radeam	-14766
rowing	-14767
should	-14768
▁digit	-14769
▁minch	-14770
canaspx	-14771
comfast	-14772
kmarket	-14773
marketc	-14774
penheim	-14775
racking	-14776
smarket	-14777
unching	-14778
wmarket	-14779
▁breakd	-14780
▁groupl	-14781
▁lmfaoo	-14782
▁maksim	-14783
▁mcdoug	-14784
▁meatle	-14785
▁monthl	-14786
▁negoti	-14787
▁nexter	-14788
▁nostal	-14789
▁observ	-14790
▁overse	-14791
▁pepsic	-14792
▁perspe	-14793
▁plantb	-14794
▁preann	-14795
▁preear	-14796
▁prnews	-14797
▁produc	-14798
▁profit	-14799
elb	-14800
eli	-14801
elu	-14802
elx	-14803
gue	-14804
hel	-14805
ogu	-14806
uef	-14807
uue	-14808
xml	-14809
yel	-14810
ypo	-14811
ywi	-14812
bage	-14813
eigh	-14814
elio	-14815
elol	-14816
high	-14817
ighf	-14818
inue	-14819
mutm	-14820
qutm	-14821
ssue	-14822
sual	-14823
sutm	-14824
ualt	-14825
uepe	-14826
wise	-14827
zine	-14828
▁cel	-14829
▁fel	-14830
▁hel	-14831
▁twi	-14832
▁uni	-14833
▁uno	-14834
andwi	-14835
anual	-14836
idont	-14837
ighly	-14838
ighqu	-14839
intst	-14840
issco	-14841
ontin	-14842
ontro	-14843
oonch	-14844
radek	-14845
ratch	-14846
stwee	-14847
utmme	-14848
▁amag	-14849
▁gula	-14850
▁prec	-14851
▁prei	-14852
▁prep	-14853
▁ques	-14854
▁quit	-14855
▁roug	-14856
▁smit	-14857
▁swee	-14858
▁twee	-14859
▁unin	-14860
▁unit	-14861
entual	-14862
ersutm	-14863
filter	-14864
gradec	-14865
newswi	-14866
ngrade	-14867
pgrade	-14868
strade	-14869
uhcevt	-14870
utmter	-14871
vidual	-14872
▁conta	-14873
▁neigh	-14874
▁press	-14875
▁prett	-14876
▁smart	-14877
▁techf	-14878
ecutive	-14879
forming	-14880
reakout	-14881
sedgard	-14882
veryone	-14883
▁bullse	-14884
▁bullsh	-14885
▁propos	-14886
▁proter	-14887
▁provid	-14888
▁quotre	-14889
▁realiz	-14890
▁recomm	-14891
▁revers	-14892
▁sandwi	-14893
▁saveth	-14894
▁seller	-14895
▁septem	-14896
▁shortt	-14897
▁signif	-14898
▁starbu	-14899
afa	-14900
bso	-14901
bys	-14902
clu	-14903
maj	-14904
nso	-14905
oso	-14906
phe	-14907
sof	-14908
wmc	-14909
▁ib	-14910
▁iw	-14911
ason	-14912
crat	-14913
daaf	-14914
esso	-14915
fint	-14916
gerf	-14917
gerk	-14918
inef	-14919
inep	-14920
inte	-14921
laun	-14922
lish	-14923
oint	-14924
pine	-14925
rugg	-14926
soci	-14927
umso	-14928
wine	-14929
ycor	-14930
▁adn	-14931
▁crw	-14932
▁iam	-14933
▁iri	-14934
▁iti	-14935
▁sbu	-14936
anger	-14937
cbfbe	-14938
effff	-14939
gerth	-14940
ilish	-14941
inein	-14942
inine	-14943
insid	-14944
intru	-14945
itint	-14946
llish	-14947
nific	-14948
omarg	-14949
stint	-14950
tyend	-14951
urger	-14952
weepc	-14953
▁midd	-14954
▁quie	-14955
anpost	-14956
antine	-14957
ckpron	-14958
ffacbd	-14959
inting	-14960
ishigh	-14961
▁conso	-14962
▁httpf	-14963
▁httpw	-14964
▁needh	-14965
ctionbe	-14966
ference	-14967
idating	-14968
iscopet	-14969
ividend	-14970
mibeamb	-14971
verment	-14972
videndp	-14973
videndv	-14974
▁httpoo	-14975
▁httpth	-14976
▁stockb	-14977
▁stockd	-14978
▁stockh	-14979
▁stockj	-14980
▁stockm	-14981
▁stocko	-14982
▁stockr	-14983
▁stocks	-14984
▁stockt	-14985
▁stockx	-14986
▁strate	-14987
▁stream	-14988
▁succes	-14989
▁superb	-14990
▁sweepc	-14991
▁transp	-14992
▁trendf	-14993
▁upload	-14994
▁weekth	-14995
aamputmc	-14996
accinefd	-14997
ackwhich	-14998
afarming	-14999
aas	-15000
akf	-15001
akk	-15002
akn	-15003
aks	-15004
buo	-15005
etp	-15006
gas	-15007
gdl	-15008
kdi	-15009
obu	-15010
ppa	-15011
sas	-15012
sbu	-15013
tpp	-15014
vbu	-15015
xax	-15016
afbb	-15017
aged	-15018
agem	-15019
aker	-15020
apzh	-15021
asly	-15022
butt	-15023
ebad	-15024
emak	-15025
hiel	-15026
icas	-15027
ideo	-15028
lide	-15029
lump	-15030
page	-15031
pply	-15032
rebu	-15033
ripp	-15034
uebu	-15035
utbu	-15036
yfda	-15037
ynow	-15038
▁kin	-15039
▁ris	-15040
▁sug	-15041
▁wak	-15042
▁was	-15043
▁wha	-15044
accin	-15045
ageal	-15046
akout	-15047
anage	-15048
astic	-15049
cials	-15050
cialt	-15051
compp	-15052
cream	-15053
ingas	-15054
insbu	-15055
lbert	-15056
pport	-15057
ssage	-15058
▁chas	-15059
ancial	-15060
cially	-15061
dehtml	-15062
ercial	-15063
inment	-15064
mented	-15065
mentst	-15066
opment	-15067
ssment	-15068
vement	-15069
▁avenu	-15070
▁loyal	-15071
▁prepp	-15072
▁traff	-15073
▁trapp	-15074
▁traps	-15075
agement	-15076
artment	-15077
asement	-15078
atement	-15079
plemore	-15080
terioar	-15081
▁chickf	-15082
▁confid	-15083
▁wester	-15084
ailynews	-15085
alamputm	-15086
alburger	-15087
alphacom	-15088
alystmcd	-15089
amestops	-15090
amputmme	-15091
analystc	-15092
andcoffe	-15093
anmarket	-15094
antstock	-15095
ardboard	-15096
ariation	-15097
aribbean	-15098
arlatans	-15099
coc	-15100
haa	-15101
▁kf	-15102
▁kh	-15103
▁kn	-15104
allf	-15105
coff	-15106
cola	-15107
cost	-15108
cred	-15109
esss	-15110
hebe	-15111
hour	-15112
laup	-15113
moni	-15114
sday	-15115
stco	-15116
thco	-15117
zion	-15118
▁kis	-15119
▁mcn	-15120
▁mcp	-15121
▁mcs	-15122
▁rig	-15123
▁spo	-15124
▁sun	-15125
▁xpe	-15126
amphl	-15127
ancoh	-15128
bbfca	-15129
celer	-15130
creen	-15131
dayin	-15132
dayvi	-15133
eight	-15134
erent	-15135
iness	-15136
iscop	-15137
iscre	-15138
lantb	-15139
light	-15140
menti	-15141
monad	-15142
onday	-15143
orday	-15144
resta	-15145
rives	-15146
senti	-15147
sight	-15148
stemw	-15149
tsorg	-15150
ultur	-15151
▁alco	-15152
▁burg	-15153
▁frau	-15154
▁mcbe	-15155
▁mclo	-15156
▁meth	-15157
▁suff	-15158
alystc	-15159
entime	-15160
entire	-15161
essmcd	-15162
ightss	-15163
onight	-15164
opport	-15165
▁resta	-15166
▁river	-15167
▁yearp	-15168
aamputm	-15169
famputm	-15170
fcceddd	-15171
kamputm	-15172
llowers	-15173
newsair	-15174
nuggets	-15175
tamputm	-15176
vaccine	-15177
▁direct	-15178
▁httpdi	-15179
▁longti	-15180
▁maturi	-15181
andidate	-15182
articlef	-15183
articlep	-15184
asmarket	-15185
atchlist	-15186
atchquot	-15187
atetradr	-15188
ationfor	-15189
bbcaefab	-15190
beatcomd	-15191
beatcomn	-15192
beatcomp	-15193
beatcomr	-15194
beatcomx	-15195
beefbbcc	-15196
beepcomw	-15197
bfbccdbe	-15198
bloomber	-15199
ebb	-15200
ebf	-15201
ebs	-15202
gma	-15203
gul	-15204
ulu	-15205
yco	-15206
bale	-15207
cale	-15208
ceeb	-15209
coow	-15210
dsma	-15211
dust	-15212
ebbe	-15213
ebit	-15214
ebru	-15215
eeeb	-15216
elay	-15217
fcan	-15218
fted	-15219
imul	-15220
inco	-15221
ipsa	-15222
liab	-15223
main	-15224
sred	-15225
tere	-15226
umpt	-15227
umul	-15228
ustd	-15229
ustw	-15230
utis	-15231
vema	-15232
▁coc	-15233
▁lma	-15234
▁mul	-15235
▁pul	-15236
abioh	-15237
anada	-15238
asteb	-15239
brand	-15240
enreg	-15241
feeds	-15242
imump	-15243
issla	-15244
lower	-15245
lylay	-15246
ormma	-15247
ransi	-15248
ritrn	-15249
ulate	-15250
umpst	-15251
unate	-15252
usted	-15253
ustow	-15254
ustra	-15255
ustri	-15256
ustry	-15257
▁curb	-15258
▁impo	-15259
▁peod	-15260
▁prin	-15261
▁riot	-15262
▁ripp	-15263
▁topl	-15264
bsidiz	-15265
endysb	-15266
riefly	-15267
rispyt	-15268
umpers	-15269
ustint	-15270
▁contr	-15271
▁cover	-15272
▁curly	-15273
▁curre	-15274
▁disru	-15275
▁preco	-15276
▁stren	-15277
beabdeb	-15278
▁contri	-15279
▁foxcon	-15280
▁httpma	-15281
cbeebafb	-15282
cedented	-15283
champion	-15284
cnbcxolu	-15285
cocacola	-15286
comampen	-15287
comdaily	-15288
comnewsj	-15289
comnewsw	-15290
couldbed	-15291
creation	-15292
cripping	-15293
cyclable	-15294
daamputm	-15295
dividual	-15296
dlvritrr	-15297
dlvritrs	-15298
earxodmc	-15299
fte	-15300
lfb	-15301
lgl	-15302
tec	-15303
teg	-15304
ubs	-15305
wte	-15306
allb	-15307
alls	-15308
allt	-15309
bill	-15310
bors	-15311
edcb	-15312
hill	-15313
igni	-15314
itig	-15315
know	-15316
mall	-15317
nowf	-15318
quip	-15319
rica	-15320
rite	-15321
snow	-15322
tech	-15323
tect	-15324
yran	-15325
▁brk	-15326
▁coh	-15327
▁log	-15328
▁lov	-15329
▁sox	-15330
allra	-15331
allst	-15332
anall	-15333
arywi	-15334
ednow	-15335
erper	-15336
iljun	-15337
itiat	-15338
kingo	-15339
oking	-15340
ollow	-15341
oluue	-15342
rands	-15343
redri	-15344
sking	-15345
ttleg	-15346
upamp	-15347
ustdo	-15348
▁bill	-15349
▁brut	-15350
▁coil	-15351
▁fall	-15352
▁lott	-15353
▁solu	-15354
alystr	-15355
eeacac	-15356
febbaf	-15357
ftenti	-15358
illage	-15359
illing	-15360
inking	-15361
kingly	-15362
ladown	-15363
llback	-15364
ported	-15365
portsf	-15366
portst	-15367
starbu	-15368
▁class	-15369
▁coast	-15370
▁reven	-15371
▁revol	-15372
▁tomor	-15373
▁upper	-15374
cations	-15375
cements	-15376
itiesfi	-15377
ounceht	-15378
wichest	-15379
▁actual	-15380
▁alibab	-15381
▁revolu	-15382
aluation	-15383
creaming	-15384
creenerv	-15385
ctuation	-15386
dcomnews	-15387
eecdcaee	-15388
ekingalp	-15389
endation	-15390
endstock	-15391
entially	-15392
entstock	-15393
eramputm	-15394
erations	-15395
ernandez	-15396
ersation	-15397
erviceor	-15398
erweight	-15399
dib	-15400
etf	-15401
etv	-15402
het	-15403
ibs	-15404
mbo	-15405
net	-15406
ogt	-15407
qsd	-15408
udi	-15409
wwc	-15410
aryw	-15411
bsor	-15412
bsur	-15413
cary	-15414
diab	-15415
eyll	-15416
goth	-15417
igns	-15418
indi	-15419
insn	-15420
itia	-15421
ityb	-15422
leet	-15423
mbin	-15424
mtwi	-15425
nity	-15426
slee	-15427
thet	-15428
umbs	-15429
umdi	-15430
usgo	-15431
vemb	-15432
▁gmb	-15433
arker	-15434
atedi	-15435
credi	-15436
dgere	-15437
diate	-15438
dient	-15439
eefda	-15440
esity	-15441
etest	-15442
etrad	-15443
insin	-15444
itial	-15445
ivery	-15446
mcdyn	-15447
olini	-15448
orary	-15449
oriti	-15450
ostic	-15451
quiti	-15452
trend	-15453
ulins	-15454
video	-15455
▁look	-15456
▁moni	-15457
▁most	-15458
arvest	-15459
ersity	-15460
essins	-15461
itiate	-15462
ningsh	-15463
olumes	-15464
orning	-15465
ounced	-15466
ounsel	-15467
veryth	-15468
vestab	-15469
vestor	-15470
▁bigha	-15471
▁condi	-15472
▁expan	-15473
fitable	-15474
insight	-15475
layedac	-15476
ourcevi	-15477
soaring	-15478
tically	-15479
uationc	-15480
vistctw	-15481
▁believ	-15482
▁consen	-15483
▁consol	-15484
▁fastfo	-15485
▁ingenu	-15486
esterday	-15487
eststock	-15488
etesting	-15489
ewburger	-15490
ffeebfba	-15491
fficient	-15492
fightfor	-15493
filterio	-15494
fullyear	-15495
getcovid	-15496
ggestion	-15497
govarchi	-15498
growtham	-15499
aaf	-15500
afd	-15501
afh	-15502
afu	-15503
cgo	-15504
dae	-15505
eaf	-15506
fda	-15507
gcp	-15508
hah	-15509
hip	-15510
lip	-15511
mga	-15512
mgs	-15513
nni	-15514
paf	-15515
uip	-15516
vda	-15517
ysm	-15518
afar	-15519
afda	-15520
afed	-15521
afet	-15522
anip	-15523
asda	-15524
athe	-15525
daff	-15526
eefa	-15527
eefy	-15528
enhe	-15529
erha	-15530
good	-15531
hare	-15532
ignk	-15533
ious	-15534
logo	-15535
owhe	-15536
quaf	-15537
sign	-15538
sthe	-15539
uego	-15540
usbd	-15541
▁ahe	-15542
▁caf	-15543
ancey	-15544
babab	-15545
david	-15546
going	-15547
haand	-15548
hacom	-15549
iance	-15550
ickup	-15551
igned	-15552
iosfs	-15553
istra	-15554
kscom	-15555
ksent	-15556
oplet	-15557
pectf	-15558
reakd	-15559
reakf	-15560
reign	-15561
spect	-15562
zzzgo	-15563
▁cred	-15564
▁denm	-15565
▁mari	-15566
▁memb	-15567
▁nego	-15568
▁poll	-15569
▁posi	-15570
atingt	-15571
bating	-15572
enddlv	-15573
erance	-15574
ernies	-15575
ingled	-15576
pected	-15577
uspect	-15578
▁insul	-15579
▁midge	-15580
▁preip	-15581
▁retai	-15582
▁retra	-15583
▁retur	-15584
licants	-15585
ormance	-15586
reaking	-15587
streets	-15588
thelist	-15589
beatcoms	-15590
hahahaha	-15591
idabased	-15592
illionai	-15593
illiondo	-15594
ingstock	-15595
inuation	-15596
invdagww	-15597
isattack	-15598
iterally	-15599
bbb	-15600
cup	-15601
[...]
