[PAD]	0
[UNK]	0
[BOS]	0
[EOS]	0
[SEP]	0
[CLS]	0
[MASK]	0
▁p	-0
in	-1
fe	-2
▁pfe	-3
▁s	-4
er	-5
on	-6
▁c	-7
re	-8
▁m	-9
ing	-10
▁b	-11
▁t	-12
al	-13
▁g	-14
es	-15
an	-16
▁d	-17
en	-18
ar	-19
ac	-20
▁l	-21
▁w	-22
ed	-23
at	-24
▁h	-25
or	-26
▁f	-27
et	-28
ll	-29
om	-30
▁a	-31
ou	-32
st	-33
▁v	-34
ay	-35
ro	-36
it	-37
▁n	-38
▁e	-39
▁st	-40
ion	-41
ic	-42
id	-43
acc	-44
▁re	-45
accin	-46
▁go	-47
ck	-48
▁vaccin	-49
le	-50
ad	-51
ly	-52
▁ne	-53
ld	-54
op	-55
ent	-56
us	-57
ke	-58
od	-59
ot	-60
iz	-61
ov	-62
pp	-63
na	-64
im	-65
▁vaccine	-66
ig	-67
ec	-68
▁sh	-69
is	-70
ock	-71
as	-72
nt	-73
os	-74
ut	-75
izer	-76
ow	-77
▁th	-78
fizer	-79
ee	-80
ps	-81
iv	-82
▁bu	-83
one	-84
ill	-85
▁r	-86
▁in	-87
tt	-88
am	-89
all	-90
▁pfizer	-91
ws	-92
ont	-93
▁stock	-94
▁mr	-95
▁htt	-96
ver	-97
▁com	-98
est	-99
▁mrna	-100
ch	-101
ht	-102
ell	-103
el	-104
▁https	-105
um	-106
un	-107
▁tr	-108
▁y	-109
ol	-110
▁app	-111
rov	-112
▁get	-113
ant	-114
ers	-115
qu	-116
ce	-117
are	-118
ear	-119
ort	-120
▁li	-121
ir	-122
▁approv	-123
ovid	-124
art	-125
ation	-126
▁buy	-127
com	-128
▁ch	-129
oo	-130
▁k	-131
old	-132
▁j	-133
▁an	-134
ul	-135
▁im	-136
ive	-137
king	-138
▁al	-139
▁pr	-140
ake	-141
il	-142
ur	-143
▁pro	-144
▁ex	-145
da	-146
▁wor	-147
tion	-148
▁us	-149
▁covid	-150
▁like	-151
▁news	-152
▁going	-153
ark	-154
▁pe	-155
th	-156
ould	-157
ww	-158
ter	-159
ip	-160
ge	-161
ab	-162
and	-163
ast	-164
▁day	-165
ight	-166
▁call	-167
end	-168
ice	-169
ong	-170
▁sell	-171
em	-172
▁peop	-173
eek	-174
www	-175
arket	-176
ne	-177
ap	-178
av	-179
▁people	-180
▁op	-181
▁week	-182
ack	-183
▁see	-184
▁su	-185
ally	-186
amp	-187
ist	-188
▁httpswww	-189
ntx	-190
ess	-191
oday	-192
▁sp	-193
ct	-194
▁bntx	-195
▁dont	-196
▁ever	-197
illion	-198
▁today	-199
▁fda	-200
▁share	-201
▁comp	-202
ate	-203
row	-204
▁man	-205
▁o	-206
ain	-207
her	-208
▁market	-209
day	-210
▁tim	-211
ak	-212
▁good	-213
ies	-214
▁de	-215
▁u	-216
ide	-217
ech	-218
oun	-219
▁ad	-220
▁approval	-221
oug	-222
ment	-223
▁pl	-224
quot	-225
act	-226
ie	-227
now	-228
▁exp	-229
▁am	-230
oney	-231
▁calls	-232
▁pre	-233
news	-234
ep	-235
ting	-236
ial	-237
▁money	-238
▁time	-239
▁every	-240
ven	-241
▁loo	-242
▁tom	-243
ink	-244
app	-245
ys	-246
▁mov	-247
▁back	-248
▁gre	-249
▁hold	-250
uck	-251
▁price	-252
out	-253
ffe	-254
ning	-255
▁vaccines	-256
▁tomor	-257
ump	-258
our	-259
▁one	-260
▁let	-261
xt	-262
ib	-263
se	-264
▁tomorrow	-265
ks	-266
▁cl	-267
▁know	-268
▁year	-269
ard	-270
▁do	-271
▁big	-272
▁new	-273
▁pos	-274
ure	-275
▁would	-276
oder	-277
ish	-278
ase	-279
▁compan	-280
▁shares	-281
ated	-282
ost	-283
▁he	-284
▁un	-285
▁con	-286
▁next	-287
ff	-288
ats	-289
▁gu	-290
▁le	-291
ss	-292
▁need	-293
▁think	-294
▁bull	-295
oderna	-296
ue	-297
ry	-298
ady	-299
▁short	-300
▁say	-301
ag	-302
utm	-303
▁world	-304
▁long	-305
vest	-306
▁moderna	-307
▁wh	-308
atch	-309
ose	-310
▁sa	-311
ity	-312
ah	-313
ra	-314
tions	-315
ax	-316
ect	-317
▁still	-318
▁make	-319
ick	-320
vaccin	-321
▁ro	-322
du	-323
io	-324
erg	-325
amputm	-326
▁fe	-327
hing	-328
▁want	-329
▁approved	-330
▁lol	-331
▁bear	-332
ire	-333
irus	-334
der	-335
ount	-336
lo	-337
▁mu	-338
ine	-339
its	-340
▁mon	-341
irst	-342
▁trad	-343
ub	-344
ought	-345
▁even	-346
▁take	-347
ait	-348
▁any	-349
▁happ	-350
oon	-351
▁som	-352
▁hig	-353
ous	-354
int	-355
▁invest	-356
so	-357
▁sc	-358
ru	-359
▁me	-360
▁fuck	-361
▁first	-362
oses	-363
aking	-364
tech	-365
port	-366
ound	-367
▁put	-368
▁ear	-369
alth	-370
▁hop	-371
▁company	-372
ind	-373
▁million	-374
ical	-375
▁lets	-376
▁wait	-377
▁could	-378
▁monday	-379
age	-380
▁ke	-381
▁billion	-382
ffect	-383
aly	-384
iontech	-385
ber	-386
▁start	-387
▁right	-388
ign	-389
ve	-390
▁dec	-391
ans	-392
▁getting	-393
▁got	-394
orm	-395
▁fo	-396
▁move	-397
▁may	-398
▁much	-399
ia	-400
oron	-401
ull	-402
▁fr	-403
ready	-404
▁shit	-405
▁green	-406
▁cont	-407
▁way	-408
▁already	-409
▁ar	-410
▁quot	-411
▁days	-412
▁doses	-413
▁stocks	-414
og	-415
over	-416
hs	-417
▁bet	-418
stock	-419
▁qu	-420
▁come	-421
tr	-422
pfizer	-423
▁res	-424
▁pat	-425
way	-426
▁che	-427
▁str	-428
▁well	-429
▁eu	-430
▁ph	-431
ens	-432
▁coming	-433
ms	-434
▁effect	-435
▁dro	-436
pfe	-437
▁last	-438
ition	-439
▁be	-440
ors	-441
▁hope	-442
▁inc	-443
iss	-444
▁jan	-445
▁supp	-446
ary	-447
▁ab	-448
▁thats	-449
▁end	-450
ance	-451
▁add	-452
▁cant	-453
ud	-454
ren	-455
▁ce	-456
ents	-457
ail	-458
enc	-459
▁spy	-460
▁run	-461
▁prof	-462
ord	-463
ory	-464
▁dis	-465
▁many	-466
▁bre	-467
▁soon	-468
ace	-469
▁look	-470
▁low	-471
if	-472
▁sm	-473
▁mont	-474
▁options	-475
▁watch	-476
able	-477
la	-478
▁all	-479
▁buying	-480
he	-481
▁real	-482
▁per	-483
be	-484
oronav	-485
▁said	-486
▁can	-487
covid	-488
▁keep	-489
▁play	-490
▁bears	-491
oronavirus	-492
artic	-493
other	-494
▁thing	-495
▁produ	-496
▁gon	-497
ml	-498
ough	-499
▁se	-500
ash	-501
▁bought	-502
▁guys	-503
erm	-504
▁bo	-505
ating	-506
▁ag	-507
pe	-508
▁div	-509
ata	-510
▁selling	-511
▁gonna	-512
ass	-513
▁bl	-514
up	-515
ore	-516
ipul	-517
ence	-518
▁count	-519
▁cr	-520
▁manipul	-521
▁reac	-522
▁red	-523
ecom	-524
alyst	-525
▁min	-526
▁earning	-527
vel	-528
pt	-529
med	-530
ations	-531
▁ceo	-532
▁health	-533
ily	-534
▁tw	-535
ade	-536
▁happen	-537
▁lo	-538
ious	-539
▁sav	-540
ise	-541
▁also	-542
▁holding	-543
▁sold	-544
▁better	-545
▁br	-546
▁everyone	-547
zn	-548
▁open	-549
▁acc	-550
▁high	-551
oint	-552
▁great	-553
html	-554
ame	-555
▁bulls	-556
ite	-557
▁really	-558
▁sec	-559
▁em	-560
▁expect	-561
amputmc	-562
sid	-563
▁di	-564
arm	-565
▁jo	-566
arg	-567
▁en	-568
esnt	-569
▁tech	-570
tw	-571
itt	-572
▁lot	-573
elie	-574
▁read	-575
▁not	-576
ult	-577
▁doesnt	-578
ith	-579
▁shot	-580
▁rel	-581
bc	-582
▁bad	-583
▁goes	-584
lease	-585
idend	-586
▁del	-587
▁never	-588
▁vol	-589
▁act	-590
rent	-591
▁los	-592
▁hu	-593
▁sure	-594
vaccine	-595
▁wall	-596
ank	-597
▁close	-598
▁up	-599
ates	-600
ffic	-601
▁use	-602
outub	-603
▁bullish	-604
cial	-605
▁prob	-606
own	-607
▁stop	-608
iday	-609
▁hour	-610
▁around	-611
fil	-612
▁dividend	-613
▁allerg	-614
ium	-615
reet	-616
pr	-617
ust	-618
▁sl	-619
▁years	-620
per	-621
▁mor	-622
▁somet	-623
▁fl	-624
▁fin	-625
▁gr	-626
▁side	-627
▁another	-628
▁earnings	-629
rug	-630
▁work	-631
ying	-632
▁httpsnews	-633
ember	-634
▁rec	-635
filter	-636
ree	-637
▁med	-638
youtub	-639
▁wont	-640
▁belie	-641
raz	-642
▁some	-643
gn	-644
llar	-645
▁azn	-646
uth	-647
filterio	-648
▁biontech	-649
rib	-650
▁puts	-651
ency	-652
▁hand	-653
▁part	-654
▁break	-655
▁dollar	-656
ually	-657
▁feel	-658
▁looking	-659
▁huge	-660
▁ac	-661
▁friday	-662
▁pric	-663
ize	-664
▁ann	-665
▁reven	-666
thing	-667
▁we	-668
▁show	-669
▁pati	-670
twits	-671
of	-672
▁morning	-673
▁amp	-674
▁trump	-675
▁gover	-676
▁vot	-677
ution	-678
▁anyone	-679
▁trading	-680
▁something	-681
ounce	-682
ert	-683
▁govern	-684
▁or	-685
ny	-686
▁sw	-687
▁comm	-688
▁techn	-689
ume	-690
▁says	-691
ction	-692
▁load	-693
▁rece	-694
orth	-695
▁ret	-696
▁sal	-697
▁made	-698
min	-699
▁hit	-700
▁might	-701
▁ill	-702
▁report	-703
form	-704
ook	-705
▁drug	-706
▁post	-707
▁yet	-708
▁sin	-709
▁care	-710
sc	-711
▁gain	-712
ody	-713
▁two	-714
▁government	-715
▁dip	-716
▁chan	-717
▁profit	-718
akes	-719
▁flo	-720
▁conf	-721
biontech	-722
ues	-723
▁reg	-724
als	-725
▁pay	-726
▁pop	-727
▁cap	-728
▁drop	-729
▁is	-730
▁term	-731
▁street	-732
ott	-733
▁z	-734
ike	-735
▁volume	-736
▁nv	-737
▁ind	-738
ond	-739
oc	-740
▁gl	-741
iot	-742
▁mar	-743
▁tur	-744
▁weeks	-745
▁under	-746
ased	-747
aa	-748
itive	-749
acking	-750
▁looks	-751
▁give	-752
sour	-753
▁fun	-754
nj	-755
market	-756
▁oc	-757
▁wr	-758
▁the	-759
▁approve	-760
pl	-761
▁cur	-762
▁you	-763
▁ass	-764
uthor	-765
▁virus	-766
article	-767
ug	-768
ason	-769
▁nothing	-770
iew	-771
▁point	-772
alys	-773
▁maybe	-774
oub	-775
▁cheap	-776
▁inter	-777
ild	-778
alysis	-779
▁fucking	-780
▁at	-781
▁id	-782
les	-783
▁revenue	-784
▁dr	-785
▁hours	-786
▁please	-787
ries	-788
▁http	-789
▁inst	-790
▁nvax	-791
▁with	-792
▁months	-793
lic	-794
▁uk	-795
▁stay	-796
▁believe	-797
tf	-798
▁chart	-799
ement	-800
▁safe	-801
▁least	-802
▁as	-803
▁jnj	-804
▁pfizers	-805
▁best	-806
▁pump	-807
▁since	-808
▁companies	-809
▁co	-810
idnt	-811
▁for	-812
▁position	-813
ns	-814
llow	-815
▁tick	-816
▁ev	-817
ward	-818
▁yes	-819
▁rem	-820
▁didnt	-821
quant	-822
▁httpsquant	-823
▁adv	-824
▁loss	-825
▁support	-826
less	-827
▁win	-828
▁ready	-829
▁float	-830
anks	-831
sib	-832
aj	-833
ampa	-834
iver	-835
ives	-836
▁tal	-837
▁data	-838
ergency	-839
▁coronavirus	-840
ph	-841
ada	-842
▁ent	-843
ways	-844
▁nice	-845
▁ther	-846
▁val	-847
▁doub	-848
▁kill	-849
ft	-850
▁worth	-851
ably	-852
▁sign	-853
ole	-854
ute	-855
▁taking	-856
▁bid	-857
ative	-858
▁effects	-859
▁positive	-860
fr	-861
▁sur	-862
▁q	-863
arget	-864
watch	-865
ontent	-866
eric	-867
ideo	-868
▁less	-869
▁whats	-870
▁allergic	-871
olog	-872
▁making	-873
cer	-874
▁war	-875
▁x	-876
▁ca	-877
▁author	-878
▁reason	-879
wh	-880
ampaign	-881
ization	-882
▁el	-883
▁des	-884
▁dist	-885
minist	-886
▁someone	-887
elp	-888
▁ok	-889
▁set	-890
▁bott	-891
ced	-892
amputmmed	-893
ath	-894
▁bit	-895
comnews	-896
▁deal	-897
▁they	-898
velop	-899
▁tell	-900
amputmmedium	-901
▁target	-902
▁analyst	-903
ines	-904
▁needs	-905
▁follow	-906
gr	-907
▁guess	-908
▁ts	-909
▁incre	-910
▁probably	-911
view	-912
▁pharm	-913
comstock	-914
▁ocgn	-915
estock	-916
▁related	-917
imul	-918
sh	-919
▁da	-920
af	-921
▁trial	-922
ments	-923
▁bottom	-924
▁out	-925
▁waiting	-926
ester	-927
▁video	-928
▁pm	-929
▁gen	-930
▁hard	-931
▁shorts	-932
▁investors	-933
▁dump	-934
▁head	-935
ied	-936
▁eas	-937
▁gets	-938
▁month	-939
ex	-940
uary	-941
▁mms	-942
sourc	-943
▁higher	-944
▁dam	-945
▁strong	-946
▁countries	-947
▁cle	-948
imulus	-949
▁manipulation	-950
rend	-951
▁free	-952
▁product	-953
▁oh	-954
ully	-955
▁ser	-956
▁march	-957
ful	-958
▁done	-959
youtubecom	-960
▁deliver	-961
▁thought	-962
iving	-963
▁tsla	-964
ush	-965
▁wow	-966
▁wtf	-967
sider	-968
▁test	-969
chart	-970
▁life	-971
▁administ	-972
▁priced	-973
▁january	-974
amputmcampaign	-975
ics	-976
cket	-977
▁canada	-978
▁yester	-979
▁develop	-980
▁yesterday	-981
ob	-982
▁sales	-983
comm	-984
▁pan	-985
stand	-986
▁check	-987
▁rever	-988
fin	-989
ress	-990
▁help	-991
uss	-992
osp	-993
▁ris	-994
▁possib	-995
ater	-996
ense	-997
▁trying	-998
▁trade	-999
umb	-1000
health	-1001
ty	-1002
▁te	-1003
emic	-1004
ittle	-1005
cn	-1006
ger	-1007
▁av	-1008
▁craz	-1009
▁enough	-1010
▁current	-1011
▁la	-1012
▁iss	-1013
▁cons	-1014
▁actually	-1015
▁isnt	-1016
▁luck	-1017
▁went	-1018
▁emergency	-1019
ile	-1020
uture	-1021
▁daily	-1022
use	-1023
▁beg	-1024
▁little	-1025
▁distrib	-1026
▁stimulus	-1027
fc	-1028
▁prov	-1029
▁pub	-1030
unity	-1031
social	-1032
estocktwits	-1033
sourcestocktwits	-1034
tim	-1035
▁list	-1036
▁saying	-1037
▁effective	-1038
ital	-1039
▁slow	-1040
youtubecomwatch	-1041
▁roll	-1042
▁crazy	-1043
▁mean	-1044
▁over	-1045
ract	-1046
▁indu	-1047
▁order	-1048
▁americ	-1049
▁future	-1050
▁tickers	-1051
usnews	-1052
andemic	-1053
data	-1054
ology	-1055
ned	-1056
▁save	-1057
▁er	-1058
▁eua	-1059
▁vote	-1060
▁always	-1061
▁bab	-1062
▁bro	-1063
▁imm	-1064
ajor	-1065
▁jump	-1066
▁lov	-1067
▁meet	-1068
▁level	-1069
amputmcontent	-1070
mill	-1071
▁compl	-1072
▁thanks	-1073
▁ah	-1074
ared	-1075
▁dollars	-1076
ene	-1077
most	-1078
▁old	-1079
▁major	-1080
▁makes	-1081
▁indust	-1082
chartmill	-1083
az	-1084
▁pot	-1085
socialtr	-1086
socialtracking	-1087
dc	-1088
acy	-1089
▁biden	-1090
▁option	-1091
ds	-1092
oup	-1093
▁mm	-1094
iant	-1095
amputmcontentpfe	-1096
eep	-1097
ins	-1098
ood	-1099
▁expl	-1100
▁hist	-1101
▁analysts	-1102
datausnews	-1103
ially	-1104
▁wrong	-1105
▁hear	-1106
▁sy	-1107
▁contract	-1108
ian	-1109
▁yall	-1110
coronavirus	-1111
▁supply	-1112
cl	-1113
ones	-1114
▁ant	-1115
▁moving	-1116
uc	-1117
ave	-1118
▁fall	-1119
▁youre	-1120
▁contin	-1121
▁reactions	-1122
▁industry	-1123
▁far	-1124
▁pull	-1125
alyz	-1126
pping	-1127
▁lost	-1128
▁likely	-1129
fa	-1130
▁ago	-1131
▁clear	-1132
eed	-1133
▁neg	-1134
▁aver	-1135
▁billions	-1136
▁profits	-1137
ma	-1138
rope	-1139
▁almost	-1140
▁clos	-1141
▁anything	-1142
ces	-1143
arge	-1144
apl	-1145
▁damn	-1146
here	-1147
▁stup	-1148
estion	-1149
▁whole	-1150
▁bearish	-1151
▁interest	-1152
youtubecomwatchv	-1153
ner	-1154
ited	-1155
reat	-1156
ature	-1157
▁grow	-1158
▁lower	-1159
▁saving	-1160
▁millions	-1161
▁ive	-1162
▁dose	-1163
▁cover	-1164
wor	-1165
care	-1166
▁fast	-1167
▁stupid	-1168
▁pfizerbiontech	-1169
▁pt	-1170
▁fly	-1171
▁hands	-1172
▁potent	-1173
▁pandemic	-1174
cess	-1175
for	-1176
ich	-1177
new	-1178
urs	-1179
ised	-1180
▁cor	-1181
▁understand	-1182
▁hal	-1183
▁weak	-1184
ases	-1185
▁mom	-1186
▁happy	-1187
fully	-1188
▁hell	-1189
▁mass	-1190
me	-1191
▁early	-1192
▁offic	-1193
▁small	-1194
▁bounce	-1195
▁else	-1196
ention	-1197
key	-1198
▁reaction	-1199
red	-1200
▁love	-1201
▁europe	-1202
▁disc	-1203
▁it	-1204
ility	-1205
mas	-1206
▁cv	-1207
▁est	-1208
▁ino	-1209
▁expected	-1210
ix	-1211
▁ob	-1212
▁plan	-1213
invest	-1214
▁effic	-1215
▁question	-1216
ang	-1217
▁mat	-1218
▁find	-1219
ulation	-1220
ead	-1221
ued	-1222
▁dem	-1223
▁top	-1224
▁phase	-1225
▁revers	-1226
▁finally	-1227
▁without	-1228
ered	-1229
▁aapl	-1230
▁fact	-1231
▁prot	-1232
onder	-1233
▁meeting	-1234
covidvaccine	-1235
une	-1236
▁imp	-1237
▁dead	-1238
▁form	-1239
orders	-1240
▁seems	-1241
▁result	-1242
▁bur	-1243
▁pen	-1244
▁sub	-1245
▁till	-1246
▁theyre	-1247
oth	-1248
ident	-1249
▁must	-1250
▁large	-1251
▁trans	-1252
oy	-1253
ific	-1254
▁chr	-1255
ts	-1256
olit	-1257
▁amount	-1258
▁second	-1259
▁ups	-1260
▁fake	-1261
fl	-1262
ahah	-1263
▁means	-1264
▁att	-1265
▁moon	-1266
▁rest	-1267
▁gains	-1268
ual	-1269
▁ins	-1270
ither	-1271
▁cand	-1272
covidvaccin	-1273
▁upd	-1274
▁told	-1275
▁comes	-1276
▁thank	-1277
▁public	-1278
de	-1279
the	-1280
▁easy	-1281
▁hosp	-1282
▁rocket	-1283
▁serious	-1284
▁reversal	-1285
▁sci	-1286
▁sol	-1287
▁fore	-1288
▁cents	-1289
▁opport	-1290
fda	-1291
▁took	-1292
▁wonder	-1293
▁ext	-1294
▁pers	-1295
▁seen	-1296
▁sense	-1297
▁sever	-1298
▁cancer	-1299
▁httpst	-1300
ik	-1301
iness	-1302
▁baby	-1303
▁game	-1304
▁past	-1305
ariant	-1306
▁average	-1307
▁technical	-1308
aaa	-1309
con	-1310
oooo	-1311
ading	-1312
▁christ	-1313
▁possible	-1314
gest	-1315
▁lose	-1316
lob	-1317
▁away	-1318
▁vaccinated	-1319
zz	-1320
▁added	-1321
▁quick	-1322
▁everything	-1323
ome	-1324
▁strain	-1325
▁potential	-1326
▁line	-1327
▁history	-1328
adb	-1329
body	-1330
ject	-1331
▁sor	-1332
▁bring	-1333
▁announ	-1334
▁country	-1335
▁analysis	-1336
▁cure	-1337
▁incl	-1338
▁print	-1339
▁times	-1340
▁wants	-1341
▁working	-1342
ky	-1343
quire	-1344
▁cash	-1345
▁stud	-1346
get	-1347
▁fa	-1348
asnt	-1349
▁trust	-1350
commend	-1351
itional	-1352
▁article	-1353
▁vaccination	-1354
ved	-1355
▁god	-1356
▁pow	-1357
▁sim	-1358
▁near	-1359
▁surpr	-1360
analyst	-1361
ross	-1362
usiness	-1363
ief	-1364
▁ton	-1365
ities	-1366
bin	-1367
iend	-1368
iven	-1369
sident	-1370
vious	-1371
▁full	-1372
▁rise	-1373
utical	-1374
▁remember	-1375
und	-1376
▁later	-1377
▁trend	-1378
▁theres	-1379
▁announce	-1380
ier	-1381
▁ye	-1382
▁live	-1383
aceutical	-1384
▁negative	-1385
fact	-1386
▁either	-1387
▁weekend	-1388
▁hopefully	-1389
▁httpswwwb	-1390
sp	-1391
ived	-1392
▁orders	-1393
▁httpswwwcn	-1394
ecting	-1395
▁place	-1396
▁tem	-1397
▁suck	-1398
▁patience	-1399
cast	-1400
ffer	-1401
▁due	-1402
▁hum	-1403
▁includ	-1404
ach	-1405
▁vi	-1406
▁sit	-1407
▁pass	-1408
inking	-1409
▁moment	-1410
▁efficacy	-1411
▁opportunity	-1412
epfe	-1413
ream	-1414
▁try	-1415
ately	-1416
▁begin	-1417
▁production	-1418
▁miss	-1419
▁president	-1420
▁authorization	-1421
▁amaz	-1422
▁though	-1423
eez	-1424
▁et	-1425
ange	-1426
ling	-1427
▁person	-1428
▁watching	-1429
▁christmas	-1430
bo	-1431
hip	-1432
ever	-1433
pped	-1434
utes	-1435
▁ste	-1436
my	-1437
ior	-1438
▁cn	-1439
tern	-1440
▁tot	-1441
▁idiot	-1442
▁chance	-1443
▁hy	-1444
▁mut	-1445
itter	-1446
▁things	-1447
ized	-1448
▁squ	-1449
earch	-1450
▁cong	-1451
▁pain	-1452
▁diffe	-1453
▁avail	-1454
▁gener	-1455
▁knows	-1456
▁car	-1457
bb	-1458
more	-1459
▁exc	-1460
▁based	-1461
▁worst	-1462
▁talking	-1463
ator	-1464
fadb	-1465
▁risk	-1466
▁board	-1467
▁thinking	-1468
fcaaa	-1469
▁sorry	-1470
▁proble	-1471
ok	-1472
tc	-1473
▁pi	-1474
amps	-1475
ufact	-1476
▁mult	-1477
▁media	-1478
keyfadb	-1479
▁recommend	-1480
fcaaaamputm	-1481
▁technology	-1482
▁lear	-1483
▁medic	-1484
▁action	-1485
▁started	-1486
▁december	-1487
▁premarket	-1488
ae	-1489
we	-1490
dic	-1491
tty	-1492
▁ty	-1493
▁mid	-1494
▁resp	-1495
▁event	-1496
▁growth	-1497
▁instead	-1498
▁chin	-1499
▁complet	-1500
uk	-1501
where	-1502
▁plus	-1503
▁value	-1504
▁change	-1505
▁matter	-1506
▁pretty	-1507
▁results	-1508
▁increase	-1509
go	-1510
▁gap	-1511
iotech	-1512
▁delay	-1513
▁available	-1514
▁distribution	-1515
man	-1516
▁die	-1517
▁her	-1518
▁pur	-1519
ental	-1520
ision	-1521
▁shots	-1522
▁variant	-1523
▁starting	-1524
back	-1525
uters	-1526
▁case	-1527
▁account	-1528
▁po	-1529
▁bag	-1530
▁blo	-1531
▁abus	-1532
ically	-1533
▁manufact	-1534
▁healthcare	-1535
▁lma	-1536
▁nov	-1537
▁regul	-1538
▁double	-1539
▁httpsyoutub	-1540
gle	-1541
▁bs	-1542
aths	-1543
fect	-1544
unch	-1545
▁fol	-1546
▁dire	-1547
▁moves	-1548
analysis	-1549
▁happens	-1550
ral	-1551
▁bi	-1552
▁tes	-1553
ether	-1554
▁glob	-1555
▁expire	-1556
▁massive	-1557
ece	-1558
fer	-1559
▁sr	-1560
iple	-1561
▁feb	-1562
▁size	-1563
ration	-1564
▁expir	-1565
mm	-1566
nel	-1567
not	-1568
▁ast	-1569
▁cov	-1570
▁coup	-1571
▁glad	-1572
▁polit	-1573
▁seeing	-1574
▁contracts	-1575
▁manipulated	-1576
ets	-1577
▁inv	-1578
▁half	-1579
▁rich	-1580
▁turn	-1581
▁buffe	-1582
sw	-1583
▁sing	-1584
▁treat	-1585
▁contro	-1586
▁listen	-1587
▁predic	-1588
▁receive	-1589
▁af	-1590
enec	-1591
▁ask	-1592
▁cre	-1593
▁log	-1594
▁buys	-1595
▁advis	-1596
▁wouldnt	-1597
▁confident	-1598
aw	-1599
▁rid	-1600
▁usa	-1601
▁couple	-1602
▁patient	-1603
▁require	-1604
▁additional	-1605
acom	-1606
ners	-1607
▁becom	-1608
▁retail	-1609
ahoo	-1610
iter	-1611
ouch	-1612
▁mak	-1613
▁team	-1614
▁bas	-1615
▁coll	-1616
▁imag	-1617
approv	-1618
▁human	-1619
▁press	-1620
▁explain	-1621
▁dividends	-1622
▁ib	-1623
▁my	-1624
▁push	-1625
▁folks	-1626
dd	-1627
led	-1628
▁mind	-1629
▁prom	-1630
▁power	-1631
▁happened	-1632
▁es	-1633
arter	-1634
▁left	-1635
▁pharma	-1636
▁within	-1637
▁official	-1638
fo	-1639
aken	-1640
cent	-1641
hood	-1642
▁air	-1643
▁ride	-1644
▁seem	-1645
lect	-1646
▁eod	-1647
bccom	-1648
▁ship	-1649
others	-1650
▁states	-1651
▁recover	-1652
bs	-1653
off	-1654
▁cat	-1655
▁bank	-1656
▁yeah	-1657
▁cause	-1658
▁defin	-1659
▁entire	-1660
articles	-1661
si	-1662
line	-1663
▁bell	-1664
▁norm	-1665
ending	-1666
▁deser	-1667
▁tesla	-1668
▁deaths	-1669
arb	-1670
rit	-1671
▁down	-1672
▁joke	-1673
▁prem	-1674
▁squeez	-1675
▁expecting	-1676
▁bill	-1677
▁given	-1678
▁study	-1679
▁review	-1680
ouse	-1681
▁boys	-1682
erstock	-1683
▁friend	-1684
▁workers	-1685
▁httpswwwg	-1686
▁abs	-1687
▁china	-1688
ted	-1689
ards	-1690
▁boo	-1691
eline	-1692
oogle	-1693
umber	-1694
yahoo	-1695
▁able	-1696
▁cent	-1697
▁wish	-1698
▁markets	-1699
▁minutes	-1700
▁investment	-1701
come	-1702
head	-1703
▁cal	-1704
▁dow	-1705
▁lmao	-1706
▁port	-1707
rating	-1708
▁demand	-1709
▁movement	-1710
▁mil	-1711
▁speed	-1712
▁confir	-1713
▁hoping	-1714
▁instit	-1715
▁release	-1716
▁approves	-1717
▁currently	-1718
ta	-1719
▁spec	-1720
analyz	-1721
ection	-1722
▁panel	-1723
▁disapp	-1724
▁issues	-1725
▁received	-1726
dl	-1727
▁so	-1728
▁rat	-1729
erman	-1730
▁agre	-1731
ording	-1732
▁india	-1733
▁night	-1734
▁panic	-1735
▁premium	-1736
▁decision	-1737
▁hospital	-1738
ons	-1739
val	-1740
down	-1741
▁par	-1742
▁swing	-1743
▁others	-1744
analyzerstock	-1745
ba	-1746
▁shi	-1747
▁sky	-1748
istic	-1749
▁scam	-1750
▁retur	-1751
eration	-1752
▁happening	-1753
fd	-1754
ero	-1755
▁vs	-1756
rence	-1757
▁piece	-1758
▁biggest	-1759
analyzerstockpfe	-1760
ye	-1761
ness	-1762
sent	-1763
▁aal	-1764
▁guy	-1765
▁gott	-1766
▁late	-1767
▁forget	-1768
co	-1769
org	-1770
ging	-1771
▁flu	-1772
▁ref	-1773
▁drops	-1774
▁robin	-1775
▁smart	-1776
▁should	-1777
ooglecom	-1778
▁httpswwwcnbccom	-1779
▁ra	-1780
▁beh	-1781
▁max	-1782
▁pip	-1783
▁suc	-1784
▁lives	-1785
▁spike	-1786
▁total	-1787
▁update	-1788
quotepfe	-1789
▁biotech	-1790
fol	-1791
▁pa	-1792
overs	-1793
ursday	-1794
▁reach	-1795
▁using	-1796
▁works	-1797
▁consider	-1798
read	-1799
▁cut	-1800
inion	-1801
▁bitch	-1802
▁number	-1803
▁insider	-1804
▁according	-1805
▁different	-1806
comstockquotepfe	-1807
pos	-1808
bert	-1809
▁smh	-1810
▁dips	-1811
▁gone	-1812
▁ones	-1813
uation	-1814
▁death	-1815
▁global	-1816
▁prices	-1817
with	-1818
▁hon	-1819
▁joh	-1820
▁sch	-1821
▁congr	-1822
razenec	-1823
outh	-1824
▁goo	-1825
▁vax	-1826
olute	-1827
▁dumb	-1828
▁dropping	-1829
▁announced	-1830
ands	-1831
rael	-1832
▁died	-1833
▁sent	-1834
▁committ	-1835
▁absolute	-1836
▁research	-1837
hh	-1838
▁hur	-1839
▁sad	-1840
▁itll	-1841
▁found	-1842
▁normal	-1843
▁imagine	-1844
▁continue	-1845
▁thursday	-1846
▁gt	-1847
ades	-1848
▁kid	-1849
itely	-1850
▁aint	-1851
▁cold	-1852
▁fire	-1853
▁funny	-1854
▁record	-1855
▁squeeze	-1856
▁robinhood	-1857
mp	-1858
aps	-1859
umm	-1860
▁scre	-1861
▁therap	-1862
▁patients	-1863
ays	-1864
post	-1865
▁nio	-1866
▁fund	-1867
▁true	-1868
▁viag	-1869
ertain	-1870
▁hahah	-1871
▁super	-1872
▁vx	-1873
▁fre	-1874
▁leg	-1875
world	-1876
▁held	-1877
▁lock	-1878
▁purch	-1879
▁regard	-1880
▁feeling	-1881
filterioa	-1882
▁ho	-1883
▁int	-1884
folio	-1885
▁cost	-1886
▁fear	-1887
ational	-1888
▁httpss	-1889
▁recent	-1890
▁interesting	-1891
cing	-1892
ides	-1893
▁ble	-1894
▁dep	-1895
▁garb	-1896
▁covax	-1897
▁problem	-1898
▁business	-1899
itch	-1900
rupt	-1901
stem	-1902
used	-1903
▁ide	-1904
▁wed	-1905
▁minus	-1906
▁adding	-1907
▁garbage	-1908
▁definitely	-1909
▁population	-1910
hit	-1911
ows	-1912
ators	-1913
conom	-1914
▁cour	-1915
▁used	-1916
▁takes	-1917
▁trash	-1918
▁german	-1919
▁honest	-1920
▁levels	-1921
▁single	-1922
▁quarter	-1923
hold	-1924
▁doct	-1925
▁fail	-1926
▁alert	-1927
▁exact	-1928
▁penny	-1929
▁losses	-1930
▁viagra	-1931
▁percent	-1932
▁multiple	-1933
by	-1934
ane	-1935
ret	-1936
▁aw	-1937
▁zom	-1938
ising	-1939
▁buck	-1940
▁econom	-1941
▁european	-1942
▁administration	-1943
pro	-1944
▁fam	-1945
▁fill	-1946
▁fool	-1947
▁severe	-1948
▁obvious	-1949
▁partners	-1950
rt	-1951
ode	-1952
ants	-1953
▁fac	-1954
▁nob	-1955
ished	-1956
▁longer	-1957
fund	-1958
▁clim	-1959
▁crap	-1960
▁lead	-1961
▁stor	-1962
witter	-1963
▁highs	-1964
▁loaded	-1965
▁trials	-1966
▁traders	-1967
aha	-1968
ric	-1969
eter	-1970
▁imo	-1971
▁ppl	-1972
ience	-1973
▁mild	-1974
▁tank	-1975
▁apple	-1976
▁overs	-1977
▁direct	-1978
▁control	-1979
▁shorting	-1980
▁institution	-1981
▁pharmaceutical	-1982
▁ed	-1983
▁tow	-1984
▁hate	-1985
▁adver	-1986
▁fight	-1987
▁taken	-1988
▁worry	-1989
▁buffet	-1990
▁resist	-1991
▁playing	-1992
▁seriously	-1993
fort	-1994
▁rum	-1995
▁lots	-1996
▁candid	-1997
▁system	-1998
▁unless	-1999
▁anymore	-2000
▁mention	-2001
▁reports	-2002
▁complete	-2003
uff	-2004
ient	-2005
neum	-2006
vent	-2007
▁jab	-2008
share	-2009
▁food	-2010
inical	-2011
▁antib	-2012
▁analyz	-2013
▁import	-2014
▁opinion	-2015
▁pipeline	-2016
▁transport	-2017
▁manufactur	-2018
ii	-2019
pre	-2020
▁gam	-2021
after	-2022
▁heav	-2023
ission	-2024
▁rally	-2025
▁range	-2026
▁scared	-2027
▁delivery	-2028
▁committee	-2029
▁including	-2030
ooglecomamps	-2031
str	-2032
ude	-2033
arant	-2034
▁knew	-2035
▁pick	-2036
coming	-2037
uesday	-2038
▁exper	-2039
▁liter	-2040
amental	-2041
▁charts	-2042
▁idiots	-2043
perature	-2044
▁holders	-2045
▁loading	-2046
▁success	-2047
▁products	-2048
nk	-2049
eps	-2050
▁dry	-2051
▁name	-2052
▁simp	-2053
▁hasnt	-2054
▁heres	-2055
ratings	-2056
vaccines	-2057
▁closing	-2058
▁forward	-2059
▁breaking	-2060
▁medicine	-2061
pec	-2062
▁cvs	-2063
▁face	-2064
▁stat	-2065
ashing	-2066
jected	-2067
▁drugs	-2068
▁shows	-2069
▁weekly	-2070
▁httpswwwst	-2071
alk	-2072
▁ep	-2073
▁bio	-2074
pharm	-2075
▁cnbc	-2076
▁fauc	-2077
▁marg	-2078
▁talk	-2079
▁ahead	-2080
▁bleed	-2081
finance	-2082
▁discuss	-2083
br	-2084
ists	-2085
onia	-2086
▁sun	-2087
ensus	-2088
▁link	-2089
▁mark	-2090
▁pneum	-2091
▁become	-2092
▁giving	-2093
▁approvals	-2094
gov	-2095
enef	-2096
medi	-2097
▁cdc	-2098
▁cho	-2099
▁cro	-2100
escom	-2101
iment	-2102
▁burn	-2103
▁date	-2104
▁rele	-2105
▁srne	-2106
idence	-2107
valued	-2108
▁realize	-2109
▁testing	-2110
▁literally	-2111
▁portfolio	-2112
▁surprised	-2113
bu	-2114
ged	-2115
gen	-2116
omo	-2117
▁fk	-2118
▁rip	-2119
▁bour	-2120
▁scal	-2121
▁warp	-2122
nowcom	-2123
▁house	-2124
▁moved	-2125
▁touch	-2126
insight	-2127
▁called	-2128
▁closed	-2129
▁losing	-2130
▁channel	-2131
▁tonight	-2132
▁bullshit	-2133
▁consensus	-2134
▁temperature	-2135
▁administered	-2136
nb	-2137
ym	-2138
eth	-2139
orn	-2140
ried	-2141
time	-2142
wide	-2143
▁fck	-2144
▁fig	-2145
▁hav	-2146
▁job	-2147
▁hype	-2148
▁greed	-2149
▁keeps	-2150
▁sweep	-2151
▁common	-2152
▁nobody	-2153
isnowcom	-2154
▁everyday	-2155
▁forecast	-2156
▁developed	-2157
isnowcominsight	-2158
cy	-2159
aff	-2160
ept	-2161
igh	-2162
▁ur	-2163
anna	-2164
comp	-2165
▁hey	-2166
▁home	-2167
▁kind	-2168
▁myov	-2169
ercial	-2170
▁cases	-2171
▁solid	-2172
▁clearly	-2173
▁tuesday	-2174
▁invested	-2175
▁reported	-2176
oh	-2177
sk	-2178
cept	-2179
ures	-2180
▁paid	-2181
▁send	-2182
▁sick	-2183
▁blood	-2184
▁freez	-2185
▁upside	-2186
razeneca	-2187
▁america	-2188
▁advisory	-2189
▁allergies	-2190
▁pneumonia	-2191
gre	-2192
ips	-2193
por	-2194
ves	-2195
▁ge	-2196
▁to	-2197
▁how	-2198
▁mer	-2199
▁came	-2200
atever	-2201
▁sound	-2202
▁reward	-2203
▁analyzed	-2204
gt	-2205
how	-2206
▁fd	-2207
ilar	-2208
ured	-2209
▁amd	-2210
▁june	-2211
▁allow	-2212
▁benef	-2213
▁block	-2214
▁climb	-2215
▁whatever	-2216
▁important	-2217
rn	-2218
arr	-2219
daq	-2220
gram	-2221
▁hor	-2222
▁sle	-2223
▁turd	-2224
▁corre	-2225
▁havent	-2226
▁partic	-2227
▁oversold	-2228
▁treatment	-2229
fundamental	-2230
▁httpsyoutube	-2231
amputmmediumfa	-2232
bl	-2233
att	-2234
▁om	-2235
▁sn	-2236
▁gov	-2237
ering	-2238
▁dest	-2239
▁boost	-2240
▁fauci	-2241
▁adverse	-2242
▁deserve	-2243
financeyahoo	-2244
ask	-2245
ges	-2246
ife	-2247
ime	-2248
imin	-2249
▁own	-2250
▁tru	-2251
enews	-2252
▁needed	-2253
▁guarant	-2254
▁running	-2255
▁americans	-2256
ears	-2257
▁fil	-2258
asing	-2259
▁hits	-2260
▁russ	-2261
▁learn	-2262
▁margin	-2263
▁scient	-2264
▁exactly	-2265
▁modernas	-2266
ico	-2267
oot	-2268
unt	-2269
alsy	-2270
▁cell	-2271
▁gold	-2272
▁mess	-2273
▁wake	-2274
▁along	-2275
▁story	-2276
ificant	-2277
▁mildly	-2278
▁united	-2279
▁however	-2280
▁science	-2281
▁catalyst	-2282
aked	-2283
▁cry	-2284
▁mic	-2285
orway	-2286
▁boom	-2287
▁whos	-2288
▁doubt	-2289
▁wanna	-2290
▁makers	-2291
pecially	-2292
▁httpsww	-2293
▁positions	-2294
va	-2295
yt	-2296
bod	-2297
ios	-2298
ians	-2299
umps	-2300
vrit	-2301
▁dig	-2302
lines	-2303
▁sour	-2304
▁strike	-2305
▁perform	-2306
▁present	-2307
▁clinical	-2308
▁investor	-2309
▁absolutely	-2310
analystratings	-2311
gg	-2312
bre	-2313
nson	-2314
onews	-2315
▁numb	-2316
dlvrit	-2317
▁accum	-2318
▁plays	-2319
▁buyers	-2320
▁rather	-2321
▁todays	-2322
▁opening	-2323
comarticle	-2324
▁commercial	-2325
▁disappoint	-2326
▁especially	-2327
▁httpdlvrit	-2328
▁resistance	-2329
scf	-2330
ienc	-2331
▁ice	-2332
inary	-2333
▁dise	-2334
▁pill	-2335
rocket	-2336
▁youll	-2337
▁course	-2338
▁following	-2339
mr	-2340
mt	-2341
add	-2342
net	-2343
uts	-2344
aste	-2345
land	-2346
▁rev	-2347
▁amzn	-2348
▁blah	-2349
▁brok	-2350
▁init	-2351
▁step	-2352
▁dying	-2353
▁offer	-2354
▁cannot	-2355
▁safety	-2356
▁delayed	-2357
▁medical	-2358
▁rollout	-2359
▁storage	-2360
investing	-2361
wittercom	-2362
cal	-2363
nes	-2364
omb	-2365
fric	-2366
ials	-2367
ible	-2368
load	-2369
ring	-2370
▁ter	-2371
▁beat	-2372
▁rscf	-2373
▁sale	-2374
▁stra	-2375
▁prior	-2376
perform	-2377
▁behind	-2378
▁respon	-2379
▁investig	-2380
▁significant	-2381
yy	-2382
joy	-2383
▁cm	-2384
abor	-2385
fore	-2386
reme	-2387
▁hes	-2388
first	-2389
iting	-2390
▁kick	-2391
▁shut	-2392
▁arent	-2393
▁group	-2394
▁shake	-2395
▁rating	-2396
▁falling	-2397
▁provide	-2398
▁worried	-2399
▁operation	-2400
cr	-2401
aim	-2402
ird	-2403
osed	-2404
ients	-2405
ulous	-2406
▁answ	-2407
source	-2408
▁final	-2409
▁gotta	-2410
▁partner	-2411
▁partnership	-2412
▁httpswwwstck	-2413
adv	-2414
can	-2415
▁ip	-2416
▁nas	-2417
▁tax	-2418
▁laug	-2419
▁room	-2420
▁crash	-2421
▁sleep	-2422
▁stand	-2423
ference	-2424
pronews	-2425
▁amazon	-2426
▁bigger	-2427
▁amazing	-2428
▁pattern	-2429
▁tracking	-2430
▁worldwide	-2431
air	-2432
ided	-2433
trad	-2434
▁deb	-2435
▁det	-2436
▁blow	-2437
▁fine	-2438
▁rate	-2439
▁brain	-2440
▁moron	-2441
▁rumor	-2442
▁worse	-2443
▁economy	-2444
▁process	-2445
▁reuters	-2446
▁straight	-2447
▁candidate	-2448
▁everybody	-2449
rm	-2450
aph	-2451
nch	-2452
▁dd	-2453
iest	-2454
work	-2455
▁etc	-2456
▁lim	-2457
heres	-2458
▁gild	-2459
▁alone	-2460
▁indic	-2461
▁extreme	-2462
▁quickly	-2463
pronewspfe	-2464
▁agreement	-2465
▁astrazeneca	-2466
cle	-2467
ecut	-2468
▁sym	-2469
odies	-2470
utral	-2471
▁trap	-2472
▁upgr	-2473
nesday	-2474
▁issue	-2475
▁shoot	-2476
▁south	-2477
▁thous	-2478
▁veter	-2479
▁bourla	-2480
▁expert	-2481
▁voting	-2482
▁dropped	-2483
▁killing	-2484
▁program	-2485
▁congrats	-2486
▁sentiment	-2487
▁vaccinations	-2488
eet	-2489
▁nd	-2490
▁on	-2491
itals	-2492
▁elect	-2493
▁front	-2494
▁relax	-2495
ability	-2496
▁compet	-2497
▁concer	-2498
▁israel	-2499
▁produce	-2500
▁beginning	-2501
▁skyrocket	-2502
▁regardless	-2503
▁announcement	-2504
analysiskeyfadb	-2505
▁httpstwittercom	-2506
nd	-2507
▁ya	-2508
atic	-2509
ular	-2510
▁dog	-2511
▁equ	-2512
▁hed	-2513
▁hmm	-2514
action	-2515
anking	-2516
▁dream	-2517
▁entry	-2518
▁wasnt	-2519
agement	-2520
iculous	-2521
▁nature	-2522
▁neutral	-2523
▁numbers	-2524
stocktwits	-2525
fu	-2526
eut	-2527
oph	-2528
ined	-2529
aster	-2530
ivity	-2531
▁glsi	-2532
inting	-2533
▁chief	-2534
▁greedy	-2535
▁certain	-2536
filterioab	-2537
▁investing	-2538
▁wednesday	-2539
▁worthless	-2540
▁undervalued	-2541
pfizerbiontech	-2542
ln	-2543
rr	-2544
gan	-2545
avel	-2546
book	-2547
lier	-2548
pect	-2549
▁saw	-2550
▁store	-2551
▁sucks	-2552
epfizer	-2553
▁capital	-2554
▁excited	-2555
▁compared	-2556
bi	-2557
zzzz	-2558
▁pic	-2559
▁spe	-2560
daily	-2561
▁zero	-2562
▁bucks	-2563
▁cross	-2564
▁minute	-2565
▁johnson	-2566
▁several	-2567
▁showing	-2568
▁american	-2569
▁receiving	-2570
▁ridiculous	-2571
▁veterinary	-2572
erv	-2573
ton	-2574
imes	-2575
ions	-2576
ncom	-2577
▁eat	-2578
▁inj	-2579
aring	-2580
▁among	-2581
▁bunch	-2582
▁estim	-2583
▁immun	-2584
▁light	-2585
▁screw	-2586
▁launch	-2587
▁slowly	-2588
▁perfect	-2589
▁whether	-2590
▁particip	-2591
▁outperform	-2592
gy	-2593
etic	-2594
roll	-2595
▁key	-2596
arent	-2597
rible	-2598
▁wave	-2599
▁handle	-2600
▁wanted	-2601
▁trillion	-2602
▁manufacturing	-2603
bd	-2604
rs	-2605
te	-2606
▁az	-2607
▁lm	-2608
yond	-2609
▁mad	-2610
▁mrk	-2611
allen	-2612
atory	-2613
ified	-2614
ivers	-2615
ruary	-2616
▁ball	-2617
▁main	-2618
▁state	-2619
▁immune	-2620
▁inform	-2621
▁nasdaq	-2622
▁starts	-2623
▁warren	-2624
amputmmediumta	-2625
ga	-2626
ift	-2627
▁ws	-2628
ield	-2629
ings	-2630
side	-2631
▁net	-2632
▁typ	-2633
▁afric	-2634
▁heard	-2635
▁party	-2636
▁volat	-2637
▁across	-2638
▁beyond	-2639
▁crimin	-2640
▁destro	-2641
▁except	-2642
▁fucked	-2643
▁spread	-2644
▁breakout	-2645
▁honestly	-2646
▁development	-2647
vo	-2648
amm	-2649
▁ap	-2650
▁lt	-2651
ites	-2652
▁fed	-2653
▁hot	-2654
▁sna	-2655
▁path	-2656
▁repe	-2657
▁build	-2658
pfizers	-2659
▁released	-2660
ble	-2661
ooo	-2662
▁eng	-2663
▁fat	-2664
▁ver	-2665
atest	-2666
belie	-2667
▁idea	-2668
▁penn	-2669
fortun	-2670
▁claim	-2671
▁extra	-2672
▁finan	-2673
▁optim	-2674
▁palsy	-2675
ulations	-2676
▁allergy	-2677
▁reality	-2678
▁momentum	-2679
▁possibly	-2680
▁revenues	-2681
▁hospitals	-2682
nn	-2683
oks	-2684
ork	-2685
▁ba	-2686
▁ms	-2687
▁gsk	-2688
▁wom	-2689
▁yep	-2690
▁redu	-2691
▁appro	-2692
▁leave	-2693
content	-2694
▁albert	-2695
▁crooks	-2696
▁easily	-2697
▁remain	-2698
▁reverse	-2699
▁similar	-2700
▁eventually	-2701
▁stocktwits	-2702
pfizervaccin	-2703
to	-2704
ism	-2705
uses	-2706
▁bel	-2707
▁row	-2708
▁wel	-2709
▁larg	-2710
▁mist	-2711
▁vxrt	-2712
▁class	-2713
▁exist	-2714
▁white	-2715
▁attack	-2716
▁sunday	-2717
▁challen	-2718
▁immunity	-2719
▁previous	-2720
▁thoughts	-2721
▁conference	-2722
▁governments	-2723
xy	-2724
but	-2725
iod	-2726
lit	-2727
amer	-2728
ptom	-2729
what	-2730
▁wba	-2731
alert	-2732
while	-2733
▁quite	-2734
moderna	-2735
▁immedi	-2736
▁cheaper	-2737
▁disease	-2738
▁friends	-2739
▁towards	-2740
▁usually	-2741
▁february	-2742
▁distribut	-2743
▁httpswwwfo	-2744
▁robinhooders	-2745
kt	-2746
wise	-2747
▁are	-2748
▁fav	-2749
▁rep	-2750
▁tog	-2751
advis	-2752
▁join	-2753
▁catch	-2754
▁micro	-2755
▁prote	-2756
▁retire	-2757
▁theyll	-2758
▁ticker	-2759
▁trades	-2760
▁covaxin	-2761
▁protect	-2762
▁bankrupt	-2763
▁shouldnt	-2764
yl	-2765
enz	-2766
ias	-2767
usk	-2768
▁cu	-2769
arth	-2770
ught	-2771
will	-2772
▁mex	-2773
▁omg	-2774
▁pin	-2775
▁rap	-2776
▁wal	-2777
arely	-2778
ector	-2779
story	-2780
▁okay	-2781
▁poor	-2782
▁view	-2783
lished	-2784
▁bells	-2785
▁downt	-2786
holders	-2787
markets	-2788
▁simple	-2789
▁travel	-2790
timescom	-2791
▁complain	-2792
▁lockdown	-2793
▁purchase	-2794
isnowcominsightv	-2795
iw	-2796
tle	-2797
yal	-2798
ages	-2799
▁mem	-2800
▁non	-2801
▁off	-2802
▁vac	-2803
▁coron	-2804
▁talks	-2805
▁minist	-2806
▁patent	-2807
▁general	-2808
▁keeping	-2809
▁prevent	-2810
▁comments	-2811
▁mutation	-2812
▁together	-2813
pharmaceutical	-2814
cd	-2815
yes	-2816
▁ju	-2817
like	-2818
ping	-2819
aving	-2820
eless	-2821
using	-2822
vable	-2823
▁fair	-2824
▁rush	-2825
street	-2826
▁broke	-2827
▁enjoy	-2828
▁hedge	-2829
▁opens	-2830
▁three	-2831
lection	-2832
▁earlier	-2833
▁forever	-2834
▁unfortun	-2835
▁therapeut	-2836
pfizervaccine	-2837
▁qq	-2838
atur	-2839
this	-2840
night	-2841
▁flat	-2842
▁ibio	-2843
▁prep	-2844
ushing	-2845
▁other	-2846
ecutive	-2847
▁answer	-2848
▁dumped	-2849
▁confirm	-2850
▁couldnt	-2851
▁continues	-2852
▁otherwise	-2853
▁institutions	-2854
bf	-2855
bv	-2856
agn	-2857
etr	-2858
olid	-2859
ster	-2860
▁age	-2861
▁who	-2862
▁type	-2863
▁antic	-2864
▁gates	-2865
▁steal	-2866
reading	-2867
▁buyout	-2868
▁finish	-2869
▁period	-2870
▁politic	-2871
▁posting	-2872
▁questions	-2873
▁antibodies	-2874
xn	-2875
inc	-2876
ney	-2877
▁ny	-2878
esus	-2879
inese	-2880
▁body	-2881
▁fomo	-2882
atform	-2883
▁drive	-2884
▁posts	-2885
▁shame	-2886
▁advant	-2887
▁affect	-2888
▁corona	-2889
▁faster	-2890
▁return	-2891
appshare	-2892
▁doctors	-2893
▁welcome	-2894
▁financial	-2895
▁guaranteed	-2896
▁officially	-2897
pm	-2898
▁ir	-2899
▁sk	-2900
just	-2901
olic	-2902
stat	-2903
wire	-2904
▁boy	-2905
▁dna	-2906
▁don	-2907
▁ema	-2908
ality	-2909
index	-2910
▁cond	-2911
▁holy	-2912
comamp	-2913
omberg	-2914
▁child	-2915
▁fully	-2916
▁gives	-2917
▁heavy	-2918
▁throw	-2919
▁track	-2920
olution	-2921
▁candle	-2922
▁histor	-2923
▁infect	-2924
▁killed	-2925
▁logist	-2926
▁upward	-2927
▁careful	-2928
▁pending	-2929
▁telling	-2930
believable	-2931
▁attention	-2932
dle	-2933
ron	-2934
upp	-2935
itor	-2936
term	-2937
▁bor	-2938
▁eps	-2939
▁now	-2940
usion	-2941
▁pack	-2942
▁water	-2943
▁trader	-2944
▁pumping	-2945
▁pressure	-2946
▁surprise	-2947
nytimescom	-2948
▁confirmed	-2949
▁extremely	-2950
▁projected	-2951
covidvaccines	-2952
pharmaceuticals	-2953
ere	-2954
oke	-2955
ouk	-2956
ped	-2957
res	-2958
▁cy	-2959
▁ru	-2960
apan	-2961
▁def	-2962
▁qqq	-2963
▁sht	-2964
iforn	-2965
▁cmon	-2966
▁cvac	-2967
▁flow	-2968
▁kids	-2969
▁known	-2970
▁setup	-2971
▁split	-2972
▁valid	-2973
ilities	-2974
newspfe	-2975
▁asking	-2976
▁family	-2977
▁strate	-2978
▁calling	-2979
▁futures	-2980
▁sellers	-2981
▁bleeding	-2982
▁expiring	-2983
▁realistic	-2984
uterscomarticle	-2985
lol	-2986
upd	-2987
alse	-2988
anta	-2989
from	-2990
▁but	-2991
▁cnn	-2992
▁dev	-2993
▁wip	-2994
flash	-2995
igger	-2996
razil	-2997
right	-2998
▁ceos	-2999
▁gave	-3000
▁vers	-3001
▁funds	-3002
▁longs	-3003
▁stuck	-3004
▁stuff	-3005
▁train	-3006
▁agency	-3007
▁barely	-3008
▁insane	-3009
▁chinese	-3010
▁comment	-3011
▁sitting	-3012
▁consolid	-3013
▁incoming	-3014
htmlsource	-3015
▁announces	-3016
▁thousands	-3017
bx	-3018
iam	-3019
ope	-3020
lies	-3021
urse	-3022
▁abt	-3023
▁btc	-3024
▁fdx	-3025
▁mod	-3026
▁desp	-3027
▁infe	-3028
▁sept	-3029
▁word	-3030
enzing	-3031
▁jesus	-3032
▁mother	-3033
approval	-3034
▁healthy	-3035
▁returns	-3036
▁response	-3037
▁delivered	-3038
▁revolution	-3039
ev	-3040
aut	-3041
iny	-3042
▁fu	-3043
ails	-3044
mike	-3045
rece	-3046
▁mis	-3047
▁pig	-3048
▁deep	-3049
▁pltr	-3050
▁filed	-3051
▁holds	-3052
▁choice	-3053
▁issued	-3054
▁sounds	-3055
▁winner	-3056
▁anticip	-3057
▁explode	-3058
filterioaf	-3059
flashalert	-3060
▁downtrend	-3061
▁unfortunately	-3062
gu	-3063
ls	-3064
ars	-3065
got	-3066
ldb	-3067
alph	-3068
bntx	-3069
rele	-3070
▁lab	-3071
▁sus	-3072
board	-3073
▁favor	-3074
▁grand	-3075
▁react	-3076
▁httpsm	-3077
▁mexico	-3078
▁posted	-3079
▁steady	-3080
▁germany	-3081
▁patents	-3082
▁putting	-3083
▁symptom	-3084
▁anywhere	-3085
▁trending	-3086
▁political	-3087
▁httpswwwre	-3088
▁unbelievable	-3089
ooglecomampswww	-3090
ij	-3091
lt	-3092
ald	-3093
iet	-3094
ison	-3095
ivid	-3096
▁alg	-3097
▁cas	-3098
▁brit	-3099
▁btcx	-3100
▁goog	-3101
▁haha	-3102
▁pure	-3103
▁wife	-3104
▁york	-3105
ctions	-3106
▁agree	-3107
▁feels	-3108
▁laugh	-3109
▁plans	-3110
▁scare	-3111
▁lesson	-3112
investor	-3113
standing	-3114
▁appears	-3115
▁buyback	-3116
▁overall	-3117
▁quotthe	-3118
▁platform	-3119
▁somebody	-3120
▁approving	-3121
▁increased	-3122
▁retirement	-3123
▁immediately	-3124
cap	-3125
ipp	-3126
aire	-3127
vers	-3128
▁hang	-3129
▁lmfa	-3130
▁pfes	-3131
▁youn	-3132
illing	-3133
▁baked	-3134
▁maker	-3135
▁truth	-3136
newscom	-3137
▁actual	-3138
▁highly	-3139
▁httpsb	-3140
▁norway	-3141
▁thinks	-3142
▁heading	-3143
▁rolling	-3144
indexhtml	-3145
▁collabor	-3146
▁solution	-3147
▁officials	-3148
▁september	-3149
cominvesting	-3150
zy	-3151
anc	-3152
erc	-3153
▁zm	-3154
couk	-3155
erly	-3156
ices	-3157
▁box	-3158
▁cru	-3159
▁foc	-3160
▁mir	-3161
▁upt	-3162
deral	-3163
techn	-3164
ulate	-3165
▁blue	-3166
▁piss	-3167
▁rare	-3168
▁sldb	-3169
▁vent	-3170
▁wide	-3171
allerg	-3172
▁royal	-3173
▁create	-3174
▁design	-3175
▁anybody	-3176
▁special	-3177
▁tanking	-3178
filterioac	-3179
▁mutations	-3180
▁spreading	-3181
▁statement	-3182
▁completely	-3183
▁confidence	-3184
ca	-3185
htt	-3186
ampp	-3187
avax	-3188
eeee	-3189
scov	-3190
ucks	-3191
ving	-3192
▁apr	-3193
▁cup	-3194
▁mln	-3195
▁nys	-3196
▁vir	-3197
izing	-3198
▁bump	-3199
eeking	-3200
▁false	-3201
▁raise	-3202
▁stick	-3203
mission	-3204
▁decide	-3205
▁figure	-3206
▁source	-3207
▁humanity	-3208
▁therapeutics	-3209
cb	-3210
igin	-3211
ired	-3212
▁eff	-3213
▁obs	-3214
▁sar	-3215
▁sug	-3216
▁usd	-3217
least	-3218
sible	-3219
▁hund	-3220
▁math	-3221
▁chain	-3222
▁japan	-3223
▁minim	-3224
▁rapid	-3225
▁safer	-3226
postcom	-3227
▁sector	-3228
▁signed	-3229
▁despite	-3230
▁destroy	-3231
▁placebo	-3232
▁trigger	-3233
▁apparent	-3234
▁sideways	-3235
▁valuation	-3236
▁commission	-3237
▁management	-3238
▁manipulating	-3239
fb	-3240
mo	-3241
bol	-3242
oid	-3243
▁bn	-3244
▁wk	-3245
ford	-3246
▁bnt	-3247
▁dan	-3248
▁fra	-3249
▁ish	-3250
aging	-3251
stant	-3252
▁abnb	-3253
▁chat	-3254
▁conv	-3255
author	-3256
▁grant	-3257
▁saved	-3258
▁secur	-3259
▁brazil	-3260
▁closes	-3261
▁latest	-3262
▁passed	-3263
▁social	-3264
alphacom	-3265
▁httpwww	-3266
▁ordered	-3267
▁shipped	-3268
▁univers	-3269
appsharec	-3270
▁believed	-3271
▁problems	-3272
▁advantage	-3273
▁basically	-3274
▁httpswwws	-3275
▁distribute	-3276
iosappsharec	-3277
▁outstanding	-3278
ale	-3279
ann	-3280
buy	-3281
unk	-3282
bers	-3283
live	-3284
▁fix	-3285
▁lic	-3286
▁occ	-3287
astic	-3288
https	-3289
scrib	-3290
▁rock	-3291
ensive	-3292
friend	-3293
opharm	-3294
▁peers	-3295
▁sched	-3296
▁doctor	-3297
▁repeat	-3298
▁slight	-3299
▁tested	-3300
advisory	-3301
▁federal	-3302
▁learned	-3303
▁protein	-3304
▁airlines	-3305
ampkeyfadb	-3306
▁obviously	-3307
▁regulator	-3308
▁authorized	-3309
▁politicians	-3310
▁stockmarket	-3311
eekingalphacom	-3312
viewfundamental	-3313
do	-3314
▁0	-3315
ocr	-3316
ots	-3317
▁bc	-3318
▁ut	-3319
ceed	-3320
ikes	-3321
izes	-3322
▁ens	-3323
▁sen	-3324
▁tre	-3325
erved	-3326
odern	-3327
ublic	-3328
▁azar	-3329
▁boun	-3330
▁debt	-3331
▁defe	-3332
▁dude	-3333
▁land	-3334
▁nurs	-3335
▁refr	-3336
▁veru	-3337
▁black	-3338
▁bless	-3339
▁clown	-3340
▁shock	-3341
▁words	-3342
ifornia	-3343
▁flying	-3344
▁individ	-3345
▁missing	-3346
▁pennies	-3347
▁suggest	-3348
▁warning	-3349
▁minister	-3350
▁shipping	-3351
▁httpdlvritr	-3352
▁outperforms	-3353
jb	-3354
lk	-3355
no	-3356
vn	-3357
elf	-3358
har	-3359
imm	-3360
joh	-3361
rel	-3362
▁eoy	-3363
▁fuk	-3364
▁ign	-3365
▁reb	-3366
ining	-3367
▁chip	-3368
▁grab	-3369
▁inoc	-3370
▁race	-3371
▁shes	-3372
ership	-3373
lderly	-3374
though	-3375
▁lines	-3376
▁lunch	-3377
▁older	-3378
▁sells	-3379
▁votes	-3380
▁breaks	-3381
▁decent	-3382
▁ground	-3383
▁headed	-3384
▁notice	-3385
▁paying	-3386
business	-3387
▁atleast	-3388
▁dumping	-3389
▁novavax	-3390
▁reasons	-3391
▁supposed	-3392
▁completed	-3393
▁everywhere	-3394
▁participants	-3395
▁shareholders	-3396
eu	-3397
ng	-3398
che	-3399
des	-3400
enn	-3401
loy	-3402
sth	-3403
ung	-3404
oust	-3405
uskb	-3406
▁eow	-3407
▁hol	-3408
▁joe	-3409
▁kod	-3410
▁lie	-3411
rough	-3412
▁dark	-3413
▁fish	-3414
▁gift	-3415
▁infl	-3416
▁plug	-3417
▁summ	-3418
▁surv	-3419
▁wear	-3420
ecovid	-3421
▁beaut	-3422
▁invol	-3423
▁twice	-3424
▁write	-3425
ternoon	-3426
▁anyway	-3427
▁applic	-3428
▁cramer	-3429
▁hahaha	-3430
▁phizer	-3431
▁refrig	-3432
▁secure	-3433
▁sooner	-3434
▁traded	-3435
vaccined	-3436
▁leading	-3437
▁peoples	-3438
▁although	-3439
▁children	-3440
▁confused	-3441
▁longterm	-3442
▁variants	-3443
▁recommends	-3444
▁considering	-3445
sa	-3446
vi	-3447
hen	-3448
rec	-3449
▁tv	-3450
aded	-3451
▁avg	-3452
▁der	-3453
▁hiv	-3454
▁ibb	-3455
gress	-3456
ption	-3457
▁emot	-3458
▁hamm	-3459
▁kept	-3460
▁lies	-3461
▁spin	-3462
▁wind	-3463
stocks	-3464
▁chips	-3465
▁falls	-3466
▁logic	-3467
▁staff	-3468
▁impact	-3469
▁suffer	-3470
▁leaving	-3471
▁pushing	-3472
▁sarscov	-3473
▁strains	-3474
▁recovery	-3475
ergencyuse	-3476
▁apparently	-3477
▁successful	-3478
▁disappointed	-3479
uv	-3480
vp	-3481
mit	-3482
oss	-3483
▁fb	-3484
anda	-3485
ding	-3486
haps	-3487
plac	-3488
▁mac	-3489
▁mus	-3490
harat	-3491
ostly	-3492
▁alxn	-3493
▁boat	-3494
▁just	-3495
▁note	-3496
▁plac	-3497
iduskb	-3498
▁april	-3499
▁facts	-3500
▁giant	-3501
▁loose	-3502
▁nurse	-3503
▁oppos	-3504
▁santa	-3505
▁young	-3506
▁mostly	-3507
▁origin	-3508
▁regret	-3509
▁secret	-3510
▁benefit	-3511
▁covered	-3512
▁expects	-3513
▁hitting	-3514
▁mistake	-3515
▁perhaps	-3516
▁shorted	-3517
▁whoever	-3518
▁pullback	-3519
▁recently	-3520
▁published	-3521
▁manipulate	-3522
np	-3523
ool	-3524
pan	-3525
▁fy	-3526
▁ha	-3527
▁ps	-3528
▁ug	-3529
▁yo	-3530
aper	-3531
itan	-3532
lish	-3533
▁ach	-3534
▁bac	-3535
▁hom	-3536
▁rig	-3537
apped	-3538
▁cred	-3539
▁lows	-3540
▁srpt	-3541
▁wins	-3542
▁signs	-3543
▁tight	-3544
▁union	-3545
ections	-3546
trading	-3547
▁digest	-3548
▁improv	-3549
▁invent	-3550
▁unlike	-3551
approved	-3552
▁amongst	-3553
▁doubled	-3554
ashington	-3555
▁criminal	-3556
▁discount	-3557
▁pathetic	-3558
▁afternoon	-3559
▁shipments	-3560
▁expiration	-3561
▁protection	-3562
dy	-3563
tv	-3564
▁.	-3565
dec	-3566
fac	-3567
rad	-3568
ury	-3569
▁mf	-3570
▁pf	-3571
aged	-3572
list	-3573
ters	-3574
▁arr	-3575
anced	-3576
iding	-3577
▁bntb	-3578
▁door	-3579
▁fell	-3580
▁govt	-3581
▁laws	-3582
▁mask	-3583
▁ramp	-3584
▁spce	-3585
ipping	-3586
▁limit	-3587
▁lucky	-3588
▁africa	-3589
▁burned	-3590
▁fuckin	-3591
▁morons	-3592
▁nearly	-3593
▁points	-3594
▁rising	-3595
izations	-3596
oooooooo	-3597
▁congrat	-3598
▁experts	-3599
▁predict	-3600
▁totally	-3601
▁required	-3602
▁symptoms	-3603
▁technosp	-3604
▁upgrades	-3605
▁meanwhile	-3606
▁promising	-3607
▁manipulators	-3608
▁temperatures	-3609
dt	-3610
lf	-3611
xp	-3612
bis	-3613
ict	-3614
oma	-3615
why	-3616
▁ii	-3617
acle	-3618
duct	-3619
fess	-3620
sequ	-3621
uled	-3622
unte	-3623
▁ccl	-3624
▁tmr	-3625
could	-3626
▁abbv	-3627
▁dick	-3628
▁pray	-3629
▁serv	-3630
▁teva	-3631
▁upon	-3632
atient	-3633
greens	-3634
iefing	-3635
report	-3636
▁chill	-3637
▁organ	-3638
▁waste	-3639
▁robert	-3640
▁stable	-3641
▁corrupt	-3642
▁knowing	-3643
▁largest	-3644
▁promise	-3645
▁setting	-3646
▁congress	-3647
▁subscrib	-3648
▁injection	-3649
▁optimistic	-3650
▁information	-3651
▁predictions	-3652
md	-3653
ext	-3654
hin	-3655
nse	-3656
▁iv	-3657
bull	-3658
know	-3659
▁arm	-3660
▁col	-3661
▁dir	-3662
▁rob	-3663
press	-3664
▁amgn	-3665
▁baba	-3666
▁calm	-3667
▁drag	-3668
▁lift	-3669
▁mill	-3670
▁none	-3671
▁quit	-3672
▁scum	-3673
israel	-3674
siders	-3675
trader	-3676
▁cares	-3677
▁exerc	-3678
▁tried	-3679
▁voted	-3680
▁access	-3681
▁begins	-3682
▁effort	-3683
▁filled	-3684
loomberg	-3685
▁decades	-3686
▁httpsws	-3687
▁members	-3688
▁russian	-3689
▁uptrend	-3690
▁willing	-3691
▁historic	-3692
▁printing	-3693
▁executive	-3694
▁launching	-3695
▁vaccinate	-3696
▁difference	-3697
▁wallstreet	-3698
▁revolutionize	-3699
ox	-3700
iat	-3701
lor	-3702
▁rd	-3703
aith	-3704
icks	-3705
ilet	-3706
peop	-3707
▁amc	-3708
▁den	-3709
▁fir	-3710
▁fru	-3711
▁idk	-3712
▁rna	-3713
iance	-3714
iated	-3715
light	-3716
osing	-3717
point	-3718
▁cool	-3719
▁five	-3720
▁hack	-3721
▁jour	-3722
▁requ	-3723
▁accep	-3724
▁examp	-3725
▁faith	-3726
▁fraud	-3727
▁scale	-3728
▁tells	-3729
▁usual	-3730
▁yield	-3731
million	-3732
▁broken	-3733
▁raised	-3734
comdaily	-3735
reaction	-3736
▁appoint	-3737
▁highest	-3738
▁reflect	-3739
▁regular	-3740
▁companys	-3741
▁horrible	-3742
▁november	-3743
▁direction	-3744
▁mentioned	-3745
▁sometimes	-3746
▁distributed	-3747
stocktwitscom	-3748
▁expectations	-3749
friendcomdaily	-3750
cc	-3751
pa	-3752
any	-3753
edg	-3754
ify	-3755
ley	-3756
oud	-3757
ales	-3758
iful	-3759
inda	-3760
▁bye	-3761
ainst	-3762
ening	-3763
▁bulk	-3764
▁guid	-3765
▁weve	-3766
ements	-3767
fdagov	-3768
minent	-3769
▁achie	-3770
▁deals	-3771
▁lmfao	-3772
▁negot	-3773
▁speak	-3774
▁advice	-3775
▁cheers	-3776
▁missed	-3777
▁nation	-3778
▁played	-3779
▁proven	-3780
▁season	-3781
▁shitty	-3782
▁trumps	-3783
▁elderly	-3784
▁insight	-3785
▁letting	-3786
pfizerand	-3787
technical	-3788
▁shouldve	-3789
▁httpswwww	-3790
▁situation	-3791
▁experience	-3792
▁scientific	-3793
▁volatility	-3794
▁performance	-3795
eb	-3796
jo	-3797
eng	-3798
let	-3799
▁ot	-3800
enda	-3801
enty	-3802
inds	-3803
ises	-3804
orvo	-3805
roph	-3806
▁and	-3807
▁bes	-3808
▁bus	-3809
▁eye	-3810
forma	-3811
▁book	-3812
▁eyes	-3813
▁fing	-3814
▁flag	-3815
▁hurt	-3816
▁pays	-3817
iences	-3818
ulated	-3819
▁balls	-3820
▁meant	-3821
committ	-3822
insider	-3823
variant	-3824
▁assays	-3825
▁downgr	-3826
▁middle	-3827
▁valued	-3828
▁worlds	-3829
national	-3830
▁buffett	-3831
▁content	-3832
▁correct	-3833
▁minimum	-3834
▁myovant	-3835
▁selloff	-3836
▁directly	-3837
▁followed	-3838
▁strategy	-3839
▁truforma	-3840
▁overnight	-3841
▁california	-3842
▁requirements	-3843
nov	-3844
ote	-3845
put	-3846
yst	-3847
▁kn	-3848
chan	-3849
face	-3850
forb	-3851
▁aff	-3852
▁baw	-3853
▁doc	-3854
▁gir	-3855
▁rug	-3856
ament	-3857
▁july	-3858
▁thru	-3859
ofcare	-3860
oustic	-3861
▁asked	-3862
▁cells	-3863
▁heart	-3864
▁ident	-3865
▁qorvo	-3866
▁ratio	-3867
▁tired	-3868
▁broker	-3869
▁credit	-3870
▁desper	-3871
▁diffic	-3872
▁jumped	-3873
▁negoti	-3874
▁simply	-3875
▁stored	-3876
▁stream	-3877
▁ventil	-3878
▁youtub	-3879
comstory	-3880
▁brought	-3881
▁curious	-3882
▁funding	-3883
▁profess	-3884
▁reading	-3885
▁acoustic	-3886
▁controll	-3887
▁freaking	-3888
▁freezers	-3889
filterioad	-3890
▁condition	-3891
▁competition	-3892
▁pointofcare	-3893
▁validations	-3894
▁administering	-3895
▁institutional	-3896
den	-3897
nal	-3898
war	-3899
ffff	-3900
oups	-3901
raid	-3902
week	-3903
▁aut	-3904
▁fkn	-3905
▁til	-3906
iling	-3907
ional	-3908
trans	-3909
▁dash	-3910
▁feed	-3911
▁msft	-3912
▁oral	-3913
icking	-3914
▁loser	-3915
▁scalp	-3916
ulating	-3917
updates	-3918
▁events	-3919
▁expiry	-3920
▁plenty	-3921
▁holiday	-3922
▁initial	-3923
▁outside	-3924
▁twitter	-3925
▁updated	-3926
▁updates	-3927
▁benefits	-3928
▁director	-3929
▁imminent	-3930
▁opposite	-3931
▁produced	-3932
▁receives	-3933
▁rewarded	-3934
filterioae	-3935
▁biontechs	-3936
▁correction	-3937
▁appointment	-3938
olcominvesting	-3939
▁httpswwwfdagov	-3940
▁congratulations	-3941
df	-3942
ha	-3943
rx	-3944
cel	-3945
mak	-3946
raw	-3947
trs	-3948
▁ht	-3949
▁nk	-3950
bies	-3951
rows	-3952
ties	-3953
uals	-3954
ults	-3955
▁lly	-3956
▁smo	-3957
▁sny	-3958
▁spx	-3959
▁tho	-3960
▁wit	-3961
ences	-3962
ently	-3963
▁area	-3964
▁goal	-3965
▁uses	-3966
▁earth	-3967
▁fools	-3968
▁phone	-3969
▁quots	-3970
channel	-3971
▁afraid	-3972
▁danger	-3973
▁democr	-3974
▁gotten	-3975
▁incred	-3976
▁picked	-3977
▁showed	-3978
allergic	-3979
▁acquire	-3980
▁contain	-3981
▁created	-3982
▁decided	-3983
▁meaning	-3984
▁version	-3985
▁worries	-3986
▁election	-3987
▁insiders	-3988
▁majority	-3989
comcontent	-3990
enzingacom	-3991
▁difficult	-3992
▁listening	-3993
▁medicines	-3994
▁wondering	-3995
▁httpdlvritrn	-3996
mw	-3997
vs	-3998
cec	-3999
reg	-4000
uit	-4001
was	-4002
▁ox	-4003
▁rn	-4004
abod	-4005
ssss	-4006
▁bon	-4007
▁gun	-4008
▁mag	-4009
▁rsi	-4010
acity	-4011
break	-4012
doses	-4013
ooooo	-4014
upply	-4015
▁amrn	-4016
▁glta	-4017
▁liqu	-4018
▁meas	-4019
▁pock	-4020
▁runs	-4021
acovid	-4022
▁astra	-4023
▁brand	-4024
▁carry	-4025
▁prove	-4026
▁rough	-4027
▁satur	-4028
▁agreed	-4029
▁convin	-4030
▁disney	-4031
▁google	-4032
▁hammer	-4033
▁looked	-4034
ffective	-4035
▁hearing	-4036
▁miracle	-4037
▁rebound	-4038
▁targets	-4039
▁activity	-4040
▁advanced	-4041
▁involved	-4042
▁upcoming	-4043
▁httpswwwth	-4044
▁regulatory	-4045
▁scientists	-4046
▁recommended	-4047
▁accumulation	-4048
▁collaboration	-4049
advisorycommitt	-4050
--	-4051
eee	-4052
elm	-4053
fbc	-4054
ris	-4055
▁no	-4056
ares	-4057
ends	-4058
iced	-4059
look	-4060
outt	-4061
real	-4062
▁bec	-4063
▁cuz	-4064
▁ing	-4065
▁mas	-4066
▁met	-4067
▁mot	-4068
▁oil	-4069
▁sls	-4070
▁unc	-4071
▁via	-4072
aphyl	-4073
▁decl	-4074
▁epic	-4075
▁mins	-4076
norway	-4077
▁enter	-4078
▁force	-4079
▁hurry	-4080
▁taxes	-4081
▁women	-4082
against	-4083
castcom	-4084
iveness	-4085
▁crying	-4086
▁expand	-4087
▁prefer	-4088
▁russia	-4089
▁theyve	-4090
▁triple	-4091
▁wheres	-4092
placecom	-4093
zzzzzzzz	-4094
▁chances	-4095
▁package	-4096
▁studies	-4097
▁winning	-4098
▁evidence	-4099
▁observed	-4100
▁beautiful	-4101
▁httpswwwn	-4102
▁infection	-4103
▁royalties	-4104
▁scheduled	-4105
comarticles	-4106
▁prediction	-4107
▁ventilator	-4108
▁httpswwwfox	-4109
▁potentially	-4110
▁httpsinvestor	-4111
▁httpswwwcnncom	-4112
▁httpswwwmarket	-4113
ama	-4114
bid	-4115
osc	-4116
owv	-4117
tci	-4118
top	-4119
url	-4120
▁mc	-4121
ames	-4122
ched	-4123
emjb	-4124
stop	-4125
▁bed	-4126
▁bot	-4127
▁ped	-4128
▁scr	-4129
▁asap	-4130
▁aust	-4131
▁cele	-4132
▁city	-4133
▁cris	-4134
▁ends	-4135
▁excl	-4136
▁kodk	-4137
▁mine	-4138
▁prim	-4139
▁wipe	-4140
pected	-4141
▁focus	-4142
▁merry	-4143
▁pence	-4144
▁pregn	-4145
▁repre	-4146
▁trick	-4147
▁truck	-4148
emjbtci	-4149
▁active	-4150
▁agenda	-4151
▁annual	-4152
▁combin	-4153
▁halted	-4154
▁inject	-4155
▁office	-4156
▁planet	-4157
▁pumped	-4158
▁rushed	-4159
▁turned	-4160
amentals	-4161
couknews	-4162
▁britain	-4163
▁causing	-4164
▁collect	-4165
▁helping	-4166
▁matters	-4167
▁request	-4168
▁respect	-4169
▁smaller	-4170
▁staying	-4171
▁fighting	-4172
▁payments	-4173
▁progress	-4174
▁terrible	-4175
owvemjbtci	-4176
▁challenge	-4177
▁increases	-4178
▁logistics	-4179
▁secretary	-4180
▁subscribe	-4181
▁deliveries	-4182
fs	-4183
kk	-4184
abc	-4185
ahn	-4186
bed	-4187
cop	-4188
doc	-4189
els	-4190
gal	-4191
ove	-4192
you	-4193
▁od	-4194
▁ww	-4195
anof	-4196
ture	-4197
vide	-4198
ytop	-4199
▁arg	-4200
▁bmy	-4201
▁opk	-4202
apore	-4203
apple	-4204
avior	-4205
▁acqu	-4206
▁alot	-4207
▁bias	-4208
▁crit	-4209
▁hmmm	-4210
▁htbx	-4211
▁owns	-4212
▁purp	-4213
▁rule	-4214
▁self	-4215
▁tomm	-4216
americ	-4217
elines	-4218
ension	-4219
▁algos	-4220
▁apply	-4221
▁email	-4222
▁prime	-4223
▁smell	-4224
▁truly	-4225
▁vaxil	-4226
▁caught	-4227
▁fellow	-4228
▁income	-4229
▁liquid	-4230
▁signal	-4231
▁switch	-4232
▁threat	-4233
activity	-4234
ushealth	-4235
▁allowed	-4236
▁anaphyl	-4237
▁brainer	-4238
▁defense	-4239
▁example	-4240
▁growing	-4241
▁kidding	-4242
▁players	-4243
▁quality	-4244
▁shaking	-4245
▁therapy	-4246
▁turning	-4247
▁antibody	-4248
▁building	-4249
▁capacity	-4250
▁changing	-4251
▁guidance	-4252
▁authorize	-4253
▁everyones	-4254
▁regarding	-4255
wirecomnews	-4256
▁developing	-4257
▁profitable	-4258
▁vaccinequot	-4259
ho	-4260
px	-4261
iar	-4262
kes	-4263
lyg	-4264
rop	-4265
utn	-4266
▁tf	-4267
atin	-4268
aves	-4269
fuck	-4270
hour	-4271
year	-4272
▁loc	-4273
▁mix	-4274
▁mnk	-4275
▁var	-4276
ffers	-4277
polit	-4278
ument	-4279
▁busy	-4280
▁cast	-4281
▁page	-4282
▁regn	-4283
abolic	-4284
nology	-4285
ressed	-4286
strain	-4287
urance	-4288
▁avoid	-4289
▁hopes	-4290
▁shall	-4291
▁surge	-4292
▁there	-4293
▁troub	-4294
feature	-4295
statuss	-4296
▁acting	-4297
▁alerts	-4298
▁ensure	-4299
▁summer	-4300
▁turtle	-4301
▁anytime	-4302
▁changed	-4303
▁england	-4304
▁freezer	-4305
▁greater	-4306
▁heavily	-4307
▁microch	-4308
▁savings	-4309
▁accounts	-4310
▁articles	-4311
▁climbing	-4312
▁generate	-4313
▁national	-4314
▁planning	-4315
▁saturday	-4316
▁slightly	-4317
▁expensive	-4318
▁interview	-4319
▁producing	-4320
▁sweepcast	-4321
▁administer	-4322
▁compliance	-4323
▁facilities	-4324
▁consolidation	-4325
▁effectiveness	-4326
nytimescomhealth	-4327
fg	-4328
gl	-4329
uy	-4330
biv	-4331
ede	-4332
zer	-4333
▁oi	-4334
ikit	-4335
mail	-4336
mitt	-4337
ongs	-4338
uing	-4339
▁ath	-4340
▁cel	-4341
▁cir	-4342
▁enc	-4343
▁hhs	-4344
▁law	-4345
▁sid	-4346
▁sla	-4347
▁unt	-4348
▁xsp	-4349
ather	-4350
bling	-4351
cular	-4352
esome	-4353
eting	-4354
exper	-4355
iency	-4356
panel	-4357
under	-4358
worth	-4359
▁arab	-4360
▁cust	-4361
▁info	-4362
▁merg	-4363
▁ogen	-4364
▁wild	-4365
endent	-4366
utecom	-4367
▁chase	-4368
▁games	-4369
▁gross	-4370
▁manag	-4371
▁tweet	-4372
▁vials	-4373
▁weird	-4374
biotech	-4375
ointing	-4376
▁accept	-4377
▁caused	-4378
▁failed	-4379
▁groups	-4380
▁indian	-4381
▁living	-4382
▁surely	-4383
▁toward	-4384
▁alright	-4385
▁awesome	-4386
▁planned	-4387
▁restric	-4388
▁shortly	-4389
▁typical	-4390
receiving	-4391
▁politics	-4392
▁priority	-4393
▁republic	-4394
▁standard	-4395
▁volatile	-4396
eepcastcom	-4397
▁catalysts	-4398
▁dangerous	-4399
▁estimated	-4400
▁lockdowns	-4401
▁parabolic	-4402
▁purchased	-4403
▁watchlist	-4404
▁previously	-4405
▁yesterdays	-4406
▁individuals	-4407
▁fundamentals	-4408
▁disappointing	-4409
▁technospheres	-4410
gs	-4411
sm	-4412
sr	-4413
td	-4414
bat	-4415
eme	-4416
hot	-4417
mom	-4418
oom	-4419
pir	-4420
vax	-4421
beat	-4422
dden	-4423
ener	-4424
gust	-4425
iate	-4426
olix	-4427
onto	-4428
ored	-4429
▁jpm	-4430
▁rkt	-4431
actic	-4432
aires	-4433
tract	-4434
uikit	-4435
▁ampe	-4436
▁bags	-4437
▁carr	-4438
▁four	-4439
▁inov	-4440
▁pean	-4441
▁sees	-4442
▁uber	-4443
▁xspa	-4444
▁yess	-4445
moment	-4446
ugolix	-4447
▁after	-4448
▁broth	-4449
▁click	-4450
▁crush	-4451
▁legit	-4452
▁occur	-4453
▁round	-4454
▁stays	-4455
▁sweet	-4456
▁custom	-4457
▁milest	-4458
▁school	-4459
▁spring	-4460
▁sudden	-4461
▁tempor	-4462
breaking	-4463
comapple	-4464
▁changer	-4465
▁disgust	-4466
▁expires	-4467
▁granted	-4468
▁include	-4469
▁pfebntx	-4470
▁internet	-4471
▁pregnant	-4472
itchutecom	-4473
▁impatient	-4474
▁recovered	-4475
▁somewhere	-4476
flashalertme	-4477
▁application	-4478
comappleuikit	-4479
▁disappointment	-4480
au	-4481
auc	-4482
big	-4483
hhh	-4484
lin	-4485
eeps	-4486
ergy	-4487
illy	-4488
oked	-4489
orgs	-4490
ruct	-4491
▁bar	-4492
▁dia	-4493
▁fml	-4494
▁fri	-4495
▁fyi	-4496
▁lam	-4497
▁ran	-4498
▁sil	-4499
ously	-4500
refer	-4501
start	-4502
state	-4503
▁bout	-4504
▁calc	-4505
▁fort	-4506
▁king	-4507
▁nuts	-4508
▁scen	-4509
▁soar	-4510
▁vbiv	-4511
compet	-4512
iatric	-4513
▁blind	-4514
▁cuomo	-4515
▁flush	-4516
▁index	-4517
▁kinda	-4518
▁paper	-4519
▁sputn	-4520
▁tanks	-4521
unteers	-4522
▁adjust	-4523
▁bharat	-4524
▁boring	-4525
▁claims	-4526
▁inside	-4527
▁necess	-4528
▁proper	-4529
▁pulled	-4530
▁rolled	-4531
▁stated	-4532
▁worker	-4533
facebook	-4534
ological	-4535
▁becomes	-4536
▁compare	-4537
▁consist	-4538
▁payment	-4539
▁somehow	-4540
▁included	-4541
▁infected	-4542
▁specific	-4543
▁desperate	-4544
▁quarterly	-4545
li	-4546
ana	-4547
ern	-4548
fuh	-4549
hal	-4550
iff	-4551
ino	-4552
nam	-4553
ony	-4554
▁ve	-4555
ampj	-4556
axis	-4557
gaiz	-4558
idrm	-4559
long	-4560
▁bat	-4561
▁cco	-4562
▁crm	-4563
▁emp	-4564
▁ipo	-4565
▁vis	-4566
▁yea	-4567
renzy	-4568
▁casi	-4569
▁dies	-4570
▁gene	-4571
▁mich	-4572
▁mnkd	-4573
▁nons	-4574
▁oper	-4575
▁peak	-4576
▁sink	-4577
▁sndl	-4578
▁susp	-4579
▁tiny	-4580
▁walk	-4581
istrib	-4582
people	-4583
▁adcom	-4584
▁alive	-4585
▁blast	-4586
▁concl	-4587
▁ended	-4588
▁hates	-4589
▁heads	-4590
▁kills	-4591
▁lotto	-4592
▁owned	-4593
▁paras	-4594
▁saves	-4595
▁strug	-4596
▁third	-4597
▁uncle	-4598
copytop	-4599
gaizfuh	-4600
ipients	-4601
▁breast	-4602
▁closer	-4603
▁cruise	-4604
▁easier	-4605
▁pissed	-4606
▁relief	-4607
▁retard	-4608
▁warned	-4609
▁worked	-4610
positive	-4611
▁besides	-4612
▁betting	-4613
▁breakth	-4614
▁expired	-4615
▁httpssw	-4616
▁license	-4617
▁nations	-4618
▁nowhere	-4619
▁nursing	-4620
▁picture	-4621
▁pulling	-4622
▁pumpers	-4623
▁trouble	-4624
asteboard	-4625
▁bringing	-4626
▁covering	-4627
▁deserves	-4628
▁doubling	-4629
▁downward	-4630
alkmarkets	-4631
▁criminals	-4632
idrmgaizfuh	-4633
▁discussion	-4634
▁regulators	-4635
activitycopytop	-4636
hy	-4637
ux	-4638
cdc	-4639
hol	-4640
pat	-4641
yot	-4642
▁ai	-4643
▁cd	-4644
coin	-4645
cont	-4646
fart	-4647
thes	-4648
true	-4649
▁ban	-4650
▁btw	-4651
▁cit	-4652
▁mel	-4653
▁rvp	-4654
house	-4655
itude	-4656
times	-4657
weigh	-4658
▁alex	-4659
▁conn	-4660
▁host	-4661
▁jack	-4662
▁mrvi	-4663
▁nope	-4664
▁saud	-4665
▁sess	-4666
▁vice	-4667
▁vtrs	-4668
▁webs	-4669
cology	-4670
ential	-4671
ienced	-4672
▁blame	-4673
▁chair	-4674
▁clean	-4675
▁estab	-4676
▁risks	-4677
▁space	-4678
▁stage	-4679
eeffect	-4680
imental	-4681
product	-4682
▁apprec	-4683
▁approx	-4684
▁causes	-4685
▁compar	-4686
▁holder	-4687
▁losers	-4688
▁member	-4689
▁partys	-4690
▁scenar	-4691
▁austral	-4692
▁discord	-4693
▁driving	-4694
▁httpsny	-4695
▁illness	-4696
▁journal	-4697
▁jumping	-4698
▁screwed	-4699
▁sources	-4700
▁stopped	-4701
▁holidays	-4702
▁httpsthe	-4703
▁guarantee	-4704
▁insurance	-4705
▁relugolix	-4706
▁delivering	-4707
▁disgusting	-4708
▁interested	-4709
▁university	-4710
▁complaining	-4711
▁recommendation	-4712
allergicreaction	-4713
cp	-4714
db	-4715
dr	-4716
lv	-4717
bnb	-4718
ceo	-4719
cov	-4720
cre	-4721
lly	-4722
mut	-4723
ses	-4724
sou	-4725
wap	-4726
yyy	-4727
▁ew	-4728
agon	-4729
arch	-4730
bing	-4731
stud	-4732
▁aim	-4733
▁ele	-4734
▁huh	-4735
▁piv	-4736
▁tmw	-4737
▁wth	-4738
known	-4739
▁bath	-4740
▁caps	-4741
▁chmp	-4742
▁crow	-4743
▁euas	-4744
▁exit	-4745
▁impl	-4746
▁jobs	-4747
▁lack	-4748
▁pton	-4749
▁seat	-4750
▁snap	-4751
▁spok	-4752
▁stan	-4753
lenews	-4754
▁accel	-4755
▁canad	-4756
▁decre	-4757
▁famil	-4758
▁fedex	-4759
▁legal	-4760
▁local	-4761
▁match	-4762
▁north	-4763
▁proof	-4764
▁saudi	-4765
▁swear	-4766
▁turns	-4767
lygfart	-4768
science	-4769
unities	-4770
ystroph	-4771
▁choose	-4772
▁morgan	-4773
▁riding	-4774
▁rigged	-4775
▁settle	-4776
▁timing	-4777
approves	-4778
momentum	-4779
▁african	-4780
▁chasing	-4781
▁conspir	-4782
▁hundred	-4783
▁strange	-4784
▁youtube	-4785
▁constant	-4786
▁discover	-4787
▁hahahaha	-4788
▁pediatric	-4789
▁walgreens	-4790
mergencyuse	-4791
▁bitlygfart	-4792
▁increasing	-4793
▁incredible	-4794
▁personally	-4795
▁vaccinating	-4796
▁newsmomentum	-4797
▁significantly	-4798
loombergcomnews	-4799
▁biontechpfizer	-4800
▁httpsnypostcom	-4801
ai	-4802
ka	-4803
py	-4804
bio	-4805
dro	-4806
eta	-4807
fly	-4808
ilt	-4809
ler	-4810
may	-4811
nsg	-4812
oop	-4813
▁dk	-4814
▁ic	-4815
▁je	-4816
erve	-4817
ften	-4818
inth	-4819
myaj	-4820
oing	-4821
pers	-4822
rade	-4823
reds	-4824
tain	-4825
▁ang	-4826
▁bru	-4827
▁jag	-4828
▁jim	-4829
▁sac	-4830
▁vas	-4831
▁wsj	-4832
arily	-4833
ecgov	-4834
eneca	-4835
feren	-4836
imate	-4837
yotib	-4838
▁arms	-4839
▁bngo	-4840
▁doge	-4841
▁elon	-4842
▁fant	-4843
▁fdas	-4844
▁gooo	-4845
▁halt	-4846
▁john	-4847
▁nerv	-4848
▁sens	-4849
▁site	-4850
▁ugly	-4851
▁wash	-4852
▁xmas	-4853
access	-4854
agnant	-4855
▁apart	-4856
▁banks	-4857
▁chile	-4858
▁fired	-4859
▁impos	-4860
▁rates	-4861
▁scary	-4862
▁score	-4863
▁sheep	-4864
▁stops	-4865
imately	-4866
options	-4867
release	-4868
soumyaj	-4869
▁leader	-4870
▁letter	-4871
▁senate	-4872
▁wealth	-4873
▁bitcoin	-4874
▁changes	-4875
▁comfort	-4876
▁figured	-4877
▁monitor	-4878
▁nysepfe	-4879
▁profile	-4880
▁reaches	-4881
▁respond	-4882
▁seconds	-4883
▁sputnik	-4884
▁website	-4885
recommend	-4886
▁biopharm	-4887
▁globally	-4888
▁handling	-4889
▁laughing	-4890
▁original	-4891
▁provided	-4892
▁requires	-4893
▁shipment	-4894
▁stronger	-4895
▁weeklies	-4896
ampfeature	-4897
insidercom	-4898
▁concerned	-4899
▁marketing	-4900
▁tomorrows	-4901
flashalertm	-4902
▁candidates	-4903
▁daytrading	-4904
▁percentage	-4905
▁securities	-4906
▁treatments	-4907
soumyajyotib	-4908
authorization	-4909
▁breakthrough	-4910
▁confirmation	-4911
stocktwitscoms	-4912
▁transportation	-4913
▁pharmaceuticals	-4914
fh	-4915
hr	-4916
ih	-4917
iq	-4918
iy	-4919
wk	-4920
afe	-4921
dis	-4922
ete	-4923
eto	-4924
jmt	-4925
mij	-4926
mon	-4927
uch	-4928
vac	-4929
▁dj	-4930
▁gs	-4931
▁tl	-4932
aaaa	-4933
ball	-4934
fall	-4935
ival	-4936
mrna	-4937
uter	-4938
▁har	-4939
▁hat	-4940
▁inf	-4941
▁lnp	-4942
▁pps	-4943
▁www	-4944
▁xbi	-4945
▁yup	-4946
attle	-4947
hours	-4948
sents	-4949
stain	-4950
trump	-4951
video	-4952
▁anim	-4953
▁bets	-4954
▁edge	-4955
▁fckn	-4956
▁gods	-4957
▁jail	-4958
▁prev	-4959
▁reve	-4960
▁roof	-4961
▁sake	-4962
▁temp	-4963
▁thus	-4964
▁tons	-4965
▁trvn	-4966
▁unus	-4967
▁vwap	-4968
▁wast	-4969
▁ways	-4970
▁wkhs	-4971
▁zone	-4972
apping	-4973
atives	-4974
biswas	-4975
bought	-4976
mitted	-4977
▁areas	-4978
▁basis	-4979
▁costs	-4980
▁defic	-4981
▁dirty	-4982
▁dogex	-4983
▁emerg	-4984
▁ideas	-4985
▁jampj	-4986
▁masks	-4987
▁often	-4988
▁pivot	-4989
▁sites	-4990
atively	-4991
iduskbn	-4992
ividend	-4993
▁assets	-4994
▁celebr	-4995
▁charge	-4996
▁energy	-4997
▁expans	-4998
▁ingred	-4999
▁merger	-5000
▁oxford	-5001
▁reduce	-5002
▁unreal	-5003
▁zeneca	-5004
httpswww	-5005
▁ability	-5006
▁affects	-5007
▁failure	-5008
▁pharmac	-5009
▁reached	-5010
forbescom	-5011
▁concerns	-5012
▁designed	-5013
▁downside	-5014
▁electron	-5015
▁hundreds	-5016
▁optimism	-5017
filterioaa	-5018
▁destroyed	-5019
▁accumulate	-5020
▁httpswwwbr	-5021
▁impossible	-5022
▁anticipated	-5023
▁manufacture	-5024
afterreceiving	-5025
▁refrigeration	-5026
bp	-5027
nc	-5028
zm	-5029
emp	-5030
ese	-5031
gin	-5032
jan	-5033
lee	-5034
log	-5035
nas	-5036
rrr	-5037
yle	-5038
▁gd	-5039
bynk	-5040
hand	-5041
john	-5042
rote	-5043
trac	-5044
ymph	-5045
▁cod	-5046
▁ess	-5047
▁eth	-5048
▁hrs	-5049
▁noo	-5050
▁nyt	-5051
alkor	-5052
check	-5053
grees	-5054
ipped	-5055
rmjmt	-5056
▁arct	-5057
▁bash	-5058
▁bure	-5059
▁dang	-5060
▁educ	-5061
▁eval	-5062
▁heck	-5063
▁hole	-5064
▁mega	-5065
▁ouch	-5066
▁pool	-5067
▁trip	-5068
argain	-5069
arrons	-5070
ffered	-5071
mijnsg	-5072
ucbynk	-5073
▁alask	-5074
▁aware	-5075
▁backs	-5076
▁colle	-5077
▁court	-5078
▁floor	-5079
▁grind	-5080
▁lever	-5081
▁lymph	-5082
▁minor	-5083
▁theta	-5084
▁types	-5085
ocation	-5086
▁arabia	-5087
▁bacter	-5088
▁became	-5089
▁corner	-5090
▁corpor	-5091
▁deadly	-5092
▁ignore	-5093
▁opened	-5094
▁regist	-5095
▁retest	-5096
dividend	-5097
eeffects	-5098
▁advance	-5099
▁degrees	-5100
▁details	-5101
▁nervous	-5102
▁rockets	-5103
▁secured	-5104
▁survive	-5105
▁unusual	-5106
▁writing	-5107
investors	-5108
stocksequ	-5109
▁counting	-5110
▁estimate	-5111
▁facility	-5112
▁nonsense	-5113
▁expansion	-5114
▁headlines	-5115
▁paralysis	-5116
▁singapore	-5117
▁uncertain	-5118
pfizerstock	-5119
rmjmtmijnsg	-5120
▁bankruptcy	-5121
▁infectious	-5122
▁overbought	-5123
▁washington	-5124
▁httpswwwthe	-5125
▁responsible	-5126
channelucbynk	-5127
▁commissioner	-5128
cf	-5129
fy	-5130
lm	-5131
uh	-5132
uu	-5133
wd	-5134
bab	-5135
bet	-5136
lex	-5137
ops	-5138
ror	-5139
zen	-5140
▁gn	-5141
abot	-5142
aucr	-5143
cepa	-5144
crip	-5145
epro	-5146
glob	-5147
itly	-5148
mark	-5149
obuy	-5150
oper	-5151
ovac	-5152
▁abc	-5153
▁bal	-5154
▁bir	-5155
▁dom	-5156
▁fox	-5157
▁gas	-5158
▁itm	-5159
▁lad	-5160
▁nan	-5161
▁she	-5162
▁ult	-5163
activ	-5164
adown	-5165
ances	-5166
ected	-5167
ended	-5168
front	-5169
gling	-5170
indep	-5171
iocre	-5172
itors	-5173
▁algo	-5174
▁cock	-5175
▁djia	-5176
▁espr	-5177
▁hahn	-5178
▁jagx	-5179
▁lord	-5180
▁mach	-5181
▁nyse	-5182
▁pops	-5183
▁prop	-5184
▁road	-5185
▁slap	-5186
▁snow	-5187
▁spot	-5188
▁tree	-5189
canada	-5190
frenzy	-5191
ooking	-5192
stockt	-5193
ummary	-5194
▁antiv	-5195
▁award	-5196
▁batch	-5197
▁color	-5198
▁crack	-5199
▁finds	-5200
▁geoff	-5201
▁hello	-5202
▁sampp	-5203
▁silly	-5204
▁stake	-5205
▁table	-5206
▁tough	-5207
▁wrote	-5208
related	-5209
youtube	-5210
▁battle	-5211
▁bright	-5212
▁eating	-5213
▁finest	-5214
▁harder	-5215
▁inovio	-5216
▁larger	-5217
▁powder	-5218
▁pushed	-5219
▁resign	-5220
▁stress	-5221
▁symbol	-5222
▁tommor	-5223
▁vaxart	-5224
▁yearly	-5225
announce	-5226
comworld	-5227
conferen	-5228
pandemic	-5229
ystrophy	-5230
▁anyways	-5231
▁concern	-5232
▁grandma	-5233
▁kicking	-5234
▁monthly	-5235
▁newbies	-5236
▁purpose	-5237
▁session	-5238
applenews	-5239
▁advisors	-5240
▁approach	-5241
▁bureaucr	-5242
▁computer	-5243
▁facebook	-5244
▁gambling	-5245
▁holdings	-5246
▁improved	-5247
▁managers	-5248
▁offering	-5249
▁prostate	-5250
forbescoms	-5251
management	-5252
▁averaging	-5253
▁therefore	-5254
vaccination	-5255
▁conspiracy	-5256
▁identified	-5257
▁technicals	-5258
▁accumulating	-5259
▁experimental	-5260
▁httpdlvritrp	-5261
▁presentation	-5262
▁international	-5263
▁opportunities	-5264
▁httpsapplenews	-5265
cm	-5266
amn	-5267
fun	-5268
ids	-5269
ils	-5270
imp	-5271
lie	-5272
que	-5273
rog	-5274
uph	-5275
▁bb	-5276
help	-5277
iety	-5278
inks	-5279
lead	-5280
luck	-5281
room	-5282
▁bay	-5283
▁ben	-5284
▁egg	-5285
▁gut	-5286
▁jud	-5287
▁mal	-5288
▁pun	-5289
based	-5290
ively	-5291
rento	-5292
uring	-5293
▁card	-5294
▁char	-5295
▁code	-5296
▁dear	-5297
▁mand	-5298
▁pile	-5299
▁woke	-5300
accine	-5301
idents	-5302
ources	-5303
▁andor	-5304
▁aside	-5305
▁breat	-5306
▁built	-5307
▁fever	-5308
▁freak	-5309
▁fucks	-5310
▁gunna	-5311
▁hilar	-5312
▁risky	-5313
▁tutes	-5314
actions	-5315
couldbe	-5316
▁buckle	-5317
▁combat	-5318
▁delays	-5319
▁former	-5320
▁patter	-5321
▁syring	-5322
▁theory	-5323
releases	-5324
stimulus	-5325
▁attract	-5326
▁bargain	-5327
▁beating	-5328
▁bitches	-5329
▁cutting	-5330
▁impress	-5331
▁instant	-5332
▁millenn	-5333
▁pockets	-5334
▁rapidly	-5335
▁systems	-5336
▁unknown	-5337
adownload	-5338
dailymail	-5339
iefingcom	-5340
▁accepted	-5341
▁addition	-5342
▁believes	-5343
▁coverage	-5344
▁creating	-5345
▁incompet	-5346
▁invented	-5347
▁lymphoma	-5348
▁mediocre	-5349
▁newsquot	-5350
▁provides	-5351
▁refriger	-5352
▁scenario	-5353
healthcare	-5354
withpfizer	-5355
▁fantastic	-5356
▁frontline	-5357
▁hilarious	-5358
▁relations	-5359
▁challenges	-5360
▁generation	-5361
▁infections	-5362
▁logistical	-5363
forbescomsites	-5364
bh	-5365
dn	-5366
gz	-5367
lb	-5368
tx	-5369
vl	-5370
xs	-5371
▁-	-5372
bos	-5373
esh	-5374
ius	-5375
lid	-5376
ogn	-5377
olo	-5378
sof	-5379
ups	-5380
chin	-5381
lets	-5382
mare	-5383
mart	-5384
next	-5385
omed	-5386
onic	-5387
oral	-5388
orid	-5389
plan	-5390
ship	-5391
uits	-5392
ware	-5393
▁alk	-5394
▁dil	-5395
▁hep	-5396
▁iii	-5397
▁mdt	-5398
▁pls	-5399
▁roa	-5400
▁sat	-5401
▁sma	-5402
▁son	-5403
▁swe	-5404
▁tak	-5405
▁tun	-5406
▁yrs	-5407
acked	-5408
ellsp	-5409
iring	-5410
lidiw	-5411
llout	-5412
ondon	-5413
▁amid	-5414
▁canc	-5415
▁circ	-5416
▁desc	-5417
▁felt	-5418
▁mike	-5419
▁onto	-5420
▁priv	-5421
▁suit	-5422
▁vxlv	-5423
▁ware	-5424
▁zoom	-5425
alkori	-5426
cecall	-5427
elling	-5428
holder	-5429
igence	-5430
modern	-5431
ordash	-5432
ysepfe	-5433
▁assoc	-5434
▁begun	-5435
▁buyer	-5436
▁cyber	-5437
▁demon	-5438
▁freed	-5439
▁frust	-5440
▁likes	-5441
▁mouth	-5442
▁natur	-5443
▁nears	-5444
▁noise	-5445
▁reent	-5446
▁sanof	-5447
▁shown	-5448
▁spent	-5449
▁terms	-5450
▁youve	-5451
getting	-5452
isition	-5453
percent	-5454
ruption	-5455
stshare	-5456
▁adults	-5457
▁clowns	-5458
▁gained	-5459
▁golden	-5460
▁locked	-5461
▁needle	-5462
▁nicely	-5463
▁safest	-5464
▁scream	-5465
▁shaken	-5466
▁swings	-5467
▁whales	-5468
▁window	-5469
▁winter	-5470
fbclidiw	-5471
fdapanel	-5472
pfestock	-5473
▁backing	-5474
▁booster	-5475
▁burning	-5476
▁cleared	-5477
▁drugmak	-5478
▁leaders	-5479
▁message	-5480
▁monster	-5481
▁pricing	-5482
▁vascepa	-5483
▁wanting	-5484
extension	-5485
▁acquired	-5486
▁bacteria	-5487
▁campaign	-5488
▁disaster	-5489
▁exciting	-5490
▁existing	-5491
▁lawsuits	-5492
▁oncology	-5493
▁shorters	-5494
▁sorrento	-5495
▁superior	-5496
▁thousand	-5497
recommends	-5498
▁australia	-5499
▁certainly	-5500
▁democrats	-5501
▁elsewhere	-5502
▁hahahahah	-5503
▁temporary	-5504
▁therapies	-5505
liveupdates	-5506
▁conditions	-5507
▁surprising	-5508
ecoronavirus	-5509
scoronavirus	-5510
▁investments	-5511
▁predictable	-5512
mediadownload	-5513
▁anticipation	-5514
conferencecall	-5515
advisorycommitte	-5516
stshareextension	-5517
▁1	-5518
abb	-5519
ags	-5520
aty	-5521
aur	-5522
aus	-5523
god	-5524
oct	-5525
tec	-5526
vol	-5527
▁ow	-5528
▁uv	-5529
amed	-5530
drug	-5531
enew	-5532
good	-5533
high	-5534
hosp	-5535
idge	-5536
indi	-5537
rain	-5538
rest	-5539
zero	-5540
▁cow	-5541
▁hel	-5542
▁lil	-5543
▁lip	-5544
▁lor	-5545
▁nah	-5546
▁psy	-5547
▁rac	-5548
▁rad	-5549
▁rot	-5550
▁rub	-5551
▁soc	-5552
▁sum	-5553
ailed	-5554
anews	-5555
aying	-5556
blatt	-5557
irect	-5558
izens	-5559
ledge	-5560
newsm	-5561
newst	-5562
olicy	-5563
virus	-5564
wards	-5565
whelm	-5566
▁auph	-5567
▁belg	-5568
▁dkng	-5569
▁draw	-5570
▁evil	-5571
▁exec	-5572
▁gang	-5573
▁herd	-5574
▁infr	-5575
▁junk	-5576
▁lady	-5577
▁prer	-5578
▁proj	-5579
▁puss	-5580
▁repl	-5581
▁salt	-5582
▁spac	-5583
▁town	-5584
▁youd	-5585
atoday	-5586
iation	-5587
ifying	-5588
▁biosc	-5589
▁crowd	-5590
▁hydro	-5591
▁indep	-5592
▁label	-5593
▁meets	-5594
▁peeps	-5595
▁quoti	-5596
▁rises	-5597
▁shook	-5598
▁tests	-5599
▁warns	-5600
abotage	-5601
duction	-5602
loyment	-5603
medical	-5604
strated	-5605
▁airbnb	-5606
▁alaska	-5607
▁appear	-5608
▁center	-5609
▁depart	-5610
▁dreams	-5611
▁enroll	-5612
▁excuse	-5613
▁filing	-5614
▁flight	-5615
▁gamble	-5616
▁indeed	-5617
▁lowest	-5618
▁mental	-5619
▁modern	-5620
▁poison	-5621
▁refuse	-5622
▁reload	-5623
▁screen	-5624
▁stockb	-5625
▁waited	-5626
ahahahah	-5627
referral	-5628
▁benzing	-5629
▁british	-5630
▁century	-5631
▁checked	-5632
▁college	-5633
▁conserv	-5634
▁evening	-5635
▁forming	-5636
▁freedom	-5637
▁moments	-5638
▁network	-5639
▁peanuts	-5640
▁publish	-5641
▁service	-5642
▁strateg	-5643
▁succeed	-5644
▁upwards	-5645
▁wouldve	-5646
▁xalkori	-5647
ellspalsy	-5648
transcrip	-5649
▁delusion	-5650
▁informed	-5651
▁lifetime	-5652
▁outweigh	-5653
▁patterns	-5654
▁personal	-5655
▁premiums	-5656
▁retarded	-5657
▁unlikely	-5658
▁dystrophy	-5659
▁institute	-5660
▁parasites	-5661
▁httpsbitly	-5662
▁motherfuck	-5663
▁overvalued	-5664
▁reasonable	-5665
▁acquisition	-5666
▁httpswwwbbc	-5667
▁ingredients	-5668
comstocktwits	-5669
▁bottomfrenzy	-5670
▁investigation	-5671
▁httpswwwpfizer	-5672
▁httpswwwstockt	-5673
jp	-5674
ku	-5675
qt	-5676
wj	-5677
zk	-5678
cut	-5679
die	-5680
ecc	-5681
ems	-5682
ery	-5683
gth	-5684
hib	-5685
pot	-5686
uae	-5687
ule	-5688
zum	-5689
▁bt	-5690
▁hi	-5691
▁ta	-5692
▁wt	-5693
feed	-5694
lows	-5695
ofth	-5696
oved	-5697
peed	-5698
wwww	-5699
▁dos	-5700
▁fub	-5701
▁nut	-5702
▁nyc	-5703
▁ohh	-5704
▁ong	-5705
▁six	-5706
▁sva	-5707
▁ten	-5708
▁yay	-5709
alled	-5710
emark	-5711
inter	-5712
order	-5713
rader	-5714
white	-5715
▁ages	-5716
▁army	-5717
▁bruh	-5718
▁diam	-5719
▁file	-5720
▁flip	-5721
▁gaps	-5722
▁imho	-5723
▁intc	-5724
▁mara	-5725
▁narr	-5726
▁park	-5727
▁pfec	-5728
▁pigs	-5729
▁rite	-5730
▁roth	-5731
▁shop	-5732
▁star	-5733
▁unit	-5734
▁yolo	-5735
aching	-5736
before	-5737
cnncom	-5738
rength	-5739
tsorgs	-5740
▁accom	-5741
▁began	-5742
▁bourl	-5743
▁discl	-5744
▁douch	-5745
▁fishy	-5746
▁goooo	-5747
▁helps	-5748
▁hmmmm	-5749
▁horse	-5750
▁innov	-5751
▁model	-5752
▁quotb	-5753
▁sight	-5754
▁troll	-5755
▁upset	-5756
▁walls	-5757
billion	-5758
ception	-5759
itannet	-5760
meeting	-5761
ounding	-5762
ructure	-5763
twitter	-5764
▁bidens	-5765
▁brings	-5766
▁humans	-5767
▁killer	-5768
▁london	-5769
▁nurses	-5770
▁pinned	-5771
▁placed	-5772
▁reveal	-5773
▁tanked	-5774
▁upjohn	-5775
administ	-5776
forcovid	-5777
pfizerin	-5778
ummaryid	-5779
usatoday	-5780
whelming	-5781
yahoocom	-5782
▁blocked	-5783
▁candles	-5784
▁goldman	-5785
▁ongoing	-5786
▁popping	-5787
▁roughly	-5788
▁screens	-5789
▁subject	-5790
▁through	-5791
▁allowing	-5792
▁benzinga	-5793
▁doordash	-5794
▁emotions	-5795
▁floating	-5796
▁guessing	-5797
▁ordering	-5798
▁rejected	-5799
▁services	-5800
▁somewhat	-5801
▁speaking	-5802
▁stealing	-5803
▁strength	-5804
▁substant	-5805
▁worrying	-5806
▁bloomberg	-5807
▁celebrate	-5808
▁depending	-5809
▁httpswwwm	-5810
▁httpswwwt	-5811
▁nightmare	-5812
▁represent	-5813
▁triggered	-5814
newscomnews	-5815
▁comparison	-5816
▁corruption	-5817
▁particular	-5818
emergencyuse	-5819
▁consecutive	-5820
▁established	-5821
tsorgsummaryid	-5822
foremergencyuse	-5823
▁httpswwwsecgov	-5824
gi	-5825
qq	-5826
ape	-5827
cor	-5828
dev	-5829
dom	-5830
fux	-5831
has	-5832
htm	-5833
ocl	-5834
ste	-5835
who	-5836
wsj	-5837
▁ec	-5838
▁gm	-5839
▁ie	-5840
▁md	-5841
▁rh	-5842
▁sg	-5843
▁uh	-5844
▁yr	-5845
deal	-5846
dufa	-5847
enic	-5848
enne	-5849
evit	-5850
hous	-5851
igan	-5852
inib	-5853
lobe	-5854
ocol	-5855
once	-5856
onth	-5857
open	-5858
orea	-5859
prof	-5860
scre	-5861
shot	-5862
stor	-5863
utin	-5864
vant	-5865
wall	-5866
▁bcr	-5867
▁bog	-5868
▁fib	-5869
▁fuc	-5870
▁gif	-5871
▁jer	-5872
▁mck	-5873
▁ple	-5874
▁thr	-5875
▁xom	-5876
bcast	-5877
forda	-5878
spect	-5879
ymbol	-5880
▁borr	-5881
▁brad	-5882
▁budd	-5883
▁butt	-5884
▁capr	-5885
▁dogs	-5886
▁elig	-5887
▁fate	-5888
▁fold	-5889
▁girl	-5890
▁gnus	-5891
▁goin	-5892
▁immp	-5893
▁macd	-5894
▁mort	-5895
▁nast	-5896
▁rand	-5897
▁resc	-5898
▁sort	-5899
▁tril	-5900
▁viiv	-5901
▁virt	-5902
▁warm	-5903
active	-5904
announ	-5905
erthes	-5906
intern	-5907
inyurl	-5908
stobuy	-5909
traday	-5910
▁await	-5911
▁cards	-5912
▁chick	-5913
▁cycle	-5914
▁homes	-5915
▁influ	-5916
▁lying	-5917
▁mater	-5918
▁pdufa	-5919
▁peace	-5920
▁spend	-5921
▁storm	-5922
▁trail	-5923
▁woman	-5924
akeover	-5925
andered	-5926
▁altern	-5927
▁animal	-5928
▁bloody	-5929
▁checks	-5930
▁dosing	-5931
▁ending	-5932
▁endors	-5933
▁engine	-5934
▁factor	-5935
▁forgot	-5936
▁inevit	-5937
▁intell	-5938
▁priest	-5939
▁runner	-5940
▁scheme	-5941
▁thread	-5942
erollout	-5943
mutation	-5944
▁botched	-5945
▁complic	-5946
▁contact	-5947
▁diamond	-5948
▁hopeful	-5949
▁neither	-5950
▁painful	-5951
▁picking	-5952
▁pivotal	-5953
▁primary	-5954
▁sinking	-5955
▁streets	-5956
▁useless	-5957
▁watched	-5958
▁winners	-5959
ification	-5960
inyurlcom	-5961
▁argument	-5962
▁briefing	-5963
▁buybacks	-5964
▁critical	-5965
▁diseases	-5966
▁electric	-5967
▁exercise	-5968
▁injected	-5969
▁intraday	-5970
▁mentions	-5971
▁prerever	-5972
▁sciences	-5973
▁shutdown	-5974
▁supplies	-5975
▁underway	-5976
▁convinced	-5977
▁knowledge	-5978
▁providing	-5979
▁residents	-5980
istribution	-5981
▁authorizes	-5982
▁delusional	-5983
▁recovering	-5984
▁throughout	-5985
vaccinedoses	-5986
▁authorities	-5987
▁biosciences	-5988
▁uncertainty	-5989
watchcomstory	-5990
▁continuation	-5991
▁immunization	-5992
▁organization	-5993
itannetnewspfe	-5994
▁commercialize	-5995
▁manufacturers	-5996
▁mismanagement	-5997
covidvaccinehtml	-5998
soumyajyotibquot	-5999
▁httpstinyurlcom	-6000
cq	-6001
kn	-6002
nx	-6003
pk	-6004
qw	-6005
vd	-6006
▁,	-6007
ael	-6008
agr	-6009
arn	-6010
bie	-6011
deb	-6012
isf	-6013
lan	-6014
lim	-6015
pet	-6016
sto	-6017
tos	-6018
▁fn	-6019
▁pu	-6020
▁rm	-6021
▁wo	-6022
aspx	-6023
call	-6024
cego	-6025
ceob	-6026
comt	-6027
eces	-6028
famp	-6029
hole	-6030
lieb	-6031
loye	-6032
onal	-6033
ower	-6034
plit	-6035
sius	-6036
soft	-6037
tttt	-6038
uded	-6039
▁adj	-6040
▁bft	-6041
▁cop	-6042
▁dur	-6043
▁etf	-6044
▁fro	-6045
▁gme	-6046
▁lit	-6047
▁nod	-6048
▁oct	-6049
▁que	-6050
▁sam	-6051
▁sep	-6052
▁upp	-6053
ached	-6054
antib	-6055
biden	-6056
cebod	-6057
enbod	-6058
erate	-6059
itary	-6060
itten	-6061
marth	-6062
minus	-6063
oding	-6064
oying	-6065
portt	-6066
works	-6067
▁adds	-6068
▁atos	-6069
▁band	-6070
▁bang	-6071
▁base	-6072
▁bcrx	-6073
▁clue	-6074
▁epip	-6075
▁fcel	-6076
▁fubo	-6077
▁grad	-6078
▁noon	-6079
▁offs	-6080
▁outt	-6081
▁payt	-6082
▁sgmo	-6083
▁ston	-6084
▁text	-6085
▁uvxy	-6086
▁wise	-6087
ancing	-6088
elongs	-6089
ergens	-6090
fuxred	-6091
helpmy	-6092
ictory	-6093
loyees	-6094
msncom	-6095
nasdaq	-6096
ocking	-6097
priced	-6098
ritory	-6099
waybod	-6100
▁admit	-6101
▁broad	-6102
▁frank	-6103
▁frequ	-6104
▁girls	-6105
▁hence	-6106
▁hurts	-6107
▁mount	-6108
▁mover	-6109
▁movie	-6110
▁multi	-6111
▁plant	-6112
▁quiet	-6113
▁rejoy	-6114
▁temps	-6115
▁whale	-6116
astatic	-6117
beatcom	-6118
deserve	-6119
fordast	-6120
operceo	-6121
quarter	-6122
ressing	-6123
sesplit	-6124
▁afford	-6125
▁assess	-6126
▁backed	-6127
▁clears	-6128
▁decade	-6129
▁determ	-6130
▁equity	-6131
▁excell	-6132
▁explan	-6133
▁facial	-6134
▁fooled	-6135
▁ladies	-6136
▁lately	-6137
▁places	-6138
▁recogn	-6139
▁slower	-6140
▁stayed	-6141
▁unload	-6142
blattbod	-6143
ceoblows	-6144
expected	-6145
innorway	-6146
starting	-6147
▁actions	-6148
▁balance	-6149
▁borders	-6150
▁celsius	-6151
▁ceosuff	-6152
▁classic	-6153
▁collaps	-6154
▁crushed	-6155
▁efforts	-6156
▁entered	-6157
▁fridays	-6158
▁limited	-6159
▁outcome	-6160
▁secures	-6161
▁shocked	-6162
▁stephen	-6163
▁upgrade	-6164
▁wearing	-6165
▁written	-6166
ershipnow	-6167
ffersucks	-6168
marthabod	-6169
quandered	-6170
▁adjusted	-6171
▁annoying	-6172
▁attitude	-6173
▁becoming	-6174
▁citizens	-6175
▁crashing	-6176
▁familiar	-6177
▁freezing	-6178
▁hostilet	-6179
▁joergens	-6180
▁muscular	-6181
▁powerful	-6182
▁publicly	-6183
▁realized	-6184
▁security	-6185
▁suggests	-6186
▁tommorow	-6187
▁bourlabod	-6188
▁hooperceo	-6189
▁httpswwwc	-6190
▁httpswwwv	-6191
▁moronmike	-6192
▁predicted	-6193
▁reporting	-6194
▁retailers	-6195
▁sayerthes	-6196
▁trademark	-6197
▁truelongs	-6198
▁botcheduae	-6199
▁bradwaybod	-6200
▁castagnant	-6201
▁controlled	-6202
▁efficiency	-6203
▁greedycego	-6204
▁httpswwwal	-6205
▁injections	-6206
▁leadership	-6207
▁rejoycebod	-6208
▁sendhelpmy	-6209
▁submission	-6210
▁alkpositive	-6211
▁ceosabotage	-6212
▁inoculation	-6213
▁millennials	-6214
▁requirement	-6215
acovidvaccine	-6216
deserveaccess	-6217
leadershipnow	-6218
▁mediocremike	-6219
▁restrictions	-6220
▁rothblattbod	-6221
newscomarticle	-6222
▁joergensenbod	-6223
▁understanding	-6224
▁ceosuffocation	-6225
▁geoffmarthabod	-6226
▁httpswwwmsncom	-6227
▁sayerthesavior	-6228
placecompfestock	-6229
▁hostiletakeover	-6230
▁prereversesplit	-6231
gx	-6232
hk	-6233
tm	-6234
aae	-6235
bec	-6236
bel	-6237
boy	-6238
feb	-6239
hic	-6240
hom	-6241
ndm	-6242
oil	-6243
oqu	-6244
rom	-6245
rys	-6246
ten	-6247
ulf	-6248
xrx	-6249
▁hr	-6250
▁rv	-6251
▁wa	-6252
----	-6253
ache	-6254
bour	-6255
hhhh	-6256
itis	-6257
lest	-6258
lied	-6259
life	-6260
stit	-6261
udes	-6262
ules	-6263
umes	-6264
▁aka	-6265
▁aug	-6266
▁bud	-6267
▁cab	-6268
▁cha	-6269
▁hyp	-6270
▁lag	-6271
▁mit	-6272
▁mof	-6273
▁nfl	-6274
▁pol	-6275
▁tag	-6276
▁ual	-6277
andid	-6278
covax	-6279
endar	-6280
eport	-6281
illot	-6282
lying	-6283
newsc	-6284
oting	-6285
ovant	-6286
regul	-6287
▁cdev	-6288
▁dadd	-6289
▁dirt	-6290
▁dive	-6291
▁dumm	-6292
▁firm	-6293
▁gree	-6294
▁hair	-6295
▁hows	-6296
▁ille	-6297
▁meth	-6298
▁musk	-6299
▁sand	-6300
▁stfu	-6301
▁tele	-6302
▁this	-6303
▁wrap	-6304
astern	-6305
ectors	-6306
etails	-6307
etrial	-6308
global	-6309
iments	-6310
inform	-6311
ovirus	-6312
public	-6313
review	-6314
wpoint	-6315
▁badly	-6316
▁bound	-6317
▁chose	-6318
▁coffe	-6319
▁coinc	-6320
▁devil	-6321
▁fixed	-6322
▁guine	-6323
▁horiz	-6324
▁ignor	-6325
▁incor	-6326
▁intel	-6327
▁jumps	-6328
▁loves	-6329
▁nasty	-6330
▁parts	-6331
▁pract	-6332
▁proud	-6333
▁pulls	-6334
▁reset	-6335
▁sides	-6336
▁steps	-6337
▁swiss	-6338
▁utter	-6339
▁vehic	-6340
▁whose	-6341
▁yikes	-6342
capital	-6343
dosesof	-6344
indepth	-6345
opinion	-6346
▁bloodb	-6347
▁fucker	-6348
▁licens	-6349
▁propag	-6350
▁quotwe	-6351
▁rumors	-6352
▁shared	-6353
▁trucks	-6354
▁weight	-6355
research	-6356
vacciner	-6357
▁accompl	-6358
▁decides	-6359
▁dummies	-6360
▁foreign	-6361
▁fortune	-6362
▁generic	-6363
▁guillot	-6364
▁hanging	-6365
▁httpsap	-6366
▁logical	-6367
▁natural	-6368
▁popular	-6369
▁reduced	-6370
▁smoking	-6371
▁strikes	-6372
▁syringe	-6373
▁upfront	-6374
istically	-6375
▁bouncing	-6376
▁chairman	-6377
▁combined	-6378
▁economic	-6379
▁greatest	-6380
▁prepared	-6381
▁receiver	-6382
▁breathing	-6383
▁comparing	-6384
▁decisions	-6385
▁employees	-6386
▁excellent	-6387
▁indicator	-6388
▁milestone	-6389
▁narrative	-6390
▁scientist	-6391
▁screaming	-6392
▁suffering	-6393
▁territory	-6394
▁originally	-6395
▁recipients	-6396
▁struggling	-6397
▁supporting	-6398
yahoocomnews	-6399
▁anaphylaxis	-6400
▁comfortable	-6401
▁explanation	-6402
▁incompetent	-6403
▁negotiating	-6404
▁distributing	-6405
▁kickstarting	-6406
▁successfully	-6407
▁approximately	-6408
itchutecomvideo	-6409
ashingtonpostcom	-6410
zzzzzzzzzzzzzzzz	-6411
00	-6412
gc	-6413
hl	-6414
kb	-6415
qn	-6416
rz	-6417
wn	-6418
wy	-6419
xq	-6420
▁2	-6421
abe	-6422
ahh	-6423
eel	-6424
fff	-6425
ica	-6426
ipr	-6427
jab	-6428
las	-6429
onz	-6430
osm	-6431
pcn	-6432
php	-6433
scr	-6434
ube	-6435
ula	-6436
vir	-6437
▁ly	-6438
ague	-6439
bble	-6440
bear	-6441
empt	-6442
fast	-6443
free	-6444
gtgt	-6445
idin	-6446
imen	-6447
inch	-6448
inse	-6449
kind	-6450
mall	-6451
need	-6452
onom	-6453
osis	-6454
osun	-6455
phas	-6456
uate	-6457
ugen	-6458
uted	-6459
wait	-6460
ynam	-6461
▁ber	-6462
▁bil	-6463
▁ccp	-6464
▁dub	-6465
▁eve	-6466
▁fis	-6467
▁ibm	-6468
▁mur	-6469
▁odd	-6470
▁ows	-6471
▁tgt	-6472
▁vtv	-6473
▁wmt	-6474
acted	-6475
asses	-6476
enger	-6477
gener	-6478
latin	-6479
loyed	-6480
medic	-6481
money	-6482
osure	-6483
shots	-6484
▁asks	-6485
▁bast	-6486
▁clvs	-6487
▁codx	-6488
▁diss	-6489
▁hint	-6490
▁hood	-6491
▁hook	-6492
▁lung	-6493
▁more	-6494
▁pres	-6495
▁sett	-6496
▁smfh	-6497
▁thes	-6498
▁tmrw	-6499
▁twtr	-6500
▁warn	-6501
ardian	-6502
essage	-6503
icscom	-6504
loroqu	-6505
uments	-6506
▁accur	-6507
▁adjuv	-6508
▁asses	-6509
▁books	-6510
▁clock	-6511
▁crypt	-6512
▁fault	-6513
▁globe	-6514
▁korea	-6515
▁mrnas	-6516
▁names	-6517
▁neigh	-6518
▁psych	-6519
▁sachs	-6520
▁sadly	-6521
▁snail	-6522
ipranks	-6523
isation	-6524
pective	-6525
▁august	-6526
▁awhile	-6527
▁brainw	-6528
▁chinas	-6529
▁divers	-6530
▁donald	-6531
▁fcking	-6532
▁passes	-6533
▁rescue	-6534
▁retrac	-6535
▁search	-6536
▁smooth	-6537
▁transl	-6538
screener	-6539
▁amounts	-6540
▁decline	-6541
▁dipping	-6542
▁eastern	-6543
▁finding	-6544
▁goooooo	-6545
▁illegal	-6546
▁mankind	-6547
▁portion	-6548
▁reminds	-6549
▁rewards	-6550
▁sending	-6551
▁signals	-6552
▁spinoff	-6553
▁suckers	-6554
▁sucking	-6555
▁victory	-6556
▁viruses	-6557
effective	-6558
portfolio	-6559
▁countrys	-6560
▁eligible	-6561
▁entering	-6562
▁goodluck	-6563
▁promised	-6564
▁protocol	-6565
▁releases	-6566
fbclidiwar	-6567
▁bloodbath	-6568
▁estimates	-6569
▁initially	-6570
▁intention	-6571
▁liability	-6572
▁microchip	-6573
▁necessary	-6574
▁resources	-6575
▁stockbeep	-6576
▁wonderful	-6577
enzingacomz	-6578
filterioaed	-6579
filterioafe	-6580
▁afterhours	-6581
▁destroying	-6582
▁discovered	-6583
▁httpswwwrt	-6584
▁impressive	-6585
▁individual	-6586
▁inevitable	-6587
▁metastatic	-6588
▁pharmacies	-6589
▁propaganda	-6590
▁combination	-6591
▁effectively	-6592
▁expectation	-6593
▁experienced	-6594
▁frustrating	-6595
▁guillotined	-6596
▁investigate	-6597
▁perspective	-6598
newscomhealth	-6599
▁conservative	-6600
▁investigated	-6601
▁relationship	-6602
▁transmission	-6603
articlearticle	-6604
▁announcements	-6605
▁httpsyoutubet	-6606
analysiscontent	-6607
filterioarticles	-6608
iefingcomindepth	-6609
jf	-6610
jj	-6611
kh	-6612
ri	-6613
wq	-6614
▁=	-6615
bbb	-6616
bcc	-6617
dcd	-6618
enk	-6619
gas	-6620
his	-6621
itz	-6622
izz	-6623
ked	-6624
mov	-6625
och	-6626
oui	-6627
oul	-6628
sss	-6629
xic	-6630
▁by	-6631
▁ez	-6632
▁ol	-6633
▁ul	-6634
▁vp	-6635
▁zz	-6636
acks	-6637
edly	-6638
ells	-6639
flow	-6640
goti	-6641
hedg	-6642
hill	-6643
iami	-6644
iger	-6645
ires	-6646
play	-6647
prov	-6648
raft	-6649
rust	-6650
star	-6651
step	-6652
sthe	-6653
they	-6654
uspt	-6655
very	-6656
wing	-6657
▁dee	-6658
▁emb	-6659
▁eom	-6660
▁gdp	-6661
▁led	-6662
▁men	-6663
▁obl	-6664
▁otm	-6665
▁ram	-6666
▁rmg	-6667
▁tol	-6668
adows	-6669
ancet	-6670
avenc	-6671
brand	-6672
itzer	-6673
nings	-6674
nycom	-6675
orida	-6676
posit	-6677
study	-6678
▁cars	-6679
▁farm	-6680
▁hill	-6681
▁hott	-6682
▁kiss	-6683
▁lxrx	-6684
▁magn	-6685
▁mars	-6686
▁nndm	-6687
▁odds	-6688
▁peer	-6689
▁phys	-6690
▁pros	-6691
▁pupp	-6692
▁rain	-6693
▁riot	-6694
▁seek	-6695
▁skin	-6696
▁stab	-6697
▁tdoc	-6698
arters	-6699
cancer	-6700
icious	-6701
ogenic	-6702
reated	-6703
stream	-6704
▁awful	-6705
▁champ	-6706
▁cures	-6707
▁daddy	-6708
▁deriv	-6709
▁drink	-6710
▁flash	-6711
▁initi	-6712
▁inver	-6713
▁leaps	-6714
▁lolol	-6715
▁merck	-6716
▁pills	-6717
▁plumm	-6718
▁rebuy	-6719
▁rinse	-6720
▁scoop	-6721
▁snake	-6722
▁where	-6723
apfizer	-6724
ibility	-6725
▁assume	-6726
▁coffee	-6727
▁encour	-6728
▁epipen	-6729
▁execut	-6730
▁explos	-6731
▁facing	-6732
▁guinea	-6733
▁hacked	-6734
▁kicked	-6735
▁leaves	-6736
▁messed	-6737
▁method	-6738
▁offers	-6739
▁orange	-6740
▁player	-6741
▁random	-6742
▁womens	-6743
algreens	-6744
hospital	-6745
investig	-6746
reatment	-6747
released	-6748
sciences	-6749
▁bashing	-6750
▁blowing	-6751
▁bounces	-6752
▁brother	-6753
▁describ	-6754
▁excuses	-6755
▁figures	-6756
▁fingers	-6757
▁outlook	-6758
▁raising	-6759
▁remains	-6760
▁sinovac	-6761
▁stanley	-6762
▁stories	-6763
▁suppose	-6764
▁walmart	-6765
abilities	-6766
emergency	-6767
loroquine	-6768
vaccineis	-6769
▁advisers	-6770
▁bottomed	-6771
▁dewpoint	-6772
▁explains	-6773
▁headache	-6774
▁includes	-6775
▁leverage	-6776
▁ministry	-6777
▁normally	-6778
▁opinions	-6779
▁proteins	-6780
▁sometime	-6781
▁upgraded	-6782
additional	-6783
▁committed	-6784
▁locations	-6785
▁microsoft	-6786
▁patiently	-6787
▁perfectly	-6788
▁sidelines	-6789
▁stability	-6790
▁submitted	-6791
▁supplying	-6792
▁connection	-6793
▁derivative	-6794
▁downgraded	-6795
▁httpsstock	-6796
▁performing	-6797
▁volunteers	-6798
▁controlling	-6799
▁discussions	-6800
▁httpswwwwsj	-6801
▁independent	-6802
▁millionaire	-6803
▁speculation	-6804
▁anaphylactic	-6805
▁stockbeepcom	-6806
ooglecomampsamp	-6807
▁httpsyoutubecom	-6808
▁investigational	-6809
fm	-6810
gm	-6811
kw	-6812
lc	-6813
mx	-6814
pc	-6815
vy	-6816
ze	-6817
ahe	-6818
ato	-6819
bad	-6820
bor	-6821
cat	-6822
cin	-6823
ews	-6824
ffc	-6825
gie	-6826
mer	-6827
rum	-6828
rup	-6829
urg	-6830
urn	-6831
vis	-6832
wer	-6833
wik	-6834
▁ft	-6835
▁na	-6836
▁oo	-6837
▁py	-6838
▁qr	-6839
▁td	-6840
acro	-6841
agre	-6842
aint	-6843
damn	-6844
ethe	-6845
gott	-6846
icag	-6847
inab	-6848
inal	-6849
ince	-6850
itro	-6851
laim	-6852
last	-6853
link	-6854
ocom	-6855
oget	-6856
rail	-6857
reak	-6858
riot	-6859
rump	-6860
tery	-6861
ummy	-6862
urus	-6863
well	-6864
▁bah	-6865
▁bla	-6866
▁bln	-6867
▁coz	-6868
▁dal	-6869
▁dod	-6870
▁fid	-6871
▁iph	-6872
▁nap	-6873
▁nor	-6874
▁pel	-6875
▁rbc	-6876
▁seg	-6877
▁wer	-6878
▁yoy	-6879
amppr	-6880
arept	-6881
ashed	-6882
atrog	-6883
blers	-6884
brena	-6885
cient	-6886
green	-6887
iable	-6888
illed	-6889
inger	-6890
orith	-6891
▁anti	-6892
▁asia	-6893
▁beer	-6894
▁biib	-6895
▁bird	-6896
▁caut	-6897
▁dust	-6898
▁dvax	-6899
▁east	-6900
▁fart	-6901
▁gent	-6902
▁lpcn	-6903
▁mail	-6904
▁mole	-6905
▁mute	-6906
▁nflx	-6907
▁olds	-6908
▁pour	-6909
▁proc	-6910
▁robb	-6911
▁sore	-6912
▁uhhh	-6913
▁user	-6914
▁vial	-6915
agious	-6916
attack	-6917
bharat	-6918
change	-6919
edgard	-6920
ground	-6921
iontec	-6922
porttm	-6923
status	-6924
▁agenc	-6925
▁boner	-6926
▁crapp	-6927
▁digit	-6928
▁dipsh	-6929
▁dumps	-6930
▁equal	-6931
▁exped	-6932
▁fluct	-6933
▁honey	-6934
▁loads	-6935
▁magic	-6936
▁merge	-6937
▁minds	-6938
▁outta	-6939
▁owner	-6940
▁pants	-6941
▁punch	-6942
▁separ	-6943
▁shark	-6944
▁ships	-6945
▁spoke	-6946
▁stare	-6947
▁taste	-6948
▁wiped	-6949
ahealth	-6950
avencio	-6951
estreet	-6952
ination	-6953
usptore	-6954
▁advert	-6955
▁arrive	-6956
▁beware	-6957
▁commun	-6958
▁conver	-6959
▁correl	-6960
▁critic	-6961
▁digits	-6962
▁donkey	-6963
▁extend	-6964
▁forced	-6965
▁jabron	-6966
▁linked	-6967
▁pieces	-6968
▁plague	-6969
▁proves	-6970
▁rights	-6971
▁sanofi	-6972
▁silver	-6973
▁spokes	-6974
▁submit	-6975
▁vector	-6976
▁waking	-6977
▁widely	-6978
archives	-6979
cnysepfe	-6980
compolit	-6981
guardian	-6982
hinnycom	-6983
moreonce	-6984
patients	-6985
products	-6986
▁accepts	-6987
▁contrib	-6988
▁crooked	-6989
▁crossed	-6990
▁follows	-6991
▁httpscl	-6992
▁lawsuit	-6993
▁luckily	-6994
▁praying	-6995
▁prepare	-6996
▁private	-6997
▁quicker	-6998
▁restaur	-6999
▁retails	-7000
▁slaught	-7001
▁society	-7002
▁trusted	-7003
▁webcast	-7004
▁witness	-7005
ampprtrue	-7006
announces	-7007
comhealth	-7008
covidhtml	-7009
echnology	-7010
pfizerpfe	-7011
▁behavior	-7012
▁catching	-7013
▁cautious	-7014
▁collapse	-7015
▁convince	-7016
▁deserved	-7017
▁favorite	-7018
▁flipping	-7019
▁gamblers	-7020
▁governor	-7021
▁headline	-7022
▁httpsabc	-7023
▁michigan	-7024
▁military	-7025
▁reviewed	-7026
▁spending	-7027
covidminus	-7028
▁believing	-7029
▁biopharma	-7030
▁emotional	-7031
▁firstline	-7032
▁generated	-7033
▁initiated	-7034
▁paytience	-7035
▁professor	-7036
benzingacom	-7037
businesscom	-7038
▁appreciate	-7039
▁associated	-7040
▁considered	-7041
▁consistent	-7042
▁department	-7043
▁monitoring	-7044
▁preventing	-7045
▁relatively	-7046
▁represents	-7047
▁republican	-7048
▁transacted	-7049
couldbeworth	-7050
▁transported	-7051
international	-7052
usptoreporttm	-7053
▁billionaires	-7054
▁hospitalized	-7055
▁manufactured	-7056
▁manufacturer	-7057
archivesedgard	-7058
idrmgaizfuhutm	-7059
▁consolidating	-7060
▁httpswwwpolit	-7061
couknewsarticle	-7062
epfizerbiontech	-7063
percentmoreonce	-7064
pfizerincnysepfe	-7065
fv	-7066
ji	-7067
po	-7068
rg	-7069
wl	-7070
yx	-7071
zc	-7072
▁/	-7073
aaf	-7074
arp	-7075
ctx	-7076
cul	-7077
del	-7078
hiv	-7079
hop	-7080
llf	-7081
mag	-7082
mex	-7083
pay	-7084
qpt	-7085
tob	-7086
tok	-7087
umn	-7088
urd	-7089
usb	-7090
van	-7091
vot	-7092
xml	-7093
▁mh	-7094
▁mo	-7095
▁mt	-7096
▁xd	-7097
angu	-7098
anto	-7099
aren	-7100
arin	-7101
bets	-7102
brit	-7103
conn	-7104
dise	-7105
elin	-7106
gers	-7107
hire	-7108
hist	-7109
iles	-7110
inic	-7111
izot	-7112
loss	-7113
nnnn	-7114
oker	-7115
orts	-7116
part	-7117
pted	-7118
umer	-7119
when	-7120
wind	-7121
▁ali	-7122
▁alt	-7123
▁ark	-7124
▁atm	-7125
▁btf	-7126
▁deg	-7127
▁ewu	-7128
▁isr	-7129
▁lou	-7130
▁nvs	-7131
▁pal	-7132
▁sof	-7133
▁sue	-7134
▁tab	-7135
▁tip	-7136
▁zzz	-7137
atris	-7138
backs	-7139
enced	-7140
ermal	-7141
gover	-7142
graph	-7143
idiot	-7144
iters	-7145
lands	-7146
pread	-7147
quots	-7148
rench	-7149
rrrrr	-7150
staff	-7151
still	-7152
trend	-7153
usfda	-7154
▁alle	-7155
▁auto	-7156
▁bask	-7157
▁boss	-7158
▁cute	-7159
▁dare	-7160
▁dram	-7161
▁duck	-7162
▁horm	-7163
▁humb	-7164
▁lctx	-7165
▁mons	-7166
▁mood	-7167
▁neck	-7168
▁nkla	-7169
▁nvda	-7170
▁poop	-7171
▁rats	-7172
▁sugg	-7173
▁thie	-7174
▁thre	-7175
▁tlry	-7176
▁tool	-7177
▁tops	-7178
▁vacc	-7179
▁vtvt	-7180
appear	-7181
oxford	-7182
weight	-7183
▁alter	-7184
▁antig	-7185
▁buddy	-7186
▁chaos	-7187
▁cheer	-7188
▁diagn	-7189
▁drama	-7190
▁excit	-7191
▁infer	-7192
▁joint	-7193
▁jones	-7194
▁labor	-7195
▁liars	-7196
▁miami	-7197
▁moder	-7198
▁newly	-7199
▁novel	-7200
▁paint	-7201
▁peter	-7202
▁refer	-7203
▁rules	-7204
▁shift	-7205
▁shits	-7206
▁slide	-7207
▁smoke	-7208
▁solve	-7209
▁surve	-7210
▁titan	-7211
▁topic	-7212
▁toxic	-7213
ecandid	-7214
itation	-7215
leading	-7216
▁breath	-7217
▁button	-7218
▁commit	-7219
▁damage	-7220
▁device	-7221
▁embarr	-7222
▁estate	-7223
▁exists	-7224
▁formal	-7225
▁gooooo	-7226
▁iphone	-7227
▁listed	-7228
▁manage	-7229
▁master	-7230
▁provid	-7231
▁slaoui	-7232
▁stabil	-7233
▁stands	-7234
▁stradd	-7235
▁toilet	-7236
chartpfe	-7237
entially	-7238
hedgecom	-7239
izotinib	-7240
utmsourc	-7241
▁address	-7242
▁antivax	-7243
▁barrons	-7244
▁belgium	-7245
▁bounced	-7246
▁conduct	-7247
▁doucheb	-7248
▁factory	-7249
▁fearful	-7250
▁florida	-7251
▁hormone	-7252
▁interim	-7253
▁justify	-7254
▁officer	-7255
▁persons	-7256
▁project	-7257
▁sectors	-7258
▁sharing	-7259
▁slowing	-7260
▁spreads	-7261
▁sustain	-7262
▁trapped	-7263
▁tripled	-7264
▁various	-7265
▁viatris	-7266
▁yearold	-7267
razenecas	-7268
▁adjuvant	-7269
▁algorith	-7270
▁averaged	-7271
▁basement	-7272
▁checking	-7273
▁controls	-7274
▁finished	-7275
▁learning	-7276
▁meetings	-7277
▁mistakes	-7278
▁reaching	-7279
▁shortage	-7280
▁touching	-7281
▁transfer	-7282
▁treating	-7283
▁witstock	-7284
comampnews	-7285
▁community	-7286
▁disappear	-7287
▁entertain	-7288
▁everytime	-7289
▁goodnight	-7290
▁selection	-7291
information	-7292
▁businesses	-7293
▁conclusion	-7294
▁excitement	-7295
▁indicators	-7296
▁milestones	-7297
▁neutralize	-7298
▁profession	-7299
▁quotpfizer	-7300
▁suggestion	-7301
amputmsource	-7302
comstorynews	-7303
zerohedgecom	-7304
▁accordingly	-7305
▁electronics	-7306
▁possibility	-7307
▁technically	-7308
comnewspfizer	-7309
ecovidvaccine	-7310
▁pfeffersucks	-7311
▁biotechnology	-7312
▁realistically	-7313
archivesedgardat	-7314
▁pfizerbiontechs	-7315
fi	-7316
fk	-7317
gk	-7318
jk	-7319
jz	-7320
vm	-7321
xd	-7322
afd	-7323
apy	-7324
ari	-7325
aug	-7326
bot	-7327
cms	-7328
cnn	-7329
dcb	-7330
ddd	-7331
dex	-7332
eal	-7333
eem	-7334
eer	-7335
emy	-7336
enu	-7337
lab	-7338
lem	-7339
lgn	-7340
lys	-7341
mod	-7342
ray	-7343
tom	-7344
uro	-7345
weg	-7346
win	-7347
wit	-7348
xit	-7349
▁aa	-7350
▁ct	-7351
▁il	-7352
▁jp	-7353
▁ko	-7354
▁kr	-7355
▁rs	-7356
▁xx	-7357
ains	-7358
ampc	-7359
coms	-7360
conf	-7361
disc	-7362
dont	-7363
ened	-7364
etly	-7365
home	-7366
iers	-7367
ivir	-7368
ober	-7369
opes	-7370
ores	-7371
oric	-7372
prom	-7373
rock	-7374
says	-7375
thel	-7376
then	-7377
ucle	-7378
uell	-7379
wich	-7380
▁bod	-7381
▁bum	-7382
▁cmc	-7383
▁dmd	-7384
▁gar	-7385
▁gem	-7386
▁hod	-7387
▁iam	-7388
▁ima	-7389
▁jun	-7390
▁nhs	-7391
▁pra	-7392
▁thx	-7393
▁tor	-7394
▁und	-7395
▁unp	-7396
▁urg	-7397
▁ved	-7398
afric	-7399
ahead	-7400
atter	-7401
buffe	-7402
eeeee	-7403
elect	-7404
ethis	-7405
icago	-7406
ician	-7407
ideos	-7408
igent	-7409
named	-7410
nment	-7411
organ	-7412
reven	-7413
sever	-7414
stein	-7415
sthis	-7416
usive	-7417
▁aone	-7418
▁bail	-7419
▁biol	-7420
▁btfd	-7421
▁cert	-7422
▁cuts	-7423
▁edit	-7424
▁elev	-7425
▁fade	-7426
▁haul	-7427
▁heat	-7428
▁hike	-7429
▁hunt	-7430
▁imma	-7431
▁kong	-7432
▁lame	-7433
▁mhra	-7434
▁nose	-7435
▁opko	-7436
▁qlgn	-7437
▁qrvo	-7438
▁quad	-7439
▁roku	-7440
▁role	-7441
▁rout	-7442
▁shif	-7443
▁spam	-7444
▁tact	-7445
▁tens	-7446
▁thaw	-7447
▁wood	-7448
▁xers	-7449
acting	-7450
advers	-7451
cience	-7452
docxml	-7453
german	-7454
inated	-7455
iteria	-7456
lement	-7457
licits	-7458
likely	-7459
llabor	-7460
newsgo	-7461
reason	-7462
strate	-7463
ymptom	-7464
▁anapl	-7465
▁birth	-7466
▁brief	-7467
▁escap	-7468
▁flood	-7469
▁forms	-7470
▁grade	-7471
▁graph	-7472
▁inhib	-7473
▁italy	-7474
▁lambo	-7475
▁mannk	-7476
▁nucle	-7477
▁rampd	-7478
▁sayin	-7479
▁shady	-7480
▁soooo	-7481
▁spoil	-7482
▁style	-7483
▁thumb	-7484
▁traps	-7485
▁vatic	-7486
▁vxllf	-7487
▁witch	-7488
atrogon	-7489
johnson	-7490
latinib	-7491
myovant	-7492
tenance	-7493
workers	-7494
▁biolog	-7495
▁bubble	-7496
▁cancel	-7497
▁casino	-7498
▁citing	-7499
▁fiscal	-7500
▁httpsc	-7501
▁lambos	-7502
▁lining	-7503
▁masses	-7504
▁mixing	-7505
▁modest	-7506
▁mutant	-7507
▁parent	-7508
▁phones	-7509
▁remark	-7510
▁remind	-7511
▁roller	-7512
▁speaks	-7513
▁spoken	-7514
▁status	-7515
▁sucker	-7516
▁timefr	-7517
▁trends	-7518
▁videos	-7519
▁werent	-7520
aytrader	-7521
position	-7522
vaccinem	-7523
ymbolpfe	-7524
▁answers	-7525
▁asshole	-7526
▁attacks	-7527
▁banking	-7528
▁cashing	-7529
▁central	-7530
▁chatter	-7531
▁closely	-7532
▁convers	-7533
▁curevac	-7534
▁dealing	-7535
▁deficit	-7536
▁emotion	-7537
▁filling	-7538
▁hydroxy	-7539
▁invites	-7540
▁kingdom	-7541
▁machine	-7542
▁mmquots	-7543
▁priorit	-7544
▁proceed	-7545
▁records	-7546
▁replace	-7547
▁retards	-7548
▁suspect	-7549
▁switzer	-7550
▁titanic	-7551
▁treated	-7552
▁walking	-7553
▁wasting	-7554
comstocks	-7555
relatedbi	-7556
▁bavencio	-7557
▁brothers	-7558
▁canadian	-7559
▁carrying	-7560
▁criteria	-7561
▁dreaming	-7562
▁factored	-7563
▁newswire	-7564
▁occurred	-7565
▁properly	-7566
▁punished	-7567
▁quarters	-7568
▁quotsell	-7569
▁reserved	-7570
▁schedule	-7571
▁standing	-7572
▁suddenly	-7573
▁suffered	-7574
▁universe	-7575
▁watchers	-7576
astructure	-7577
▁administr	-7578
▁blackrock	-7579
▁breakdown	-7580
▁continued	-7581
▁corporate	-7582
▁downgrade	-7583
▁embarrass	-7584
▁exercised	-7585
▁expanding	-7586
▁followers	-7587
▁generally	-7588
▁immediate	-7589
▁operating	-7590
▁panicking	-7591
▁rocketing	-7592
filterioaac	-7593
filterioaff	-7594
vaccinehtml	-7595
vaccinesand	-7596
▁agreements	-7597
▁contagious	-7598
▁continuing	-7599
▁dipshidiot	-7600
▁evaluation	-7601
▁historical	-7602
▁screenshot	-7603
▁somatrogon	-7604
▁unexpected	-7605
comnewsworld	-7606
▁bureaucrats	-7607
▁competitors	-7608
▁conditional	-7609
▁maintenance	-7610
▁participant	-7611
▁republicans	-7612
▁switzerland	-7613
▁therapeutic	-7614
▁traditional	-7615
covidvaccined	-7616
▁applications	-7617
▁manufactures	-7618
▁millionaires	-7619
▁negotiations	-7620
▁overwhelming	-7621
▁technosphere	-7622
httpswwwmarket	-7623
itchutecomvide	-7624
newcoronavirus	-7625
pfizervacciner	-7626
financeyahoocom	-7627
ologicalproducts	-7628
aq	-7629
bq	-7630
cs	-7631
di	-7632
dw	-7633
hi	-7634
hp	-7635
kx	-7636
lq	-7637
mj	-7638
oe	-7639
pg	-7640
qe	-7641
sn	-7642
sy	-7643
wp	-7644
zl	-7645
zu	-7646
▁3	-7647
aac	-7648
aal	-7649
afc	-7650
aja	-7651
bes	-7652
bux	-7653
bye	-7654
chr	-7655
dip	-7656
eca	-7657
erd	-7658
fab	-7659
fec	-7660
hav	-7661
hed	-7662
hfy	-7663
hus	-7664
kkk	-7665
lll	-7666
low	-7667
nic	-7668
oes	-7669
pip	-7670
pty	-7671
rix	-7672
una	-7673
usp	-7674
utt	-7675
▁eh	-7676
▁qs	-7677
▁tn	-7678
ador	-7679
ager	-7680
aily	-7681
bill	-7682
case	-7683
eman	-7684
fauc	-7685
fdas	-7686
fers	-7687
fors	-7688
gggg	-7689
heal	-7690
heim	-7691
iews	-7692
ifer	-7693
infe	-7694
inst	-7695
inuk	-7696
inus	-7697
miss	-7698
mits	-7699
name	-7700
olve	-7701
opet	-7702
rell	-7703
safe	-7704
type	-7705
umab	-7706
urch	-7707
were	-7708
yyyy	-7709
▁acb	-7710
▁ahh	-7711
▁art	-7712
▁clu	-7713
▁dot	-7714
▁dut	-7715
▁fan	-7716
▁fit	-7717
▁gal	-7718
▁gig	-7719
▁jam	-7720
▁meg	-7721
▁ooo	-7722
▁otc	-7723
▁pad	-7724
▁pap	-7725
▁pct	-7726
▁pep	-7727
▁pet	-7728
▁ppe	-7729
▁pts	-7730
▁ron	-7731
▁tbh	-7732
▁vbi	-7733
▁von	-7734
▁wat	-7735
▁wol	-7736
▁woo	-7737
accep	-7738
canad	-7739
chain	-7740
icing	-7741
lined	-7742
local	-7743
ocial	-7744
odays	-7745
ories	-7746
orses	-7747
orted	-7748
rency	-7749
stery	-7750
ugues	-7751
uming	-7752
uster	-7753
▁boll	-7754
▁bomb	-7755
▁boot	-7756
▁camp	-7757
▁chem	-7758
▁coal	-7759
▁core	-7760
▁craw	-7761
▁dems	-7762
▁dice	-7763
▁duch	-7764
▁earn	-7765
▁feet	-7766
▁hong	-7767
▁hous	-7768
▁hung	-7769
▁husb	-7770
▁itrm	-7771
▁jeez	-7772
▁lazy	-7773
▁leap	-7774
▁milk	-7775
▁phil	-7776
▁sequ	-7777
▁shor	-7778
▁sigh	-7779
▁subk	-7780
▁surr	-7781
▁tail	-7782
▁that	-7783
around	-7784
cinoma	-7785
deaths	-7786
ermect	-7787
friday	-7788
future	-7789
husias	-7790
invent	-7791
ivable	-7792
latest	-7793
ormous	-7794
orting	-7795
vement	-7796
▁activ	-7797
▁admin	-7798
▁again	-7799
▁angry	-7800
▁aprov	-7801
▁asian	-7802
▁basic	-7803
▁beast	-7804
▁bonus	-7805
▁cohen	-7806
▁dates	-7807
▁faces	-7808
▁field	-7809
▁fking	-7810
▁frame	-7811
▁genet	-7812
▁glass	-7813
▁johns	-7814
▁judge	-7815
▁kodak	-7816
▁mitch	-7817
▁mixed	-7818
▁naked	-7819
▁noobs	-7820
▁pussy	-7821
▁quota	-7822
▁reput	-7823
▁sahin	-7824
▁seven	-7825
▁shitt	-7826
▁steam	-7827
▁stone	-7828
▁upper	-7829
britain	-7830
connell	-7831
idinpfe	-7832
patient	-7833
thelial	-7834
uations	-7835
▁aliens	-7836
▁amarin	-7837
▁apples	-7838
▁babies	-7839
▁butter	-7840
▁conven	-7841
▁crimes	-7842
▁doomed	-7843
▁glitch	-7844
▁leaked	-7845
▁medium	-7846
▁murder	-7847
▁online	-7848
▁payout	-7849
▁pocket	-7850
▁prolly	-7851
▁reacts	-7852
▁remove	-7853
▁robust	-7854
▁statin	-7855
▁wasted	-7856
▁wtffff	-7857
acomnews	-7858
atically	-7859
contract	-7860
immunity	-7861
indiacom	-7862
rightnow	-7863
▁aggress	-7864
▁belongs	-7865
▁consequ	-7866
▁continu	-7867
▁cooling	-7868
▁creates	-7869
▁feeding	-7870
▁focused	-7871
▁hottest	-7872
▁inverse	-7873
▁journey	-7874
▁justice	-7875
▁meadows	-7876
▁michael	-7877
▁noticed	-7878
▁october	-7879
▁removed	-7880
▁stating	-7881
▁station	-7882
▁stocktw	-7883
▁touched	-7884
▁vatican	-7885
▁vedanta	-7886
▁volumes	-7887
▁whereas	-7888
▁whining	-7889
usmarkets	-7890
▁annually	-7891
▁asymptom	-7892
▁awaiting	-7893
▁blocking	-7894
▁candlest	-7895
▁clueless	-7896
▁confirms	-7897
▁crossing	-7898
▁detected	-7899
▁dragging	-7900
▁enormous	-7901
▁enrolled	-7902
▁exchange	-7903
▁function	-7904
▁goodness	-7905
▁imaginab	-7906
▁indicate	-7907
▁irration	-7908
▁lorbrena	-7909
▁maintain	-7910
▁meantime	-7911
▁monsanto	-7912
▁reliable	-7913
▁sleeping	-7914
▁stopping	-7915
▁survival	-7916
▁takeover	-7917
▁vehicles	-7918
employment	-7919
government	-7920
idappshare	-7921
volunteers	-7922
worldcovid	-7923
▁clinicals	-7924
▁computers	-7925
▁indicated	-7926
▁invention	-7927
▁latestage	-7928
▁messenger	-7929
▁ownership	-7930
▁reduction	-7931
▁reviewing	-7932
▁shoulders	-7933
▁sinopharm	-7934
▁solutions	-7935
▁trillions	-7936
▁typically	-7937
▁warehouse	-7938
eproduction	-7939
filterioadd	-7940
▁advantages	-7941
▁anaplastic	-7942
▁announcing	-7943
▁attractive	-7944
▁crizotinib	-7945
▁executives	-7946
▁indication	-7947
▁initiative	-7948
▁innovation	-7949
▁inoculated	-7950
aftergetting	-7951
▁approaching	-7952
▁designation	-7953
▁expirations	-7954
▁httpswwwnbc	-7955
▁httpswwwnpr	-7956
▁necessarily	-7957
▁resignation	-7958
bharatbiotech	-7959
covidvaccinet	-7960
▁asymptomatic	-7961
▁demonstrated	-7962
▁httpswwwcnbc	-7963
▁transporting	-7964
beatcomratings	-7965
pfizervaccined	-7966
stocksequities	-7967
▁worldbreaking	-7968
ffectiveagainst	-7969
▁httpsabcnewsgo	-7970
enewswirecomnews	-7971
newleadershipnow	-7972
gh	-7973
kr	-7974
oa	-7975
pn	-7976
uz	-7977
vw	-7978
vx	-7979
wr	-7980
wt	-7981
xo	-7982
ya	-7983
adc	-7984
car	-7985
chy	-7986
ctv	-7987
dos	-7988
ecd	-7989
emi	-7990
fae	-7991
fbb	-7992
fdc	-7993
gow	-7994
haw	-7995
hub	-7996
jaz	-7997
kqt	-7998
nmt	-7999
nnn	-8000
pmc	-8001
rna	-8002
rpk	-8003
see	-8004
sem	-8005
slf	-8006
tcf	-8007
utr	-8008
wtf	-8009
▁bp	-8010
▁eg	-8011
▁ig	-8012
▁mg	-8013
▁tp	-8014
▁um	-8015
alog	-8016
bxaw	-8017
dipq	-8018
eday	-8019
eres	-8020
exas	-8021
fire	-8022
full	-8023
give	-8024
grow	-8025
hare	-8026
hips	-8027
hope	-8028
incl	-8029
inos	-8030
iors	-8031
iral	-8032
ivil	-8033
lock	-8034
nurs	-8035
ofac	-8036
onge	-8037
only	-8038
oost	-8039
orin	-8040
orse	-8041
risk	-8042
scom	-8043
utal	-8044
zmul	-8045
▁ash	-8046
▁ate	-8047
▁bbc	-8048
▁eau	-8049
▁enh	-8050
▁era	-8051
▁fif	-8052
▁gtf	-8053
▁oce	-8054
▁pit	-8055
▁ric	-8056
▁rlf	-8057
▁sea	-8058
▁sex	-8059
▁ttm	-8060
▁una	-8061
▁vib	-8062
aches	-8063
aggot	-8064
aints	-8065
apeut	-8066
atuss	-8067
count	-8068
duced	-8069
field	-8070
funds	-8071
gates	-8072
grace	-8073
holes	-8074
icker	-8075
iking	-8076
inthe	-8077
itcom	-8078
liers	-8079
moves	-8080
qptxp	-8081
rpkgz	-8082
scrip	-8083
trial	-8084
uding	-8085
warns	-8086
▁bond	-8087
▁celz	-8088
▁chas	-8089
▁conc	-8090
▁covd	-8091
▁damm	-8092
▁eggs	-8093
▁gevo	-8094
▁here	-8095
▁incs	-8096
▁ipoc	-8097
▁leak	-8098
▁lean	-8099
▁legs	-8100
▁mans	-8101
▁paul	-8102
▁pent	-8103
▁pfep	-8104
▁ponz	-8105
▁prec	-8106
▁pret	-8107
▁rent	-8108
▁rose	-8109
▁samp	-8110
▁tnxp	-8111
▁toll	-8112
▁tort	-8113
cdynam	-8114
eadily	-8115
econom	-8116
europe	-8117
giving	-8118
herald	-8119
howcms	-8120
indian	-8121
itycom	-8122
magorg	-8123
master	-8124
minder	-8125
negoti	-8126
pspeed	-8127
relief	-8128
▁alarm	-8129
▁autom	-8130
▁blows	-8131
▁camer	-8132
▁canna	-8133
▁capit	-8134
▁cliff	-8135
▁cloud	-8136
▁cmcsa	-8137
▁coord	-8138
▁cured	-8139
▁dubai	-8140
▁fresh	-8141
▁gents	-8142
▁georg	-8143
▁googl	-8144
▁inhal	-8145
▁items	-8146
▁knife	-8147
▁loses	-8148
▁muted	-8149
▁noted	-8150
▁pound	-8151
▁quant	-8152
▁quote	-8153
▁rolls	-8154
▁serum	-8155
▁shant	-8156
▁sharp	-8157
▁sheet	-8158
▁shell	-8159
▁spect	-8160
▁stair	-8161
▁stole	-8162
▁toast	-8163
▁toler	-8164
▁units	-8165
▁viral	-8166
biggest	-8167
biontec	-8168
ceptive	-8169
hfyzmul	-8170
husiasm	-8171
limited	-8172
ongress	-8173
results	-8174
tdqptxp	-8175
timesof	-8176
umption	-8177
▁amanda	-8178
▁basket	-8179
▁crappy	-8180
▁delist	-8181
▁discip	-8182
▁doubts	-8183
▁driven	-8184
▁elimin	-8185
▁enters	-8186
▁exceed	-8187
▁fellas	-8188
▁finger	-8189
▁formed	-8190
▁france	-8191
▁french	-8192
▁frozen	-8193
▁genius	-8194
▁haters	-8195
▁indias	-8196
▁irrele	-8197
▁motley	-8198
▁norweg	-8199
▁ocugen	-8200
▁powers	-8201
▁saline	-8202
▁sarept	-8203
▁seller	-8204
▁talked	-8205
▁termin	-8206
▁thesis	-8207
▁vacine	-8208
▁versus	-8209
avaccine	-8210
ermectin	-8211
fficient	-8212
politics	-8213
receives	-8214
▁abstain	-8215
▁achieve	-8216
▁attempt	-8217
▁awarded	-8218
▁bashers	-8219
▁begging	-8220
▁boomers	-8221
▁centers	-8222
▁depends	-8223
▁dumbass	-8224
▁efficac	-8225
▁elicits	-8226
▁endless	-8227
▁forcing	-8228
▁founded	-8229
▁fuckers	-8230
▁genetic	-8231
▁hahahah	-8232
▁helpful	-8233
▁horizon	-8234
▁husband	-8235
▁jabroni	-8236
▁parents	-8237
▁pharmas	-8238
▁proving	-8239
▁regimen	-8240
▁settles	-8241
▁snowden	-8242
▁tactics	-8243
▁underst	-8244
▁warming	-8245
biontecht	-8246
ecipients	-8247
googlecom	-8248
identally	-8249
potential	-8250
regulator	-8251
rpkgzdipq	-8252
utmsource	-8253
▁assholes	-8254
▁biotechs	-8255
▁blessing	-8256
▁branding	-8257
▁clearing	-8258
▁delivers	-8259
▁deployed	-8260
▁disgrace	-8261
▁document	-8262
▁duchenne	-8263
▁endpoint	-8264
▁feelings	-8265
▁homeless	-8266
▁homework	-8267
▁httpsmob	-8268
▁material	-8269
▁measures	-8270
▁outbreak	-8271
▁pricedin	-8272
▁reinvest	-8273
▁reminder	-8274
▁someones	-8275
▁steadily	-8276
▁straddle	-8277
▁supports	-8278
▁throwing	-8279
▁timeline	-8280
▁trashing	-8281
▁weakness	-8282
antibodies	-8283
bellspalsy	-8284
comamphtml	-8285
ideeffects	-8286
tdqptxpkqt	-8287
vaccinated	-8288
▁bollinger	-8289
▁clearance	-8290
▁confusion	-8291
▁drugmaker	-8292
▁essential	-8293
▁gradually	-8294
▁httpswwwf	-8295
▁httpswwwl	-8296
▁hydroxych	-8297
▁massively	-8298
▁preparing	-8299
▁presented	-8300
▁purchases	-8301
▁stuffless	-8302
▁suppliers	-8303
▁timeframe	-8304
activestock	-8305
compolitics	-8306
dieinnorway	-8307
hfyzmulbxaw	-8308
▁accomplish	-8309
▁assessment	-8310
▁bagholders	-8311
▁deficiency	-8312
▁depressing	-8313
▁downgrades	-8314
▁drugmakers	-8315
▁electronic	-8316
▁irrelevant	-8317
▁ivermectin	-8318
▁medication	-8319
▁nationwide	-8320
▁perceptive	-8321
▁predicting	-8322
▁purchasing	-8323
▁reportedly	-8324
vaccinations	-8325
▁candlestick	-8326
▁challenging	-8327
▁fundamental	-8328
▁goooooooooo	-8329
▁publication	-8330
▁shareholder	-8331
▁skyrocketed	-8332
▁httpswwwglob	-8333
▁specifically	-8334
articleshowcms	-8335
iprankscomnews	-8336
▁httpswwwmacro	-8337
▁revolutionary	-8338
▁infrastructure	-8339
aytradercomstock	-8340
▁recommendations	-8341
bn	-8342
bt	-8343
hm	-8344
hu	-8345
jl	-8346
jm	-8347
kz	-8348
pi	-8349
qk	-8350
xc	-8351
yn	-8352
zs	-8353
▁4	-8354
aca	-8355
acb	-8356
acd	-8357
aft	-8358
ahu	-8359
aid	-8360
bag	-8361
bal	-8362
ban	-8363
bfe	-8364
dae	-8365
dat	-8366
dnt	-8367
edf	-8368
ely	-8369
ema	-8370
ett	-8371
fce	-8372
ffb	-8373
gue	-8374
hoo	-8375
hqn	-8376
iii	-8377
iro	-8378
jam	-8379
lun	-8380
odo	-8381
onn	-8382
osi	-8383
owl	-8384
ser	-8385
sub	-8386
tot	-8387
urt	-8388
vmt	-8389
yen	-8390
▁bm	-8391
▁ss	-8392
▁sv	-8393
▁vr	-8394
▁xt	-8395
adas	-8396
anax	-8397
best	-8398
ceos	-8399
cers	-8400
chil	-8401
defe	-8402
doct	-8403
eart	-8404
eeks	-8405
fold	-8406
fvii	-8407
gory	-8408
gozz	-8409
ibly	-8410
iled	-8411
imme	-8412
inct	-8413
ique	-8414
ithk	-8415
itty	-8416
laws	-8417
mann	-8418
ming	-8419
mmmm	-8420
newt	-8421
pass	-8422
scan	-8423
seps	-8424
slfx	-8425
spos	-8426
tcol	-8427
test	-8428
that	-8429
them	-8430
▁abo	-8431
▁ads	-8432
▁bby	-8433
▁coc	-8434
▁cos	-8435
▁dad	-8436
▁dat	-8437
▁fee	-8438
▁hib	-8439
▁lem	-8440
▁maf	-8441
▁mfs	-8442
▁mkt	-8443
▁mud	-8444
▁nic	-8445
▁opp	-8446
▁oxy	-8447
▁ree	-8448
▁san	-8449
▁sir	-8450
▁twe	-8451
▁uro	-8452
▁vgk	-8453
▁web	-8454
about	-8455
andro	-8456
axosm	-8457
bourl	-8458
butus	-8459
chang	-8460
compl	-8461
comwd	-8462
econd	-8463
elves	-8464
ethat	-8465
evant	-8466
every	-8467
force	-8468
hould	-8469
icked	-8470
ierce	-8471
iestw	-8472
indic	-8473
liest	-8474
lunfi	-8475
nurse	-8476
offic	-8477
omaly	-8478
oston	-8479
phpid	-8480
ports	-8481
posts	-8482
price	-8483
rades	-8484
rance	-8485
shtml	-8486
today	-8487
tterm	-8488
uable	-8489
uador	-8490
ulner	-8491
veenk	-8492
▁anpc	-8493
▁bcda	-8494
▁bios	-8495
▁born	-8496
▁cath	-8497
▁clar	-8498
▁derm	-8499
▁enjo	-8500
▁euro	-8501
▁fked	-8502
▁flex	-8503
▁fuel	-8504
▁fulf	-8505
▁harm	-8506
▁hehe	-8507
▁hide	-8508
▁miti	-8509
▁mofo	-8510
▁mong	-8511
▁negl	-8512
▁phar	-8513
▁plas	-8514
▁plun	-8515
▁pypl	-8516
▁ring	-8517
▁rips	-8518
▁rofl	-8519
▁sbux	-8520
▁sets	-8521
▁slam	-8522
▁sngx	-8523
▁sooo	-8524
▁span	-8525
▁stom	-8526
▁task	-8527
▁them	-8528
▁ttcf	-8529
▁tumb	-8530
▁vamp	-8531
▁weed	-8532
▁welp	-8533
▁yell	-8534
atitis	-8535
axslfx	-8536
events	-8537
gowins	-8538
homeen	-8539
houses	-8540
igning	-8541
infect	-8542
loaded	-8543
output	-8544
person	-8545
record	-8546
severe	-8547
tility	-8548
trials	-8549
▁amend	-8550
▁cough	-8551
▁dance	-8552
▁drain	-8553
▁fails	-8554
▁fears	-8555
▁firms	-8556
▁forth	-8557
▁forum	-8558
▁fukin	-8559
▁gimme	-8560
▁hella	-8561
▁hesit	-8562
▁juice	-8563
▁leyen	-8564
▁links	-8565
▁lived	-8566
▁louis	-8567
▁loved	-8568
▁marks	-8569
▁maxim	-8570
▁mercy	-8571
▁mexic	-8572
▁mortg	-8573
▁motiv	-8574
▁mouse	-8575
▁pleas	-8576
▁ponzi	-8577
▁posit	-8578
▁prize	-8579
▁quotm	-8580
▁recip	-8581
▁rlftf	-8582
▁serve	-8583
▁shape	-8584
▁shout	-8585
▁soars	-8586
▁spamm	-8587
▁spell	-8588
▁stall	-8589
▁stonk	-8590
▁sweat	-8591
▁teams	-8592
▁ultra	-8593
▁vitro	-8594
▁wedge	-8595
▁xanax	-8596
achment	-8597
america	-8598
avaccin	-8599
buffett	-8600
cnbccom	-8601
ecember	-8602
fviiaty	-8603
iencing	-8604
irectly	-8605
license	-8606
looking	-8607
newsmax	-8608
oclonal	-8609
ologies	-8610
ovaccin	-8611
rolling	-8612
rrrrrrr	-8613
ruction	-8614
tcolumn	-8615
▁absurd	-8616
▁advise	-8617
▁beside	-8618
▁boomer	-8619
▁bottle	-8620
▁brutal	-8621
▁crisis	-8622
▁curing	-8623
▁damnit	-8624
▁degree	-8625
▁escape	-8626
▁explod	-8627
▁fairly	-8628
▁famous	-8629
▁hiding	-8630
▁horses	-8631
▁hungry	-8632
▁matrix	-8633
▁mining	-8634
▁movers	-8635
▁mutate	-8636
▁newbie	-8637
▁obtain	-8638
▁overly	-8639
▁payday	-8640
▁peanut	-8641
▁perpet	-8642
▁policy	-8643
▁quotif	-8644
▁quotth	-8645
▁replac	-8646
▁repost	-8647
▁senior	-8648
▁series	-8649
▁teslas	-8650
▁tunnel	-8651
▁values	-8652
▁visual	-8653
▁webull	-8654
authoriz	-8655
clinical	-8656
collabor	-8657
historic	-8658
iduskbnj	-8659
ordinary	-8660
otcdynam	-8661
▁advised	-8662
▁airline	-8663
▁alerted	-8664
▁applied	-8665
▁arbutus	-8666
▁arrived	-8667
▁blessed	-8668
▁capable	-8669
▁carrier	-8670
▁couldve	-8671
▁devices	-8672
▁hackers	-8673
▁httpsed	-8674
▁improve	-8675
▁invests	-8676
▁israeli	-8677
▁locally	-8678
▁loosing	-8679
▁offered	-8680
▁parking	-8681
▁pathway	-8682
▁pointed	-8683
▁procure	-8684
▁quotbuy	-8685
▁reenter	-8686
▁ripping	-8687
▁scratch	-8688
▁seeking	-8689
▁smarter	-8690
▁soaring	-8691
▁thieves	-8692
▁volunte	-8693
▁wishing	-8694
▁wording	-8695
axosmithk	-8696
bloomberg	-8697
filterpfe	-8698
gozzlunfi	-8699
idespread	-8700
pharmacom	-8701
portugues	-8702
veenkofac	-8703
walgreens	-8704
▁antivaxx	-8705
▁cannabis	-8706
▁channels	-8707
▁comeback	-8708
▁decrease	-8709
▁emerging	-8710
▁exposure	-8711
▁friendly	-8712
▁genevant	-8713
▁insights	-8714
▁listened	-8715
▁machines	-8716
▁pentagon	-8717
▁pharmacy	-8718
▁playbook	-8719
▁produces	-8720
▁prospect	-8721
▁rotation	-8722
▁shocking	-8723
▁subjects	-8724
▁swinging	-8725
▁traction	-8726
▁undercut	-8727
california	-8728
hqnfviiaty	-8729
iestwodays	-8730
technology	-8731
wallstreet	-8732
▁biologics	-8733
▁breakfast	-8734
▁carcinoma	-8735
▁definetly	-8736
▁developer	-8737
▁efficient	-8738
▁electoral	-8739
▁exclusive	-8740
▁explained	-8741
▁formation	-8742
▁immunopet	-8743
▁impressed	-8744
▁instantly	-8745
▁mandatory	-8746
▁movements	-8747
▁partnered	-8748
▁physician	-8749
▁protected	-8750
▁remaining	-8751
▁shortterm	-8752
▁streaming	-8753
▁targeting	-8754
approvedfda	-8755
facebookcom	-8756
filterioaab	-8757
gowinscomwd	-8758
negotiating	-8759
orgsections	-8760
screenercom	-8761
▁accelerate	-8762
▁convention	-8763
▁discounted	-8764
▁distancing	-8765
▁enthusiasm	-8766
▁experiment	-8767
▁foundation	-8768
▁hedgefunds	-8769
▁irrational	-8770
▁magnifying	-8771
▁overweight	-8772
▁positioned	-8773
▁protecting	-8774
▁suspicious	-8775
▁urothelial	-8776
announcement	-8777
ciencemagorg	-8778
reasonstobuy	-8779
▁coincidence	-8780
▁differently	-8781
▁ineffective	-8782
▁researchers	-8783
▁restaurants	-8784
▁retracement	-8785
▁substantial	-8786
forbellspalsy	-8787
vaccineappear	-8788
▁astrazenecas	-8789
▁overreaction	-8790
administration	-8791
covidvaccinede	-8792
epfizervaccine	-8793
liveworldcovid	-8794
otcdynamicscom	-8795
reetinsidercom	-8796
vaccinerollout	-8797
▁authorisation	-8798
▁professionals	-8799
▁substantially	-8800
comampinvesting	-8801
stocksequitycom	-8802
▁httpswwwnasdaq	-8803
coronaviruscovid	-8804
ofpfizerbiontech	-8805
tcolumnfilterpfe	-8806
▁httpswwwbarrons	-8807
▁stockbeepcomdnt	-8808
21	-8809
cv	-8810
ey	-8811
ju	-8812
jx	-8813
lu	-8814
mc	-8815
nl	-8816
oj	-8817
uf	-8818
vt	-8819
xm	-8820
zd	-8821
▁%	-8822
aeb	-8823
arc	-8824
bah	-8825
clh	-8826
col	-8827
dna	-8828
dog	-8829
dry	-8830
ecb	-8831
edd	-8832
egr	-8833
eno	-8834
guy	-8835
hem	-8836
icc	-8837
icy	-8838
idd	-8839
idy	-8840
iit	-8841
ina	-8842
inf	-8843
iyy	-8844
jin	-8845
ker	-8846
kin	-8847
lmx	-8848
moa	-8849
noc	-8850
oly	-8851
par	-8852
pdf	-8853
pes	-8854
sav	-8855
sed	-8856
sex	-8857
sey	-8858
tin	-8859
ttt	-8860
wan	-8861
▁dc	-8862
▁hh	-8863
▁os	-8864
▁pc	-8865
▁ry	-8866
▁sq	-8867
▁tc	-8868
aker	-8869
alls	-8870
andd	-8871
answ	-8872
avir	-8873
cold	-8874
comb	-8875
comn	-8876
dest	-8877
dose	-8878
ecal	-8879
ecan	-8880
eles	-8881
enny	-8882
epre	-8883
gczk	-8884
inok	-8885
jour	-8886
jzym	-8887
kncy	-8888
meal	-8889
newy	-8890
nnys	-8891
omen	-8892
oned	-8893
ooks	-8894
oppy	-8895
prem	-8896
puts	-8897
qwbc	-8898
rect	-8899
semv	-8900
shit	-8901
stof	-8902
stow	-8903
ther	-8904
tons	-8905
uhan	-8906
uset	-8907
uvcm	-8908
your	-8909
▁ada	-8910
▁aid	-8911
▁anx	-8912
▁asc	-8913
▁eli	-8914
▁hid	-8915
▁hub	-8916
▁lfg	-8917
▁lin	-8918
▁meh	-8919
▁plz	-8920
▁pst	-8921
▁raw	-8922
▁ssr	-8923
▁ted	-8924
▁tit	-8925
▁umm	-8926
▁uns	-8927
▁utc	-8928
▁uth	-8929
▁ytd	-8930
agram	-8931
ahaha	-8932
ajaja	-8933
aming	-8934
andem	-8935
aysia	-8936
bodys	-8937
cbelm	-8938
child	-8939
comes	-8940
comzm	-8941
craft	-8942
dable	-8943
echan	-8944
esign	-8945
found	-8946
going	-8947
haust	-8948
iamid	-8949
iaorg	-8950
ights	-8951
iktok	-8952
inent	-8953
iyyic	-8954
jfnmt	-8955
lmxwq	-8956
onacc	-8957
onses	-8958
ooked	-8959
orece	-8960
oscow	-8961
otted	-8962
ource	-8963
owing	-8964
ruple	-8965
style	-8966
ubble	-8967
value	-8968
which	-8969
xqzum	-8970
years	-8971
▁aged	-8972
▁aids	-8973
▁albe	-8974
▁blew	-8975
▁btnx	-8976
▁cmps	-8977
▁coin	-8978
▁deck	-8979
▁deny	-8980
▁dime	-8981
▁ears	-8982
▁ease	-8983
▁epix	-8984
▁exam	-8985
▁fint	-8986
▁gate	-8987
▁guyz	-8988
▁harr	-8989
▁idex	-8990
▁ital	-8991
▁meat	-8992
▁mini	-8993
▁nclh	-8994
▁pace	-8995
▁papa	-8996
▁phot	-8997
▁pony	-8998
▁porn	-8999
▁rang	-9000
▁rash	-9001
▁rely	-9002
▁sist	-9003
▁sket	-9004
▁stro	-9005
▁sued	-9006
▁thcb	-9007
▁thor	-9008
▁thro	-9009
▁tlgt	-9010
▁tune	-9011
▁viri	-9012
▁west	-9013
▁woah	-9014
agency	-9015
ampamp	-9016
christ	-9017
earing	-9018
enchil	-9019
enever	-9020
gotten	-9021
icated	-9022
iously	-9023
ipment	-9024
ippers	-9025
istent	-9026
jazeer	-9027
kshire	-9028
monday	-9029
nation	-9030
perday	-9031
prnews	-9032
profit	-9033
target	-9034
update	-9035
veinok	-9036
veqwbc	-9037
vision	-9038
worthy	-9039
▁acted	-9040
▁algae	-9041
▁amgen	-9042
▁beach	-9043
▁beats	-9044
▁birds	-9045
▁celeb	-9046
▁civil	-9047
▁delta	-9048
▁downs	-9049
▁drunk	-9050
▁fosun	-9051
▁grail	-9052
▁guard	-9053
▁input	-9054
▁james	-9055
▁latin	-9056
▁lkncy	-9057
▁monop	-9058
▁newsp	-9059
▁notes	-9060
▁picks	-9061
▁quotf	-9062
▁radar	-9063
▁reass	-9064
▁recon	-9065
▁regre	-9066
▁shelf	-9067
▁skill	-9068
▁stamp	-9069
▁tryna	-9070
▁whore	-9071
account	-9072
atients	-9073
axiscom	-9074
erhttps	-9075
fficacy	-9076
holding	-9077
illance	-9078
january	-9079
opening	-9080
osupply	-9081
positiv	-9082
program	-9083
stephen	-9084
traders	-9085
typeamp	-9086
▁blockb	-9087
▁circle	-9088
▁clinic	-9089
▁crypto	-9090
▁dipped	-9091
▁etrade	-9092
▁exited	-9093
▁fucjin	-9094
▁gtgtgt	-9095
▁helped	-9096
▁hibern	-9097
▁hurdle	-9098
▁inquot	-9099
▁learnt	-9100
▁multip	-9101
▁muscle	-9102
▁paving	-9103
▁pelosi	-9104
▁perman	-9105
▁piling	-9106
▁poised	-9107
▁proced	-9108
▁propos	-9109
▁quotno	-9110
▁remote	-9111
▁richer	-9112
▁silent	-9113
▁smoked	-9114
▁stimul	-9115
▁stockp	-9116
▁stores	-9117
▁subsid	-9118
▁ticket	-9119
▁transp	-9120
▁vulner	-9121
campaign	-9122
cbelmont	-9123
ctvnewsc	-9124
ervation	-9125
gczkjzym	-9126
ingapore	-9127
otherapy	-9128
partners	-9129
stowatch	-9130
svaccine	-9131
vmtiktok	-9132
▁assured	-9133
▁bahrain	-9134
▁benefic	-9135
▁booming	-9136
▁caution	-9137
▁charles	-9138
▁cheaply	-9139
▁claimed	-9140
▁comming	-9141
▁counter	-9142
▁digital	-9143
▁enhance	-9144
▁equival	-9145
▁exclude	-9146
▁exhaust	-9147
▁foresee	-9148
▁formula	-9149
▁goodbye	-9150
▁ibrance	-9151
▁infring	-9152
▁instill	-9153
▁italian	-9154
▁johnnys	-9155
▁lmaoooo	-9156
▁lololol	-9157
▁longest	-9158
▁matches	-9159
▁measure	-9160
▁mutated	-9161
▁mystery	-9162
▁passing	-9163
▁promote	-9164
▁ratings	-9165
▁reentry	-9166
▁royalty	-9167
▁section	-9168
▁tweeted	-9169
▁wealthy	-9170
▁weather	-9171
▁writers	-9172
articless	-9173
ecomwatch	-9174
infection	-9175
movesinth	-9176
oxfordast	-9177
reactions	-9178
spreading	-9179
statement	-9180
whitehous	-9181
▁achieved	-9182
▁affected	-9183
▁antibiot	-9184
▁assuming	-9185
▁attached	-9186
▁bastards	-9187
▁bitching	-9188
▁customer	-9189
▁declares	-9190
▁democrat	-9191
▁disorder	-9192
▁evaluate	-9193
▁expanded	-9194
▁families	-9195
▁gottlieb	-9196
▁grabbing	-9197
▁incorpor	-9198
▁jobsmeal	-9199
▁landmark	-9200
▁malaysia	-9201
▁matching	-9202
▁messages	-9203
▁milliona	-9204
▁neighbor	-9205
▁presents	-9206
▁programs	-9207
▁quotthis	-9208
▁realtime	-9209
▁reducing	-9210
▁repeated	-9211
▁revealed	-9212
▁separate	-9213
▁shooting	-9214
▁strongly	-9215
▁supplier	-9216
▁targeted	-9217
▁textbook	-9218
▁thestock	-9219
▁underest	-9220
▁witching	-9221
▁yessssss	-9222
enchiladas	-9223
icocomnews	-9224
jfnmtiyyic	-9225
thebiggest	-9226
veinokuvcm	-9227
veqwbcsemv	-9228
xqzumlmxwq	-9229
▁bioinvent	-9230
▁concluded	-9231
▁conducted	-9232
▁confusing	-9233
▁customers	-9234
▁diligence	-9235
▁documents	-9236
▁education	-9237
▁elections	-9238
▁equipment	-9239
▁exception	-9240
▁explosive	-9241
▁extensive	-9242
▁frequency	-9243
▁highlight	-9244
▁inoculate	-9245
▁laughable	-9246
▁molecular	-9247
▁occurring	-9248
▁oxfordast	-9249
▁plandemic	-9250
▁protocols	-9251
▁publicity	-9252
▁quadruple	-9253
▁requested	-9254
▁responses	-9255
▁squeezing	-9256
▁surprises	-9257
▁suspected	-9258
filterioadb	-9259
stockmarket	-9260
▁background	-9261
▁calculated	-9262
▁determined	-9263
▁discussing	-9264
▁frustrated	-9265
▁generating	-9266
▁incredibly	-9267
▁longacting	-9268
▁nasdaqbntx	-9269
▁prevention	-9270
▁remarkable	-9271
▁reposition	-9272
▁somethings	-9273
▁supporters	-9274
axslfxdocxml	-9275
▁accountable	-9276
▁achievement	-9277
▁advertising	-9278
▁alternative	-9279
▁complicated	-9280
▁efficacious	-9281
▁essentially	-9282
▁httpsthefly	-9283
▁httpswwwfin	-9284
▁intelligent	-9285
▁sideeffects	-9286
▁slaughtered	-9287
▁subscribers	-9288
axiscominvest	-9289
axosmithkline	-9290
comnewshealth	-9291
covidvaccinee	-9292
flashalertmes	-9293
outputtypeamp	-9294
scovidvaccine	-9295
vaccinereport	-9296
vmtiktokcomzm	-9297
▁acceleration	-9298
▁availability	-9299
▁capabilities	-9300
▁consistently	-9301
▁conventional	-9302
▁developments	-9303
▁experiencing	-9304
▁httpsedition	-9305
▁httpsmobilet	-9306
▁motherfucker	-9307
▁partnerships	-9308
▁refrigerated	-9309
▁ridiculously	-9310
▁spokesperson	-9311
▁surprisingly	-9312
approvespfizer	-9313
covidvaccineus	-9314
iercepharmacom	-9315
releasedetails	-9316
cbelmontcapital	-9317
▁httpsinvestors	-9318
▁jobsmealperday	-9319
oxfordastrazenec	-9320
fj	-9321
gq	-9322
hd	-9323
hn	-9324
jn	-9325
lr	-9326
pb	-9327
pv	-9328
sl	-9329
ua	-9330
vr	-9331
vv	-9332
zr	-9333
aad	-9334
anh	-9335
asc	-9336
avy	-9337
axy	-9338
bul	-9339
cha	-9340
cil	-9341
cod	-9342
ded	-9343
eas	-9344
ena	-9345
exp	-9346
fcc	-9347
fdb	-9348
fdd	-9349
fra	-9350
iac	-9351
igs	-9352
ijj	-9353
inm	-9354
irn	-9355
iwm	-9356
len	-9357
liv	-9358
mia	-9359
mor	-9360
nbc	-9361
nth	-9362
ofs	-9363
ogr	-9364
pal	-9365
rem	-9366
rim	-9367
stw	-9368
usa	-9369
vey	-9370
web	-9371
yax	-9372
ypt	-9373
▁01	-9374
▁ax	-9375
▁bh	-9376
▁cc	-9377
▁fs	-9378
▁iq	-9379
▁ky	-9380
▁mn	-9381
▁rt	-9382
▁sb	-9383
▁si	-9384
▁vo	-9385
abad	-9386
amaz	-9387
amid	-9388
ampl	-9389
ampr	-9390
athy	-9391
away	-9392
bpac	-9393
cbzl	-9394
cine	-9395
corn	-9396
duch	-9397
enus	-9398
faws	-9399
feel	-9400
fere	-9401
fool	-9402
gold	-9403
heit	-9404
hern	-9405
hort	-9406
host	-9407
iary	-9408
iber	-9409
icky	-9410
icle	-9411
igue	-9412
ilot	-9413
imag	-9414
iser	-9415
kers	-9416
llll	-9417
mass	-9418
ndtv	-9419
nsyl	-9420
obia	-9421
ocks	-9422
olen	-9423
orge	-9424
rate	-9425
reck	-9426
redd	-9427
spec	-9428
suck	-9429
uity	-9430
umed	-9431
uris	-9432
usal	-9433
ween	-9434
zers	-9435
▁atn	-9436
▁aud	-9437
▁bee	-9438
▁bob	-9439
▁bol	-9440
▁btd	-9441
▁ewc	-9442
▁fur	-9443
▁gav	-9444
▁gla	-9445
▁hun	-9446
▁jay	-9447
▁jon	-9448
▁ont	-9449
▁opt	-9450
▁phd	-9451
▁ray	-9452
▁rvv	-9453
▁ske	-9454
▁tik	-9455
▁unm	-9456
▁vix	-9457
▁yah	-9458
▁yaw	-9459
▁zen	-9460
acter	-9461
agger	-9462
among	-9463
antic	-9464
antly	-9465
arian	-9466
being	-9467
ching	-9468
cohol	-9469
comsc	-9470
eared	-9471
early	-9472
ecomm	-9473
elled	-9474
email	-9475
enurs	-9476
ifies	-9477
ightt	-9478
ilead	-9479
immel	-9480
innov	-9481
iwood	-9482
izard	-9483
japan	-9484
octor	-9485
phase	-9486
rated	-9487
uated	-9488
until	-9489
wantt	-9490
weeks	-9491
yaxkx	-9492
zheim	-9493
▁acts	-9494
▁adam	-9495
▁amen	-9496
▁apdn	-9497
▁astc	-9498
▁bids	-9499
▁blnk	-9500
▁club	-9501
▁corp	-9502
▁coun	-9503
▁cous	-9504
▁dial	-9505
▁divi	-9506
▁exos	-9507
▁fits	-9508
▁foot	-9509
▁ford	-9510
▁frig	-9511
▁geez	-9512
▁grif	-9513
▁grub	-9514
▁horr	-9515
▁hyln	-9516
▁isol	-9517
▁jnjs	-9518
▁labu	-9519
▁laid	-9520
▁leng	-9521
▁logo	-9522
▁mart	-9523
▁mode	-9524
▁mvis	-9525
▁nuff	-9526
▁ohio	-9527
▁pipe	-9528
▁raid	-9529
▁ripp	-9530
▁rtrs	-9531
▁ruin	-9532
▁schw	-9533
▁shak	-9534
▁sits	-9535
▁snda	-9536
▁solo	-9537
▁soul	-9538
▁spun	-9539
▁suic	-9540
▁tube	-9541
▁viol	-9542
▁what	-9543
▁whis	-9544
aboutt	-9545
akeven	-9546
alogue	-9547
ateful	-9548
bubble	-9549
common	-9550
corpor	-9551
doctor	-9552
ecmost	-9553
effect	-9554
eneron	-9555
follow	-9556
iggers	-9557
inghom	-9558
irnaty	-9559
istant	-9560
itrade	-9561
newtub	-9562
olving	-9563
onacci	-9564
oocbzl	-9565
ounder	-9566
sentry	-9567
sepsst	-9568
states	-9569
strong	-9570
supply	-9571
taking	-9572
uccess	-9573
uition	-9574
ulture	-9575
wallst	-9576
xpocom	-9577
▁addic	-9578
▁affor	-9579
▁alloc	-9580
▁andre	-9581
▁awake	-9582
▁bayer	-9583
▁bigly	-9584
▁blown	-9585
▁brace	-9586
▁burnt	-9587
▁creep	-9588
▁crook	-9589
▁dated	-9590
▁dense	-9591
▁domin	-9592
▁dudes	-9593
▁dummy	-9594
▁flows	-9595
▁frail	-9596
▁hated	-9597
▁image	-9598
▁inher	-9599
▁intro	-9600
▁kicks	-9601
▁music	-9602
▁mylan	-9603
▁oblig	-9604
▁ocean	-9605
▁orgov	-9606
▁penis	-9607
▁prone	-9608
▁proph	-9609
▁recur	-9610
▁relig	-9611
▁remov	-9612
▁shine	-9613
▁stars	-9614
▁stret	-9615
▁teach	-9616
▁vangu	-9617
▁visit	-9618
botpost	-9619
caution	-9620
comment	-9621
develop	-9622
impress	-9623
iratory	-9624
jection	-9625
nsylvan	-9626
storage	-9627
utinize	-9628
▁aboard	-9629
▁aiming	-9630
▁albeit	-9631
▁arrest	-9632
▁beauty	-9633
▁brexit	-9634
▁bridge	-9635
▁catast	-9636
▁cheese	-9637
▁covers	-9638
▁denial	-9639
▁father	-9640
▁fixing	-9641
▁fortun	-9642
▁funded	-9643
▁gladly	-9644
▁grants	-9645
▁hardly	-9646
▁heaven	-9647
▁herpes	-9648
▁hidden	-9649
▁integr	-9650
▁lights	-9651
▁mechan	-9652
▁midday	-9653
▁occurs	-9654
▁offset	-9655
▁plasma	-9656
▁praise	-9657
▁presid	-9658
▁primed	-9659
▁raises	-9660
▁reiter	-9661
▁reopen	-9662
▁robbed	-9663
▁satisf	-9664
▁shoots	-9665
▁solved	-9666
▁spikes	-9667
▁stonks	-9668
▁strand	-9669
▁strang	-9670
▁streak	-9671
▁surfac	-9672
▁thumbs	-9673
▁timely	-9674
▁turkey	-9675
▁unfold	-9676
--------	-9677
ampnamed	-9678
amprefer	-9679
aneously	-9680
ensation	-9681
ermalink	-9682
minister	-9683
newcovid	-9684
urlhttps	-9685
vaccinec	-9686
vaccinet	-9687
variants	-9688
▁acceler	-9689
▁alexion	-9690
▁anyones	-9691
▁applies	-9692
▁bidding	-9693
▁brokers	-9694
▁bullsht	-9695
▁chicago	-9696
▁chicken	-9697
▁comical	-9698
▁comprom	-9699
▁cooking	-9700
▁crosses	-9701
▁crucial	-9702
▁divided	-9703
▁dragged	-9704
▁encount	-9705
▁equally	-9706
▁existed	-9707
▁flowing	-9708
▁foolish	-9709
▁freakin	-9710
▁gaining	-9711
▁gapping	-9712
▁georgia	-9713
▁manager	-9714
▁margins	-9715
▁messing	-9716
▁minimal	-9717
▁outlets	-9718
▁pfeizer	-9719
▁popcorn	-9720
▁prevail	-9721
▁sarepta	-9722
▁seatbel	-9723
▁shorter	-9724
▁spanish	-9725
▁stomach	-9726
▁summary	-9727
▁takeoff	-9728
▁teasing	-9729
▁tracked	-9730
activated	-9731
adversere	-9732
agreement	-9733
americans	-9734
atnewscom	-9735
boardcomt	-9736
christmas	-9737
ecalendar	-9738
heraldcom	-9739
israelcom	-9740
rollingat	-9741
scription	-9742
stopfizer	-9743
wirestory	-9744
▁agencies	-9745
▁arcturus	-9746
▁arriving	-9747
▁attacked	-9748
▁boosting	-9749
▁calendar	-9750
▁claiming	-9751
▁cocksuck	-9752
▁currency	-9753
▁declared	-9754
▁delaying	-9755
▁divident	-9756
▁doubters	-9757
▁drinking	-9758
▁enjoying	-9759
▁examples	-9760
▁fraction	-9761
▁germanys	-9762
▁knocking	-9763
▁launches	-9764
▁lowering	-9765
▁mortgage	-9766
▁mountain	-9767
▁prepares	-9768
▁provider	-9769
▁purposes	-9770
▁realizes	-9771
▁recorded	-9772
▁redfield	-9773
▁screwing	-9774
▁severely	-9775
▁shopping	-9776
▁stagnant	-9777
▁thankful	-9778
▁theories	-9779
▁thorough	-9780
▁username	-9781
▁whenever	-9782
authorized	-9783
eedecember	-9784
mutationin	-9785
▁acquiring	-9786
▁amendment	-9787
▁backwards	-9788
▁breakeven	-9789
▁comirnaty	-9790
▁declining	-9791
▁dependent	-9792
▁discovery	-9793
▁establish	-9794
▁exploding	-9795
▁favorable	-9796
▁httpsfaws	-9797
▁httpswwwj	-9798
▁httpswwwk	-9799
▁implement	-9800
▁incorrect	-9801
▁inflation	-9802
▁influence	-9803
▁injecting	-9804
▁mcconnell	-9805
▁producers	-9806
▁regeneron	-9807
▁reopening	-9808
▁resistant	-9809
▁specially	-9810
▁stabilize	-9811
▁strategic	-9812
▁stupidity	-9813
▁transmiss	-9814
▁untreated	-9815
▁virtually	-9816
▁witnessed	-9817
ahahahahaha	-9818
amputmsourc	-9819
brandnewtub	-9820
filterioacc	-9821
healthshots	-9822
▁algorithms	-9823
▁anticipate	-9824
▁capitalism	-9825
▁constantly	-9826
▁contracted	-9827
▁douchebags	-9828
▁exdividend	-9829
▁httpoocbzl	-9830
▁httpswwwbi	-9831
▁legitimate	-9832
▁overpriced	-9833
▁pennsylvan	-9834
▁projection	-9835
▁registered	-9836
▁sentiments	-9837
▁supposedly	-9838
▁terminally	-9839
▁thankfully	-9840
▁turnaround	-9841
▁ultimately	-9842
▁underlying	-9843
▁understood	-9844
▁vulnerable	-9845
▁warehouses	-9846
▁widespread	-9847
comnewslocal	-9848
compermalink	-9849
comworldnews	-9850
ecmostactive	-9851
releasesnews	-9852
▁brainwashed	-9853
▁cyberattack	-9854
▁disciplined	-9855
▁encouraging	-9856
▁foreseeable	-9857
▁genetically	-9858
▁httpswwwcnn	-9859
▁immunogenic	-9860
▁infertility	-9861
▁observation	-9862
▁populations	-9863
▁probability	-9864
▁respiratory	-9865
▁stocktwists	-9866
▁symptomatic	-9867
▁temporarily	-9868
collaboration	-9869
couknewsworld	-9870
▁consequences	-9871
▁embarrassing	-9872
▁firstquarter	-9873
▁httpsthehill	-9874
▁httpswwwnews	-9875
▁inoculations	-9876
▁manipulative	-9877
▁professional	-9878
▁questionable	-9879
▁refrigerator	-9880
▁respectively	-9881
▁skyrocketing	-9882
▁surveillance	-9883
▁thanksgiving	-9884
▁underperform	-9885
▁unemployment	-9886
biontechpfizer	-9887
comamphtmlnews	-9888
vaccineupdates	-9889
▁httpsyoutubey	-9890
▁intentionally	-9891
androidappshare	-9892
bubbleboardcomt	-9893
ctvnewscahealth	-9894
sepsstrollingat	-9895
vaccineappearse	-9896
financeyahoocomm	-9897
ooglecomampswwww	-9898
timesofisraelcom	-9899
▁glaxosmithkline	-9900
▁hospitalization	-9901
01	-9902
bk	-9903
dh	-9904
ew	-9905
fz	-9906
jc	-9907
km	-9908
qs	-9909
wv	-9910
xr	-9911
yp	-9912
▁8	-9913
abd	-9914
atr	-9915
beb	-9916
beg	-9917
ben	-9918
cas	-9919
ddb	-9920
det	-9921
dow	-9922
ees	-9923
emb	-9924
fad	-9925
faf	-9926
fox	-9927
hat	-9928
ifg	-9929
iop	-9930
ipt	-9931
isc	-9932
ldr	-9933
lib	-9934
mar	-9935
omy	-9936
opp	-9937
ora	-9938
ppp	-9939
pse	-9940
psh	-9941
rep	-9942
rnk	-9943
soc	-9944
sso	-9945
sta	-9946
trm	-9947
uat	-9948
uge	-9949
urk	-9950
uuu	-9951
yet	-9952
zza	-9953
▁hc	-9954
▁mj	-9955
▁tm	-9956
▁va	-9957
acon	-9958
afin	-9959
alab	-9960
alla	-9961
anch	-9962
anim	-9963
apro	-9964
arys	-9965
bery	-9966
bish	-9967
burg	-9968
card	-9969
ceoh	-9970
eeze	-9971
ende	-9972
flix	-9973
gles	-9974
haha	-9975
hahn	-9976
hang	-9977
icom	-9978
idms	-9979
idus	-9980
igen	-9981
iiii	-9982
inep	-9983
inne	-9984
inov	-9985
intl	-9986
iped	-9987
iran	-9988
joeb	-9989
loat	-9990
mean	-9991
ococ	-9992
outs	-9993
pack	-9994
ppfe	-9995
prep	-9996
rant	-9997
russ	-9998
seud	-9999
ssay	-10000
tect	-10001
tful	-10002
than	-10003
uine	-10004
ural	-10005
usgo	-10006
word	-10007
▁biz	-10008
▁dbx	-10009
▁din	-10010
▁doh	-10011
▁dud	-10012
▁dun	-10013
▁ebs	-10014
▁ers	-10015
▁eur	-10016
▁fet	-10017
▁ffs	-10018
▁fsr	-10019
▁fud	-10020
▁fut	-10021
▁hcq	-10022
▁hds	-10023
▁hem	-10024
▁hug	-10025
▁icu	-10026
▁iwm	-10027
▁jet	-10028
▁jul	-10029
▁jus	-10030
▁kev	-10031
▁lay	-10032
▁lca	-10033
▁moo	-10034
▁nct	-10035
▁nik	-10036
▁pss	-10037
▁rou	-10038
▁sab	-10039
▁sou	-10040
▁syn	-10041
▁tap	-10042
▁tod	-10043
▁tro	-10044
▁trv	-10045
▁ugh	-10046
▁uks	-10047
▁urs	-10048
▁vic	-10049
acles	-10050
afety	-10051
alcul	-10052
ampab	-10053
ampus	-10054
anity	-10055
anoma	-10056
antkw	-10057
arbut	-10058
bears	-10059
calls	-10060
dance	-10061
dated	-10062
deson	-10063
elity	-10064
ented	-10065
enwik	-10066
estop	-10067
finan	-10068
forth	-10069
great	-10070
ilere	-10071
immun	-10072
johns	-10073
lists	-10074
mexic	-10075
obile	-10076
oesnt	-10077
ofthe	-10078
olved	-10079
onald	-10080
onent	-10081
onest	-10082
oward	-10083
plant	-10084
priet	-10085
queen	-10086
renal	-10087
rgstw	-10088
shine	-10089
thats	-10090
trade	-10091
udeau	-10092
union	-10093
updat	-10094
viron	-10095
water	-10096
winds	-10097
yyyyy	-10098
▁allj	-10099
▁avel	-10100
▁bold	-10101
▁bust	-10102
▁bynd	-10103
▁crsp	-10104
▁crwd	-10105
▁ctrm	-10106
▁cunt	-10107
▁emir	-10108
▁epis	-10109
▁exel	-10110
▁fema	-10111
▁folk	-10112
▁gona	-10113
▁grts	-10114
▁gsat	-10115
▁gtfo	-10116
▁heal	-10117
▁hicc	-10118
▁inch	-10119
▁jamz	-10120
▁kits	-10121
▁leer	-10122
▁mmed	-10123
▁nort	-10124
▁offe	-10125
▁pole	-10126
▁poll	-10127
▁puff	-10128
▁qual	-10129
▁rabb	-10130
▁rady	-10131
▁rook	-10132
▁sacr	-10133
▁seiz	-10134
▁shir	-10135
▁skip	-10136
▁snoa	-10137
▁spit	-10138
▁tbio	-10139
▁tend	-10140
▁tied	-10141
▁uthr	-10142
▁util	-10143
▁wats	-10144
▁whin	-10145
▁wine	-10146
▁wolf	-10147
▁zinc	-10148
albert	-10149
bahutt	-10150
comeng	-10151
compan	-10152
ecures	-10153
eliver	-10154
estern	-10155
esting	-10156
etrack	-10157
expert	-10158
financ	-10159
folios	-10160
ickers	-10161
inovac	-10162
ionews	-10163
itopes	-10164
lihood	-10165
makers	-10166
oboost	-10167
opping	-10168
oughts	-10169
perial	-10170
prices	-10171
reatic	-10172
redict	-10173
rophic	-10174
scould	-10175
thanks	-10176
ueller	-10177
ughter	-10178
videos	-10179
▁aband	-10180
▁adapt	-10181
▁ahole	-10182
▁bills	-10183
▁blank	-10184
▁boxes	-10185
▁bread	-10186
▁bumpy	-10187
▁chest	-10188
▁claus	-10189
▁combo	-10190
▁comor	-10191
▁conce	-10192
▁contr	-10193
▁crawl	-10194
▁cream	-10195
▁disgu	-10196
▁dozen	-10197
▁empty	-10198
▁fatal	-10199
▁fcked	-10200
▁fizer	-10201
▁flies	-10202
▁gifts	-10203
▁hyped	-10204
▁juicy	-10205
▁karen	-10206
▁knock	-10207
▁leads	-10208
▁lifes	-10209
▁liked	-10210
▁lipid	-10211
▁liver	-10212
▁lotta	-10213
▁mafia	-10214
▁mayor	-10215
▁moooo	-10216
▁nasal	-10217
▁neuro	-10218
▁perna	-10219
▁plain	-10220
▁pseud	-10221
▁puppy	-10222
▁queen	-10223
▁ramen	-10224
▁richl	-10225
▁river	-10226
▁roast	-10227
▁runup	-10228
▁sends	-10229
▁shipp	-10230
▁shove	-10231
▁smile	-10232
▁soren	-10233
▁spacs	-10234
▁stats	-10235
▁steak	-10236
▁steel	-10237
▁texas	-10238
▁theyd	-10239
▁threw	-10240
▁torto	-10241
▁tuned	-10242
▁turds	-10243
▁usury	-10244
▁vibes	-10245
▁whens	-10246
▁whoop	-10247
▁wreck	-10248
▁yesss	-10249
ackedup	-10250
anddumb	-10251
archart	-10252
articip	-10253
atethat	-10254
atology	-10255
ayshtml	-10256
between	-10257
company	-10258
ennifer	-10259
ergence	-10260
esocial	-10261
experts	-10262
formore	-10263
general	-10264
htrader	-10265
idmsedg	-10266
ippines	-10267
lawsuit	-10268
loading	-10269
newyork	-10270
nthetic	-10271
ococcal	-10272
opfizer	-10273
osporin	-10274
peopled	-10275
ression	-10276
revenue	-10277
rnkusgo	-10278
rollout	-10279
smaking	-10280
ulative	-10281
uration	-10282
veloped	-10283
▁beaten	-10284
▁blocks	-10285
▁bodies	-10286
▁bother	-10287
▁bullet	-10288
▁bullsh	-10289
▁career	-10290
▁counts	-10291
▁deemed	-10292
▁deeper	-10293
▁devast	-10294
▁dosage	-10295
▁edward	-10296
▁ethnic	-10297
▁faggot	-10298
▁forces	-10299
▁gapped	-10300
▁gentle	-10301
▁grinch	-10302
▁gutter	-10303
▁hotels	-10304
▁houses	-10305
▁humble	-10306
▁hunger	-10307
▁instru	-10308
▁intend	-10309
▁intent	-10310
▁joined	-10311
▁joking	-10312
▁latter	-10313
▁lesser	-10314
▁lethal	-10315
▁liking	-10316
▁loving	-10317
▁memory	-10318
▁misses	-10319
▁multib	-10320
▁owning	-10321
▁packed	-10322
▁pandem	-10323
▁panels	-10324
▁popped	-10325
▁poster	-10326
▁pushes	-10327
▁quotim	-10328
▁quotto	-10329
▁resume	-10330
▁safely	-10331
▁schwab	-10332
▁shantp	-10333
▁sooooo	-10334
▁tactic	-10335
▁underg	-10336
▁unique	-10337
▁unwind	-10338
▁urgent	-10339
▁worthy	-10340
▁writer	-10341
▁zombie	-10342
advisers	-10343
afinance	-10344
american	-10345
antkwest	-10346
bccanews	-10347
californ	-10348
ceohasnt	-10349
children	-10350
comnewst	-10351
december	-10352
desonide	-10353
earnings	-10354
eeeeeeee	-10355
enusnews	-10356
european	-10357
ffffffff	-10358
healthus	-10359
iaorgwik	-10360
linehtml	-10361
odevelop	-10362
pipeline	-10363
prietary	-10364
uscanada	-10365
vaccinel	-10366
zheimers	-10367
▁accused	-10368
▁advisor	-10369
▁analyze	-10370
▁appropr	-10371
▁arrives	-10372
▁battery	-10373
▁bearing	-10374
▁belgian	-10375
▁blaming	-10376
▁bntxpfe	-10377
▁bottoms	-10378
▁cancers	-10379
▁carried	-10380
▁ceiling	-10381
▁clients	-10382
▁climate	-10383
▁compete	-10384
▁constit	-10385
▁crashes	-10386
▁demands	-10387
▁dogshit	-10388
▁drawing	-10389
▁emerged	-10390
▁entries	-10391
▁evident	-10392
▁exagger	-10393
▁execute	-10394
▁extract	-10395
▁fatigue	-10396
▁fintwit	-10397
▁genuine	-10398
▁grabbed	-10399
▁greatly	-10400
▁handles	-10401
▁happend	-10402
▁hurting	-10403
▁implied	-10404
▁implies	-10405
▁israels	-10406
▁issuing	-10407
▁lagging	-10408
▁lasting	-10409
▁laughed	-10410
▁liftoff	-10411
▁lowered	-10412
▁mission	-10413
▁mondays	-10414
▁needles	-10415
▁netflix	-10416
▁oliwood	-10417
▁patriot	-10418
▁plummet	-10419
▁pouring	-10420
▁quotyou	-10421
▁reduces	-10422
▁refuses	-10423
▁russias	-10424
▁sailing	-10425
▁seniors	-10426
▁sketchy	-10427
▁spiking	-10428
▁starter	-10429
▁tickets	-10430
▁tracker	-10431
▁trained	-10432
▁trudeau	-10433
▁utterly	-10434
▁zombies	-10435
alculable	-10436
arantines	-10437
billgates	-10438
comnphpid	-10439
compolicy	-10440
covidshot	-10441
enwikiped	-10442
factcheck	-10443
financial	-10444
president	-10445
spositive	-10446
stockscom	-10447
vironment	-10448
▁accessed	-10449
▁accurate	-10450
▁aircraft	-10451
▁answered	-10452
▁antigens	-10453
▁avelumab	-10454
▁believer	-10455
▁boosters	-10456
▁carriers	-10457
▁cheating	-10458
▁debating	-10459
▁declined	-10460
▁dilution	-10461
▁disclose	-10462
▁distance	-10463
▁duration	-10464
▁educated	-10465
▁emirates	-10466
▁fidelity	-10467
▁findings	-10468
▁gooooooo	-10469
▁grinding	-10470
▁grubbing	-10471
▁hammered	-10472
▁ignorant	-10473
▁immunize	-10474
▁imperial	-10475
▁israelis	-10476
▁johnsons	-10477
▁launched	-10478
▁licensed	-10479
▁mannkind	-10480
▁melanoma	-10481
▁modified	-10482
▁monopoly	-10483
▁overtime	-10484
▁parasite	-10485
▁pounding	-10486
▁prescrib	-10487
▁rallying	-10488
▁recovers	-10489
▁riddance	-10490
▁scalping	-10491
▁secondly	-10492
▁securing	-10493
▁shorties	-10494
▁squeezed	-10495
▁studying	-10496
▁totality	-10497
▁trusting	-10498
▁vacation	-10499
▁valuable	-10500
▁vampires	-10501
▁vanguard	-10502
▁windfall	-10503
accounting	-10504
cnbccomamp	-10505
enushealth	-10506
epremarket	-10507
newsevents	-10508
newspfizer	-10509
nursinghom	-10510
production	-10511
renbuffett	-10512
socialflow	-10513
▁achieving	-10514
▁ascending	-10515
▁berkshire	-10516
▁calculate	-10517
▁catalogue	-10518
▁complaint	-10519
▁detection	-10520
▁determine	-10521
▁discussed	-10522
▁eliminate	-10523
▁excluding	-10524
▁fibonacci	-10525
▁httpswwwp	-10526
▁jabbahutt	-10527
▁materials	-10528
▁mortality	-10529
▁norwegian	-10530
▁partially	-10531
▁pipelines	-10532
▁programme	-10533
▁promoting	-10534
▁realizing	-10535
▁reasoning	-10536
▁reflected	-10537
▁releasing	-10538
▁retesting	-10539
▁structure	-10540
▁suggested	-10541
▁supported	-10542
▁translate	-10543
▁universal	-10544
astrazeneca	-10545
fdaadvisory	-10546
filterioabc	-10547
filterioabe	-10548
filterioace	-10549
filterioaec	-10550
filterioaee	-10551
financenews	-10552
lawsuithtml	-10553
▁affordable	-10554
▁beneficial	-10555
▁budesonide	-10556
▁capability	-10557
▁collecting	-10558
▁confirming	-10559
▁containing	-10560
▁daytraders	-10561
▁deployment	-10562
▁difficulty	-10563
▁divergence	-10564
▁equivalent	-10565
▁explaining	-10566
▁financials	-10567
▁grifmaster	-10568
▁guidelines	-10569
▁industries	-10570
▁invitation	-10571
▁likelihood	-10572
▁lorlatinib	-10573
▁misleading	-10574
▁monoclonal	-10575
▁negligence	-10576
▁perception	-10577
▁politician	-10578
▁precaution	-10579
▁protective	-10580
▁quotpriced	-10581
▁reputation	-10582
▁restricted	-10583
▁strategies	-10584
▁sufficient	-10585
▁unclecovid	-10586
▁youtubecom	-10587
ampabchannel	-10588
bourlapfizer	-10589
compensation	-10590
coronaviruss	-10591
enzingacomzx	-10592
transmission	-10593
vaccinemight	-10594
▁alljackedup	-10595
▁blockbuster	-10596
▁competitive	-10597
▁conceivable	-10598
▁endorsement	-10599
▁formulation	-10600
▁httpswwwcbs	-10601
▁inactivated	-10602
▁medications	-10603
▁proprietary	-10604
▁surrounding	-10605
▁transparent	-10606
▁unfortunate	-10607
announcements	-10608
covidvaccinec	-10609
ecovidmoderna	-10610
frompfizerand	-10611
stimuluscheck	-10612
▁continuously	-10613
▁denseanddumb	-10614
▁dramatically	-10615
▁finalization	-10616
▁incalculable	-10617
▁instructions	-10618
▁investigates	-10619
▁neutralizing	-10620
▁pennsylvania	-10621
▁registration	-10622
authorizedhtml	-10623
ionewscomworld	-10624
wallstreetbets	-10625
▁consideration	-10626
▁entertainment	-10627
▁httpssrnkusgo	-10628
▁httpsyoutubec	-10629
▁httpsyoutubeq	-10630
▁investigating	-10631
▁manipulations	-10632
▁organizations	-10633
▁transmissible	-10634
▁zzzaccounting	-10635
comstocksmaking	-10636
newseventspress	-10637
utmsourcesocial	-10638
vaccineapproval	-10639
▁accomplishment	-10640
▁httpsenwikiped	-10641
▁httpswwwprnews	-10642
▁immunogenicity	-10643
▁misinformation	-10644
▁presidentelect	-10645
revenueindexhtml	-10646
▁administrations	-10647
ci	-10648
fq	-10649
gw	-10650
jr	-10651
lp	-10652
qp	-10653
qz	-10654
rh	-10655
uq	-10656
wg	-10657
wm	-10658
wz	-10659
za	-10660
zo	-10661
▁:	-10662
aec	-10663
aee	-10664
aji	-10665
apo	-10666
avf	-10667
awa	-10668
awk	-10669
bas	-10670
bay	-10671
bbc	-10672
bby	-10673
bit	-10674
blt	-10675
box	-10676
bur	-10677
cef	-10678
cho	-10679
cos	-10680
edc	-10681
edi	-10682
eds	-10683
eeu	-10684
eev	-10685
esy	-10686
fcd	-10687
fit	-10688
fty	-10689
ggg	-10690
hes	-10691
het	-10692
hkz	-10693
idm	-10694
inn	-10695
inv	-10696
inx	-10697
irk	-10698
jjc	-10699
jnj	-10700
jun	-10701
ktx	-10702
law	-10703
lla	-10704
lmn	-10705
mid	-10706
ndr	-10707
nen	-10708
obe	-10709
owe	-10710
pub	-10711
qqq	-10712
qrs	-10713
rat	-10714
ref	-10715
rey	-10716
ruu	-10717
sco	-10718
sky	-10719
tht	-10720
tod	-10721
tsr	-10722
ugg	-10723
uls	-10724
vae	-10725
vdg	-10726
vev	-10727
wjw	-10728
wun	-10729
wuv	-10730
ysr	-10731
zos	-10732
▁00	-10733
▁02	-10734
▁20	-10735
▁dm	-10736
▁du	-10737
▁ea	-10738
▁gb	-10739
▁if	-10740
▁pg	-10741
▁ti	-10742
▁vv	-10743
▁vz	-10744
▁xy	-10745
abda	-10746
acht	-10747
adow	-10748
agen	-10749
alex	-10750
alks	-10751
ampv	-10752
argo	-10753
aron	-10754
asep	-10755
aust	-10756
ayed	-10757
azar	-10758
blog	-10759
bpug	-10760
cant	-10761
clus	-10762
desp	-10763
eden	-10764
enot	-10765
even	-10766
fdad	-10767
four	-10768
gets	-10769
hack	-10770
hony	-10771
iana	-10772
iand	-10773
iddy	-10774
iked	-10775
info	-10776
inky	-10777
irms	-10778
isit	-10779
iump	-10780
keep	-10781
khbq	-10782
kins	-10783
leek	-10784
leep	-10785
lene	-10786
made	-10787
mend	-10788
nozu	-10789
nuff	-10790
ogot	-10791
olar	-10792
oles	-10793
omes	-10794
ooke	-10795
ovax	-10796
page	-10797
pltr	-10798
prob	-10799
quor	-10800
rage	-10801
rans	-10802
rise	-10803
rrrr	-10804
sees	-10805
span	-10806
spro	-10807
stay	-10808
ston	-10809
subd	-10810
take	-10811
text	-10812
town	-10813
trib	-10814
urns	-10815
vity	-10816
weak	-10817
wwws	-10818
yets	-10819
zumh	-10820
zwjw	-10821
▁abe	-10822
▁ack	-10823
▁alm	-10824
▁arn	-10825
▁asf	-10826
▁bip	-10827
▁cam	-10828
▁cbs	-10829
▁clr	-10830
▁cvx	-10831
▁cyt	-10832
▁dar	-10833
▁dav	-10834
▁dax	-10835
▁ded	-10836
▁dma	-10837
▁doz	-10838
▁gmo	-10839
▁gym	-10840
▁hob	-10841
▁hog	-10842
▁inb	-10843
▁its	-10844
▁lif	-10845
▁lvl	-10846
▁mcd	-10847
▁mrs	-10848
▁ner	-10849
▁nin	-10850
▁nke	-10851
▁nok	-10852
▁nom	-10853
▁ofc	-10854
▁owe	-10855
▁pie	-10856
▁rcl	-10857
▁sem	-10858
▁shr	-10859
▁svb	-10860
▁tub	-10861
▁uae	-10862
▁vxx	-10863
▁wet	-10864
▁yee	-10865
▁zer	-10866
aaaaa	-10867
abled	-10868
acies	-10869
actor	-10870
adder	-10871
akers	-10872
anoid	-10873
antir	-10874
apers	-10875
asury	-10876
black	-10877
brary	-10878
cienc	-10879
ddose	-10880
deals	-10881
death	-10882
enuva	-10883
ernie	-10884
etail	-10885
goaal	-10886
heads	-10887
hhhhh	-10888
hkzxn	-10889
hrine	-10890
icals	-10891
iller	-10892
imply	-10893
ingly	-10894
intel	-10895
istol	-10896
italy	-10897
joker	-10898
kbaji	-10899
kscan	-10900
legal	-10901
lenol	-10902
lette	-10903
lings	-10904
maker	-10905
maybe	-10906
merck	-10907
msavf	-10908
oking	-10909
onlin	-10910
ontal	-10911
ookie	-10912
ophil	-10913
ordan	-10914
orrow	-10915
ounds	-10916
prior	-10917
ptifg	-10918
qrsrz	-10919
smart	-10920
stage	-10921
think	-10922
uance	-10923
uffer	-10924
uitas	-10925
unday	-10926
unews	-10927
urges	-10928
wunxd	-10929
yptry	-10930
▁admp	-10931
▁amer	-10932
▁apxt	-10933
▁argu	-10934
▁aths	-10935
▁aunt	-10936
▁avgo	-10937
▁baff	-10938
▁bain	-10939
▁bans	-10940
▁barr	-10941
▁bend	-10942
▁cart	-10943
▁chwy	-10944
▁cuck	-10945
▁defl	-10946
▁docs	-10947
▁doji	-10948
▁drow	-10949
▁enzc	-10950
▁ferr	-10951
▁fsly	-10952
▁gaxy	-10953
▁gdrx	-10954
▁germ	-10955
▁goat	-10956
▁gosh	-10957
▁hdsn	-10958
▁hump	-10959
▁hysr	-10960
▁knee	-10961
▁mama	-10962
▁mice	-10963
▁mish	-10964
▁mush	-10965
▁mymx	-10966
▁nine	-10967
▁ntec	-10968
▁ohhh	-10969
▁oops	-10970
▁outs	-10971
▁peek	-10972
▁phds	-10973
▁prel	-10974
▁qcom	-10975
▁rdgl	-10976
▁reap	-10977
▁rebu	-10978
▁retr	-10979
▁rope	-10980
▁ryce	-10981
▁scan	-10982
▁sexy	-10983
▁symp	-10984
▁tgtx	-10985
▁tide	-10986
▁unle	-10987
▁vaxx	-10988
▁vert	-10989
▁vocl	-10990
▁vxlf	-10991
▁will	-10992
▁wire	-10993
▁yawn	-10994
aaaaaa	-10995
aafter	-10996
acular	-10997
affect	-10998
affwww	-10999
alabam	-11000
anyahu	-11001
brazil	-11002
chinas	-11003
contro	-11004
deccan	-11005
dollar	-11006
dryice	-11007
expect	-11008
fdacom	-11009
haende	-11010
handle	-11011
iangle	-11012
igeria	-11013
isting	-11014
mexico	-11015
nozuiy	-11016
ocutin	-11017
onalds	-11018
onesia	-11019
option	-11020
ostics	-11021
ostock	-11022
overed	-11023
phppfe	-11024
quotes	-11025
rovide	-11026
scient	-11027
scious	-11028
spread	-11029
stoday	-11030
studys	-11031
thefly	-11032
trades	-11033
uffers	-11034
uggest	-11035
ulting	-11036
upside	-11037
urrent	-11038
usetts	-11039
withus	-11040
▁acute	-11041
▁advil	-11042
▁bandw	-11043
▁behem	-11044
▁bogus	-11045
▁bored	-11046
▁burla	-11047
▁burry	-11048
▁charg	-11049
▁const	-11050
▁crime	-11051
▁curse	-11052
▁diarr	-11053
▁error	-11054
▁execs	-11055
▁fifty	-11056
▁ganna	-11057
▁genes	-11058
▁giddy	-11059
▁glory	-11060
▁goals	-11061
▁grass	-11062
▁grows	-11063
▁holes	-11064
▁hoped	-11065
▁lasts	-11066
▁lmaoo	-11067
▁longe	-11068
▁loyal	-11069
▁mofos	-11070
▁named	-11071
▁nancy	-11072
▁nanop	-11073
▁noone	-11074
▁occas	-11075
▁parad	-11076
▁pilot	-11077
▁plusk	-11078
▁poker	-11079
▁potus	-11080
▁quotw	-11081
▁races	-11082
▁recap	-11083
▁roche	-11084
▁rural	-11085
▁rvvtf	-11086
▁scams	-11087
▁skept	-11088
▁stell	-11089
▁sumit	-11090
▁swift	-11091
▁tease	-11092
▁teddy	-11093
▁twist	-11094
▁verge	-11095
▁weigh	-11096
▁wuhan	-11097
accepts	-11098
amphtml	-11099
ampnews	-11100
ampspfe	-11101
ampswww	-11102
another	-11103
atenews	-11104
buttons	-11105
comslee	-11106
coronav	-11107
disease	-11108
ecancer	-11109
enursed	-11110
etrialp	-11111
healtht	-11112
ication	-11113
igation	-11114
illions	-11115
imescom	-11116
iontrue	-11117
nothing	-11118
nysepfe	-11119
prevent	-11120
reports	-11121
stances	-11122
thenews	-11123
vention	-11124
viewcom	-11125
willing	-11126
working	-11127
▁admits	-11128
▁allows	-11129
▁assure	-11130
▁basher	-11131
▁batman	-11132
▁batter	-11133
▁behave	-11134
▁belief	-11135
▁belive	-11136
▁belong	-11137
▁benjam	-11138
▁biggie	-11139
▁biogen	-11140
▁bitter	-11141
▁boards	-11142
▁breach	-11143
▁camera	-11144
▁choppy	-11145
▁costco	-11146
▁county	-11147
▁cursed	-11148
▁damico	-11149
▁debate	-11150
▁defies	-11151
▁detect	-11152
▁distur	-11153
▁drives	-11154
▁earned	-11155
▁editor	-11156
▁epinep	-11157
▁fallen	-11158
▁floats	-11159
▁foward	-11160
▁gather	-11161
▁gilead	-11162
▁hunter	-11163
▁immort	-11164
▁inflic	-11165
▁lancet	-11166
▁lookin	-11167
▁lottos	-11168
▁luckin	-11169
▁measly	-11170
▁median	-11171
▁mirror	-11172
▁moodys	-11173
▁movies	-11174
▁pennys	-11175
▁poorer	-11176
▁preced	-11177
▁prints	-11178
▁proved	-11179
▁rabbit	-11180
▁rarely	-11181
▁recept	-11182
▁rumour	-11183
▁sample	-11184
▁scalps	-11185
▁served	-11186
▁sharks	-11187
▁speech	-11188
▁spiked	-11189
▁spiral	-11190
▁square	-11191
▁stolen	-11192
▁struck	-11193
▁taught	-11194
▁thatll	-11195
▁timber	-11196
▁tricks	-11197
▁trolls	-11198
▁trusts	-11199
▁upbeat	-11200
▁wiping	-11201
▁wishes	-11202
▁yellow	-11203
▁yessss	-11204
apeutics	-11205
aspxsubd	-11206
ayinghed	-11207
efficacy	-11208
etwitter	-11209
everyday	-11210
goaalmoa	-11211
hkzxnruu	-11212
ittaking	-11213
lockdown	-11214
npnozuiy	-11215
ofpfizer	-11216
onpfizer	-11217
phppfeid	-11218
priority	-11219
provides	-11220
qrsrzijj	-11221
quoracom	-11222
received	-11223
thoughts	-11224
vaccinep	-11225
vevmsavf	-11226
▁aborted	-11227
▁agencys	-11228
▁alcohol	-11229
▁animals	-11230
▁anthony	-11231
▁beloved	-11232
▁bladder	-11233
▁bloated	-11234
▁briefly	-11235
▁buysell	-11236
▁canadas	-11237
▁chilean	-11238
▁circuit	-11239
▁coaster	-11240
▁concert	-11241
▁council	-11242
▁culture	-11243
▁devalue	-11244
▁educate	-11245
▁enjoyed	-11246
▁expense	-11247
▁exposed	-11248
▁fillers	-11249
▁friggin	-11250
▁fuckkkk	-11251
▁fulfill	-11252
▁goddamn	-11253
▁guesses	-11254
▁handful	-11255
▁hardest	-11256
▁hedging	-11257
▁httpsre	-11258
▁invited	-11259
▁jackpot	-11260
▁joining	-11261
▁landing	-11262
▁library	-11263
▁lipitor	-11264
▁locking	-11265
▁managed	-11266
▁martine	-11267
▁mexican	-11268
▁mooning	-11269
▁nearing	-11270
▁offices	-11271
▁orgovyx	-11272
▁partial	-11273
▁pinning	-11274
▁printed	-11275
▁pussies	-11276
▁quotone	-11277
▁quotwhy	-11278
▁reacted	-11279
▁riskier	-11280
▁robbery	-11281
▁segment	-11282
▁selfish	-11283
▁shelves	-11284
▁sideway	-11285
▁signing	-11286
▁singled	-11287
▁sleeper	-11288
▁smiling	-11289
▁stalled	-11290
▁stretch	-11291
▁suffers	-11292
▁surging	-11293
▁surpass	-11294
▁tremend	-11295
▁tylenol	-11296
▁usddose	-11297
▁virtual	-11298
▁watches	-11299
▁western	-11300
achusetts	-11301
ampsource	-11302
bpugkbaji	-11303
cnncomcnn	-11304
confident	-11305
gottenhis	-11306
operation	-11307
pfizerinc	-11308
redditcom	-11309
storyhtml	-11310
warpspeed	-11311
wunxdkhbq	-11312
yptryahoo	-11313
zumhimmel	-11314
zwjwptifg	-11315
▁accuracy	-11316
▁admitted	-11317
▁appeared	-11318
▁blackber	-11319
▁breached	-11320
▁cabenuva	-11321
▁chilling	-11322
▁courtesy	-11323
▁crushing	-11324
▁detailed	-11325
▁doubtful	-11326
▁dramatic	-11327
▁dumpster	-11328
▁elevated	-11329
▁epitopes	-11330
▁excluded	-11331
▁exploded	-11332
▁extended	-11333
▁flyfirst	-11334
▁formally	-11335
▁issuance	-11336
▁jennifer	-11337
▁multiply	-11338
▁normalcy	-11339
▁northern	-11340
▁novavaxs	-11341
▁outcomes	-11342
▁overcome	-11343
▁paranoid	-11344
▁precovid	-11345
▁preorder	-11346
▁prevents	-11347
▁projects	-11348
▁prompted	-11349
▁property	-11350
▁protects	-11351
▁quotquot	-11352
▁rational	-11353
▁rebought	-11354
▁remotely	-11355
▁removing	-11356
▁requests	-11357
▁returned	-11358
▁roulette	-11359
▁severity	-11360
▁shifting	-11361
▁shutting	-11362
▁soreness	-11363
▁southern	-11364
▁stockgod	-11365
▁struggle	-11366
▁surfaces	-11367
▁triangle	-11368
▁webcasts	-11369
▁weekends	-11370
identified	-11371
modernaand	-11372
oesntwantt	-11373
onaldtrump	-11374
wittercomm	-11375
▁authority	-11376
▁brazilian	-11377
▁cancelled	-11378
▁carefully	-11379
▁character	-11380
▁countdown	-11381
▁covidquot	-11382
▁decreased	-11383
▁decreases	-11384
▁described	-11385
▁directors	-11386
▁economies	-11387
▁explosion	-11388
▁gentleman	-11389
▁hepatitis	-11390
▁httpswwwy	-11391
▁identical	-11392
▁ignorance	-11393
▁indonesia	-11394
▁inhibitor	-11395
▁installed	-11396
▁interests	-11397
▁longevity	-11398
▁magically	-11399
▁naturegod	-11400
▁newspaper	-11401
▁platforms	-11402
▁preferred	-11403
▁pressured	-11404
▁priceless	-11405
▁seatbelts	-11406
▁signaling	-11407
▁stimulate	-11408
▁strongest	-11409
▁synthetic	-11410
▁thursdays	-11411
▁unlimited	-11412
▁usmarkets	-11413
▁volunteer	-11414
▁worldnuff	-11415
filterioaad	-11416
filterioada	-11417
guardiancom	-11418
independent	-11419
leekoptions	-11420
stockstobuy	-11421
utmcampaign	-11422
vaccineship	-11423
withmillion	-11424
workagainst	-11425
▁activities	-11426
▁aggressive	-11427
▁alzheimers	-11428
▁ameritrade	-11429
▁assumption	-11430
▁commenting	-11431
▁commitment	-11432
▁comparable	-11433
▁competitor	-11434
▁concerning	-11435
▁containers	-11436
▁convenient	-11437
▁customized	-11438
▁definition	-11439
▁disclosure	-11440
▁everybodys	-11441
▁exercising	-11442
▁forgetting	-11443
▁horizontal	-11444
▁httpswwwft	-11445
▁httpthefly	-11446
▁importance	-11447
▁indirectly	-11448
▁injectable	-11449
▁innovative	-11450
▁laboratory	-11451
▁mainstream	-11452
▁meaningful	-11453
▁mentioning	-11454
▁microchips	-11455
▁perpetuity	-11456
▁positively	-11457
▁presenting	-11458
▁projecting	-11459
▁reflecting	-11460
▁situations	-11461
▁specialist	-11462
▁sublicense	-11463
▁threatened	-11464
▁tradeactor	-11465
▁transition	-11466
activestocks	-11467
aspxsubdscan	-11468
chinasecures	-11469
comsleekscan	-11470
healthcanada	-11471
nytimescomus	-11472
yetsayinghed	-11473
▁appreciated	-11474
▁appropriate	-11475
▁bloodstream	-11476
▁celebrating	-11477
▁contracting	-11478
▁corporation	-11479
▁desperately	-11480
▁distributor	-11481
▁epinephrine	-11482
▁immortality	-11483
▁marketwatch	-11484
▁philippines	-11485
▁practically	-11486
▁procurement	-11487
▁progression	-11488
▁projections	-11489
▁pseudovirus	-11490
▁speculating	-11491
▁suggestions	-11492
▁voclosporin	-11493
corporatenews	-11494
indiacomworld	-11495
ooglecomampsm	-11496
releasedetail	-11497
▁accidentally	-11498
▁accomplished	-11499
▁alternatives	-11500
▁appreciation	-11501
▁catastrophic	-11502
▁conversation	-11503
▁covidvaccine	-11504
▁httpswwwndtv	-11505
▁presidential	-11506
▁recommending	-11507
articlespfizer	-11508
impressiontrue	-11509
jazeeracomnews	-11510
milliondosesof	-11511
priorityreview	-11512
sentryphppfeid	-11513
▁collaborating	-11514
▁complications	-11515
▁profitability	-11516
▁thestockjoker	-11517
▁underestimate	-11518
amprefererhttps	-11519
businessinsider	-11520
comstocksquotes	-11521
deccanheraldcom	-11522
haendezumhimmel	-11523
pfizersceohasnt	-11524
▁authorizations	-11525
▁groundbreaking	-11526
▁httpscafinance	-11527
▁httpsyoutubeem	-11528
▁overwhelmingly	-11529
biontechtosupply	-11530
covidvaccination	-11531
facebookcomposts	-11532
morevaccinedoses	-11533
oesntwanttocutin	-11534
portuguesenursed	-11535
stocktwitscomamp	-11536
▁rwallstreetbets	-11537
▁stockmarketnews	-11538
cw	-11539
dx	-11540
gb	-11541
hv	-11542
je	-11543
jv	-11544
jy	-11545
kd	-11546
oi	-11547
qx	-11548
rk	-11549
tq	-11550
wo	-11551
xe	-11552
xv	-11553
xx	-11554
▁5	-11555
000	-11556
acl	-11557
aco	-11558
ado	-11559
aks	-11560
ala	-11561
alf	-11562
amo	-11563
ava	-11564
avo	-11565
bcd	-11566
bfm	-11567
blu	-11568
bon	-11569
bro	-11570
cck	-11571
cdb	-11572
cee	-11573
cit	-11574
cks	-11575
cus	-11576
daa	-11577
dad	-11578
dcc	-11579
def	-11580
dir	-11581
eex	-11582
eph	-11583
esp	-11584
fbe	-11585
fde	-11586
fed	-11587
fee	-11588
flu	-11589
gel	-11590
gon	-11591
gro	-11592
gsk	-11593
hea	-11594
hey	-11595
hum	-11596
iel	-11597
iju	-11598
ila	-11599
img	-11600
iox	-11601
irm	-11602
isk	-11603
jpm	-11604
jvd	-11605
kel	-11606
leg	-11607
loc	-11608
lvn	-11609
mmm	-11610
nag	-11611
nan	-11612
neg	-11613
ofe	-11614
oms	-11615
pac	-11616
qli	-11617
qye	-11618
rac	-11619
ria	-11620
ril	-11621
rue	-11622
rwh	-11623
smh	-11624
spk	-11625
tcr	-11626
tex	-11627
tog	-11628
tov	-11629
ubb	-11630
udy	-11631
ugp	-11632
uke	-11633
upt	-11634
ura	-11635
usf	-11636
var	-11637
wsi	-11638
▁ak	-11639
▁dy	-11640
▁hn	-11641
▁ml	-11642
▁og	-11643
▁rg	-11644
▁tg	-11645
▁wl	-11646
▁xl	-11647
▁zn	-11648
abet	-11649
acbd	-11650
acre	-11651
adfe	-11652
agne	-11653
aits	-11654
akie	-11655
algo	-11656
amri	-11657
ancy	-11658
anot	-11659
arbb	-11660
aric	-11661
arma	-11662
aser	-11663
ause	-11664
aved	-11665
aztc	-11666
bags	-11667
berg	-11668
bgas	-11669
bola	-11670
boom	-11671
bott	-11672
cele	-11673
ceof	-11674
cles	-11675
coma	-11676
deca	-11677
dict	-11678
earr	-11679
edge	-11680
educ	-11681
eing	-11682
emay	-11683
eral	-11684
eron	-11685
esse	-11686
faff	-11687
fare	-11688
ferr	-11689
ffeb	-11690
ffnc	-11691
fgbf	-11692
furt	-11693
gate	-11694
hots	-11695
iagn	-11696
icit	-11697
ieve	-11698
ighs	-11699
igsk	-11700
iner	-11701
inoc	-11702
irer	-11703
jack	-11704
jpjk	-11705
jump	-11706
keys	-11707
lorb	-11708
ltlt	-11709
make	-11710
male	-11711
mmer	-11712
nals	-11713
nder	-11714
nick	-11715
oman	-11716
omic	-11717
onso	-11718
orld	-11719
oser	-11720
ovol	-11721
phys	-11722
poor	-11723
pret	-11724
quer	-11725
quis	-11726
raps	-11727
rial	-11728
rove	-11729
snda	-11730
ssor	-11731
stal	-11732
stos	-11733
team	-11734
tele	-11735
tore	-11736
urop	-11737
usea	-11738
vote	-11739
walk	-11740
warn	-11741
wiss	-11742
wkhs	-11743
wont	-11744
wshh	-11745
ysub	-11746
▁aad	-11747
▁aww	-11748
▁azz	-11749
▁baz	-11750
▁bib	-11751
▁blu	-11752
▁bom	-11753
▁bou	-11754
▁cou	-11755
▁dhr	-11756
▁eld	-11757
▁err	-11758
▁evs	-11759
▁faa	-11760
▁fle	-11761
▁gba	-11762
▁gee	-11763
▁gly	-11764
▁gor	-11765
▁gps	-11766
▁gro	-11767
▁had	-11768
▁huu	-11769
▁ilk	-11770
▁kim	-11771
▁liv	-11772
▁lmt	-11773
▁ltd	-11774
▁msm	-11775
▁nih	-11776
▁pcr	-11777
▁pee	-11778
▁plc	-11779
▁pom	-11780
▁pul	-11781
▁svp	-11782
▁tbe	-11783
▁tir	-11784
▁tra	-11785
▁tum	-11786
▁uhh	-11787
▁unh	-11788
▁vet	-11789
ables	-11790
alask	-11791
allow	-11792
alous	-11793
anted	-11794
apant	-11795
apter	-11796
arend	-11797
artis	-11798
asthe	-11799
aysay	-11800
azine	-11801
bumps	-11802
cases	-11803
chief	-11804
emble	-11805
emerg	-11806
empor	-11807
estab	-11808
eters	-11809
euain	-11810
fault	-11811
group	-11812
icill	-11813
idenc	-11814
ieved	-11815
imple	-11816
inpre	-11817
issue	-11818
lando	-11819
level	-11820
loads	-11821
lyunt	-11822
nears	-11823
oming	-11824
onies	-11825
oring	-11826
osses	-11827
oughs	-11828
plate	-11829
pshvi	-11830
rezza	-11831
risks	-11832
rooms	-11833
rwhgi	-11834
shott	-11835
stone	-11836
theus	-11837
toget	-11838
tware	-11839
urity	-11840
ustop	-11841
vaxil	-11842
votes	-11843
vxlvn	-11844
ystem	-11845
zacks	-11846
▁2021	-11847
▁adma	-11848
▁anal	-11849
▁bait	-11850
▁begg	-11851
▁bion	-11852
▁blat	-11853
▁bloc	-11854
▁bots	-11855
▁btsc	-11856
▁capt	-11857
▁cate	-11858
▁cats	-11859
▁ctlt	-11860
▁cull	-11861
▁darn	-11862
▁dece	-11863
▁dish	-11864
▁disp	-11865
▁divy	-11866
▁etfs	-11867
▁ethx	-11868
▁fain	-11869
▁fans	-11870
▁fasc	-11871
▁fath	-11872
▁feds	-11873
▁fixx	-11874
▁flas	-11875
▁foil	-11876
▁gals	-11877
▁gavi	-11878
▁gbtc	-11879
▁gear	-11880
▁gifs	-11881
▁goof	-11882
▁guts	-11883
▁hero	-11884
▁impe	-11885
▁intr	-11886
▁ipok	-11887
▁jabs	-11888
▁jets	-11889
▁jinx	-11890
▁jvdg	-11891
▁ktos	-11892
▁lank	-11893
▁lick	-11894
▁limp	-11895
▁lmnd	-11896
▁lmnl	-11897
▁loan	-11898
▁matt	-11899
▁melt	-11900
▁meme	-11901
▁mjlb	-11902
▁noob	-11903
▁oman	-11904
▁ontx	-11905
▁pamp	-11906
▁peep	-11907
▁pity	-11908
▁prtc	-11909
▁rica	-11910
▁rick	-11911
▁ruby	-11912
▁ruth	-11913
▁sbfm	-11914
▁shap	-11915
▁shyt	-11916
▁slur	-11917
▁soft	-11918
▁sons	-11919
▁soph	-11920
▁sqqq	-11921
▁sspk	-11922
▁stap	-11923
▁ster	-11924
▁tack	-11925
▁tape	-11926
▁teen	-11927
▁terr	-11928
▁ties	-11929
▁tips	-11930
▁twil	-11931
▁ugur	-11932
▁ummm	-11933
▁usps	-11934
▁vale	-11935
▁vend	-11936
▁viac	-11937
▁wars	-11938
▁whit	-11939
▁wore	-11940
▁znga	-11941
ahahah	-11942
alerts	-11943
amriid	-11944
analys	-11945
angamo	-11946
areful	-11947
arscov	-11948
atcher	-11949
atures	-11950
bgaswj	-11951
closed	-11952
combin	-11953
commun	-11954
comnew	-11955
eeeeee	-11956
eepoch	-11957
endant	-11958
erable	-11959
estory	-11960
faints	-11961
forthe	-11962
groups	-11963
hahnfd	-11964
haring	-11965
hubcom	-11966
immune	-11967
ingent	-11968
inject	-11969
isiran	-11970
issues	-11971
istics	-11972
itancy	-11973
itudes	-11974
letter	-11975
miamid	-11976
ndrome	-11977
newsth	-11978
octord	-11979
odjpjk	-11980
ogical	-11981
ograph	-11982
omever	-11983
oooooo	-11984
origin	-11985
outing	-11986
patent	-11987
preced	-11988
qyewuv	-11989
rences	-11990
should	-11991
sthats	-11992
stonks	-11993
strump	-11994
things	-11995
threat	-11996
ubborn	-11997
unuris	-11998
uxffnc	-11999
vaeqli	-12000
whogot	-12001
yyyyyy	-12002
▁banda	-12003
▁bayry	-12004
▁beans	-12005
▁bible	-12006
▁bizar	-12007
▁blink	-12008
▁bonds	-12009
▁bravo	-12010
▁brits	-12011
▁bumps	-12012
▁burns	-12013
▁butth	-12014
▁candy	-12015
▁chris	-12016
▁chunk	-12017
▁cited	-12018
▁coast	-12019
▁comin	-12020
▁cooke	-12021
▁costa	-12022
▁creat	-12023
▁crumb	-12024
▁curve	-12025
▁decay	-12026
▁dicks	-12027
▁ditch	-12028
▁dough	-12029
▁dynam	-12030
▁ebola	-12031
▁entit	-12032
▁faint	-12033
▁gainz	-12034
▁harsh	-12035
▁heath	-12036
▁holly	-12037
▁hover	-12038
▁ideal	-12039
▁imbec	-12040
▁inaug	-12041
▁infin	-12042
▁jokes	-12043
▁karma	-12044
▁kyodo	-12045
▁langu	-12046
▁liber	-12047
▁mampa	-12048
▁maneu	-12049
▁memes	-12050
▁mfers	-12051
▁mmedf	-12052
▁numer	-12053
▁obese	-12054
▁ought	-12055
▁overd	-12056
▁patch	-12057
▁photo	-12058
▁piggy	-12059
▁plaus	-12060
▁quotn	-12061
▁radio	-12062
▁recru	-12063
▁ricks	-12064
▁route	-12065
▁sakes	-12066
▁salty	-12067
▁scler	-12068
▁scott	-12069
▁scour	-12070
▁sheer	-12071
▁solar	-12072
▁spain	-12073
▁spare	-12074
▁spark	-12075
▁spite	-12076
▁spons	-12077
▁stiff	-12078
▁stunt	-12079
▁swamp	-12080
▁tcell	-12081
▁tears	-12082
▁techs	-12083
▁theme	-12084
▁thier	-12085
▁tries	-12086
▁urges	-12087
▁users	-12088
▁vegas	-12089
▁views	-12090
▁voice	-12091
▁whack	-12092
▁wwwfo	-12093
▁yacht	-12094
▁yahoo	-12095
▁zones	-12096
aauthor	-12097
advisor	-12098
allergy	-12099
amplang	-12100
arbutus	-12101
arnings	-12102
ationof	-12103
covaxin	-12104
defense	-12105
deliver	-12106
desivir	-12107
details	-12108
dexhtml	-12109
eeeeeee	-12110
estream	-12111
fdahtml	-12112
fdawill	-12113
filings	-12114
fucking	-12115
houldnt	-12116
icillin	-12117
ieshtml	-12118
iminary	-12119
individ	-12120
lighten	-12121
mentsin	-12122
message	-12123
nessing	-12124
obilere	-12125
ospital	-12126
radoses	-12127
receive	-12128
savirus	-12129
strains	-12130
theless	-12131
tracold	-12132
tradeth	-12133
updated	-12134
versial	-12135
version	-12136
william	-12137
▁accord	-12138
▁agents	-12139
▁allied	-12140
▁andrew	-12141
▁arnold	-12142
▁asleep	-12143
▁aswell	-12144
▁attain	-12145
▁attrib	-12146
▁awaits	-12147
▁bailed	-12148
▁banner	-12149
▁before	-12150
▁berlin	-12151
▁bernie	-12152
▁bigcap	-12153
▁borrow	-12154
▁boxing	-12155
▁brains	-12156
▁bummer	-12157
▁carpet	-12158
▁cashed	-12159
▁chased	-12160
▁chills	-12161
▁circum	-12162
▁citron	-12163
▁climbs	-12164
▁colder	-12165
▁cousin	-12166
▁crispy	-12167
▁dammit	-12168
▁defeat	-12169
▁delete	-12170
▁denied	-12171
▁desire	-12172
▁detail	-12173
▁dinner	-12174
▁diving	-12175
▁dozens	-12176
▁drones	-12177
▁entity	-12178
▁equals	-12179
▁evolve	-12180
▁fasten	-12181
▁firmly	-12182
▁forbes	-12183
▁frankd	-12184
▁freeze	-12185
▁frenzy	-12186
▁fridge	-12187
▁fucken	-12188
▁gainer	-12189
▁garvey	-12190
▁handed	-12191
▁height	-12192
▁hiring	-12193
▁hypers	-12194
▁insert	-12195
▁intact	-12196
▁jordan	-12197
▁lasted	-12198
▁liable	-12199
▁mainly	-12200
▁mainst	-12201
▁manner	-12202
▁mariju	-12203
▁marked	-12204
▁merely	-12205
▁misery	-12206
▁monkey	-12207
▁motion	-12208
▁nausea	-12209
▁naysay	-12210
▁novice	-12211
▁output	-12212
▁owners	-12213
▁payoff	-12214
▁ponder	-12215
▁prison	-12216
▁promot	-12217
▁pumper	-12218
▁puppet	-12219
▁quotas	-12220
▁raking	-12221
▁ration	-12222
▁recipe	-12223
▁recoup	-12224
▁reefer	-12225
▁reject	-12226
▁savior	-12227
▁seemed	-12228
▁senses	-12229
▁shadow	-12230
▁shakey	-12231
▁sheesh	-12232
▁shorty	-12233
▁snatch	-12234
▁sought	-12235
▁stinks	-12236
▁strict	-12237
▁surges	-12238
▁tablet	-12239
▁thenew	-12240
▁treats	-12241
▁tweets	-12242
▁unansw	-12243
▁unthaw	-12244
▁useful	-12245
▁victim	-12246
▁virgin	-12247
▁vrbpac	-12248
ammation	-12249
antibody	-12250
ashboard	-12251
cheduled	-12252
cientist	-12253
comnewsh	-12254
economic	-12255
etrading	-12256
fdastaff	-12257
firstdos	-12258
ivecovid	-12259
manufact	-12260
modernac	-12261
nextweek	-12262
oreceive	-12263
outbreak	-12264
promised	-12265
pshviwsi	-12266
sibility	-12267
tttttttt	-12268
usamriid	-12269
watching	-12270
whiteowl	-12271
▁adrenal	-12272
▁afrezza	-12273
▁angeles	-12274
▁aproved	-12275
▁artific	-12276
▁bailing	-12277
▁bastard	-12278
▁behaves	-12279
▁billing	-12280
▁bipolar	-12281
▁blowout	-12282
▁boobies	-12283
▁breaker	-12284
▁brewing	-12285
▁buddies	-12286
▁buffets	-12287
▁chronic	-12288
▁command	-12289
▁concept	-12290
▁convert	-12291
▁crashed	-12292
▁crowded	-12293
▁dissing	-12294
▁distric	-12295
▁donated	-12296
▁drivers	-12297
▁ecuador	-12298
▁episode	-12299
▁ethical	-12300
▁failing	-12301
▁ferrari	-12302
▁finance	-12303
▁flushed	-12304
▁greeeee	-12305
▁httpsat	-12306
▁indexes	-12307
▁inhaled	-12308
▁jealous	-12309
▁jointly	-12310
▁judging	-12311
▁leaning	-12312
▁leerink	-12313
▁lifting	-12314
▁listing	-12315
▁lottery	-12316
▁mandate	-12317
▁marburg	-12318
▁methods	-12319
▁nigeria	-12320
▁nonstop	-12321
▁nucleus	-12322
▁obliter	-12323
▁opposed	-12324
▁outrage	-12325
▁placing	-12326
▁proport	-12327
▁protest	-12328
▁putcall	-12329
▁quotfda	-12330
▁quothow	-12331
▁quotits	-12332
▁quotnew	-12333
▁quotyes	-12334
▁ranking	-12335
▁readout	-12336
▁redness	-12337
▁refused	-12338
▁regrett	-12339
▁repeats	-12340
▁resolve	-12341
▁reveals	-12342
▁robbing	-12343
▁rookies	-12344
▁rooting	-12345
▁schools	-12346
▁sheeple	-12347
▁shoulda	-12348
▁slapped	-12349
▁someday	-12350
▁subsequ	-12351
▁surgeon	-12352
▁thermal	-12353
▁touches	-12354
▁traffic	-12355
▁unclear	-12356
▁upstart	-12357
▁vacinne	-12358
▁vehicle	-12359
▁warrant	-12360
▁weakest	-12361
▁whiners	-12362
▁windows	-12363
▁younger	-12364
biontechs	-12365
comnewseu	-12366
ecommends	-12367
following	-12368
forpfizer	-12369
hospitals	-12370
iencedrug	-12371
indianews	-12372
instagram	-12373
itanomaly	-12374
lifestyle	-12375
nearsdeal	-12376
newspress	-12377
ocidmsedg	-12378
ofpfizers	-12379
oralexper	-12380
osunpharm	-12381
relations	-12382
releaseen	-12383
telegraph	-12384
tgczkjzym	-12385
thepfizer	-12386
uxffncjjc	-12387
worldstar	-12388
▁airports	-12389
▁americas	-12390
▁behemoth	-12391
▁birthday	-12392
▁cheapies	-12393
▁choosing	-12394
▁comorbid	-12395
▁destroys	-12396
▁develops	-12397
▁diarrhea	-12398
▁donating	-12399
▁earliest	-12400
▁endorsed	-12401
▁ensuring	-12402
▁entirely	-12403
▁equities	-12404
▁expedite	-12405
▁failures	-12406
▁feedback	-12407
▁flippers	-12408
▁followup	-12409
▁frequent	-12410
▁generous	-12411
▁hydrogen	-12412
▁illusion	-12413
▁implying	-12414
▁inflated	-12415
▁instinct	-12416
▁intended	-12417
▁language	-12418
▁logistic	-12419
▁maximize	-12420
▁measured	-12421
▁mistaken	-12422
▁murderna	-12423
▁mutating	-12424
▁operates	-12425
▁ordinary	-12426
▁outdated	-12427
▁outsmart	-12428
▁packages	-12429
▁palantir	-12430
▁patented	-12431
▁plummets	-12432
▁pointing	-12433
▁proposal	-12434
▁quotthey	-12435
▁redesign	-12436
▁relevant	-12437
▁religion	-12438
▁remained	-12439
▁replaced	-12440
▁resident	-12441
▁rocketed	-12442
▁rollouts	-12443
▁russians	-12444
▁ruthless	-12445
▁sandwich	-12446
▁scalpers	-12447
▁sequence	-12448
▁shitting	-12449
▁sickness	-12450
▁software	-12451
▁sounding	-12452
▁spoilage	-12453
▁stanford	-12454
▁stepping	-12455
▁stoploss	-12456
▁stubborn	-12457
▁suckered	-12458
▁sunshine	-12459
▁supplied	-12460
▁switched	-12461
▁sympathy	-12462
▁syndrome	-12463
▁syringes	-12464
▁tortoise	-12465
▁totaling	-12466
▁ultimate	-12467
▁uncommon	-12468
▁unloaded	-12469
▁unpreced	-12470
▁whomever	-12471
amptwitter	-12472
bgaswjaztc	-12473
commercial	-12474
comscience	-12475
ecandidate	-12476
emperature	-12477
etherlands	-12478
experience	-12479
facilities	-12480
frompfizer	-12481
ignificant	-12482
imentshtml	-12483
odjpjkfgbf	-12484
peopledied	-12485
pfizership	-12486
redictable	-12487
scienceand	-12488
ukminister	-12489
viouslyunt	-12490
▁algorithm	-12491
▁allocated	-12492
▁attitudes	-12493
▁bandwagon	-12494
▁bottoming	-12495
▁callsputs	-12496
▁canadians	-12497
▁champagne	-12498
▁commented	-12499
▁communist	-12500
▁connected	-12501
▁converted	-12502
▁criticize	-12503
▁depressed	-12504
▁diagnosed	-12505
▁disclosed	-12506
▁douchebag	-12507
▁downwards	-12508
▁encounter	-12509
▁engineers	-12510
▁enlighten	-12511
▁exhausted	-12512
▁expressed	-12513
▁fireworks	-12514
▁formality	-12515
▁generates	-12516
▁greenwich	-12517
▁httpswwwd	-12518
▁illnesses	-12519
▁illogical	-12520
▁immunized	-12521
▁improving	-12522
▁intensive	-12523
▁interfere	-12524
▁intuition	-12525
▁ipokiller	-12526
▁levermann	-12527
▁liquidity	-12528
▁louisiana	-12529
▁mannkinds	-12530
▁mcdonalds	-12531
▁mrnabased	-12532
▁musunuris	-12533
▁newswires	-12534
▁offerings	-12535
▁organized	-12536
▁pandemics	-12537
▁permanent	-12538
▁personnel	-12539
▁pointless	-12540
▁positives	-12541
▁procedure	-12542
▁processed	-12543
▁prospects	-12544
▁providers	-12545
▁recognize	-12546
▁recurring	-12547
▁repeating	-12548
▁requiring	-12549
▁responded	-12550
▁returning	-12551
▁satisfied	-12552
▁scenarios	-12553
▁sclerosis	-12554
▁searching	-12555
▁secondary	-12556
▁sensitive	-12557
▁shortages	-12558
▁socialist	-12559
▁spotlight	-12560
▁suspended	-12561
▁switching	-12562
▁threatens	-12563
▁tolerated	-12564
▁tommorrow	-12565
▁transform	-12566
▁unloading	-12567
▁walstreet	-12568
aaftertrans	-12569
fdaadvisers	-12570
fdaapproves	-12571
filterioade	-12572
healthtrump	-12573
individuals	-12574
latinibsnda	-12575
quarantines	-12576
qyewuvrwhgi	-12577
shottoboost	-12578
statecancer	-12579
ysubmission	-12580
▁acceptable	-12581
▁afterwards	-12582
▁antivaxxer	-12583
▁biological	-12584
▁capitalize	-12585
▁completion	-12586
▁descending	-12587
▁developers	-12588
▁frontlines	-12589
▁greenlight	-12590
▁harnessing	-12591
▁immunology	-12592
▁inclisiran	-12593
▁introduced	-12594
▁newsfilter	-12595
▁operations	-12596
▁partnering	-12597
▁penicillin	-12598
▁pfizerbntx	-12599
▁psychology	-12600
▁quotifquot	-12601
▁recognized	-12602
▁reconsider	-12603
▁reflection	-12604
▁remdesivir	-12605
▁repeatedly	-12606
▁scratching	-12607
▁television	-12608
▁tremendous	-12609
▁unanswered	-12610
▁watchlists	-12611
▁witnessing	-12612
comnewspress	-12613
comstockspfe	-12614
euaindexhtml	-12615
filterioaced	-12616
inmodernaand	-12617
traderhubcom	-12618
urlhttpswwws	-12619
usfdaaccepts	-12620
vxlvnopinion	-12621
▁antibiotics	-12622
▁authorizing	-12623
▁calculation	-12624
▁collaborate	-12625
▁compromised	-12626
▁consolidate	-12627
▁correlation	-12628
▁demonstrate	-12629
▁destination	-12630
▁destruction	-12631
▁diversified	-12632
▁flashtrader	-12633
▁frustration	-12634
▁httpsmarket	-12635
▁importantly	-12636
▁participate	-12637
▁preliminary	-12638
▁specialized	-12639
▁threatening	-12640
▁unrealistic	-12641
ampfbclidiwar	-12642
approvepfizer	-12643
ecipientshtml	-12644
eemergencyuse	-12645
stephenhahnfd	-12646
variantsstudy	-12647
vaxilprovides	-12648
▁aggressively	-12649
▁bureaucratic	-12650
▁civilization	-12651
▁contribution	-12652
▁corporations	-12653
▁httpdlvritrq	-12654
▁inauguration	-12655
▁inflammation	-12656
▁logistically	-12657
▁multibillion	-12658
▁nevertheless	-12659
▁particularly	-12660
▁prescription	-12661
▁speculations	-12662
▁technologies	-12663
▁transactions	-12664
articlesnorway	-12665
comsciencedrug	-12666
notworkagainst	-12667
savirusvariant	-12668
tradingviewcom	-12669
▁circumstances	-12670
▁coronaviruses	-12671
▁greatwhiteowl	-12672
▁httpswwwrtcom	-12673
▁microchipping	-12674
▁motherfuckers	-12675
▁refrigerators	-12676
▁sharethoughts	-12677
▁stockstowatch	-12678
▁swingeveryday	-12679
▁underwhelming	-12680
▁unprecedented	-12681
▁unpredictable	-12682
coronaviruslive	-12683
nytimescominter	-12684
ofpfizervaccine	-12685
productpipeline	-12686
ukministerwarns	-12687
vaccineforcovid	-12688
▁httpswwwgoogle	-12689
▁stockbeepcomwl	-12690
▁wallstreetbets	-12691
amputmmediumfeed	-12692
californiaalabam	-12693
fdaadvisorypanel	-12694
investingcomnews	-12695
viouslyuntreated	-12696
▁httpswwwnewsmax	-12697
bw	-12698
cj	-12699
dg	-12700
fx	-12701
gj	-12702
ja	-12703
jh	-12704
jq	-12705
jt	-12706
mk	-12707
nh	-12708
nw	-12709
oz	-12710
rd	-12711
rp	-12712
uw	-12713
vk	-12714
vu	-12715
wa	-12716
wi	-12717
xb	-12718
xg	-12719
zh	-12720
zq	-12721
zw	-12722
▁9	-12723
aab	-12724
aba	-12725
abl	-12726
ads	-12727
aef	-12728
afa	-12729
agi	-12730
arl	-12731
asi	-12732
avs	-12733
azn	-12734
bba	-12735
bcb	-12736
bek	-12737
bfb	-12738
bla	-12739
cci	-12740
ckj	-12741
coz	-12742
dab	-12743
dca	-12744
dfd	-12745
dff	-12746
ecl	-12747
eeb	-12748
een	-12749
eew	-12750
enh	-12751
epi	-12752
era	-12753
fbo	-12754
fcf	-12755
ffd	-12756
fix	-12757
gae	-12758
gar	-12759
ght	-12760
gia	-12761
gnx	-12762
gor	-12763
gul	-12764
han	-12765
ibb	-12766
ibe	-12767
icr	-12768
idc	-12769
inh	-12770
iol	-12771
iph	-12772
isy	-12773
ixx	-12774
joe	-12775
jug	-12776
lam	-12777
lip	-12778
mal	-12779
mic	-12780
mix	-12781
mtk	-12782
ndd	-12783
nor	-12784
ntp	-12785
nys	-12786
oad	-12787
ola	-12788
oll	-12789
opk	-12790
pev	-12791
pow	-12792
rap	-12793
reh	-12794
rid	-12795
ros	-12796
sas	-12797
sec	-12798
shh	-12799
son	-12800
ssh	-12801
tdc	-12802
trh	-12803
twe	-12804
two	-12805
uba	-12806
uce	-12807
vaw	-12808
viz	-12809
vnt	-12810
wed	-12811
xal	-12812
ytu	-12813
zar	-12814
▁03	-12815
▁10	-12816
▁13	-12817
▁ae	-12818
▁ay	-12819
▁ga	-12820
▁hd	-12821
▁jd	-12822
▁jk	-12823
▁km	-12824
▁lf	-12825
▁ma	-12826
▁mk	-12827
▁nt	-12828
▁ov	-12829
▁pp	-12830
▁tb	-12831
▁vt	-12832
▁wb	-12833
abac	-12834
ader	-12835
adry	-12836
aget	-12837
aggy	-12838
agic	-12839
airs	-12840
anus	-12841
apos	-12842
arly	-12843
arms	-12844
asio	-12845
asks	-12846
athe	-12847
atus	-12848
aven	-12849
bcac	-12850
beae	-12851
bell	-12852
bett	-12853
bird	-12854
buys	-12855
cbin	-12856
cery	-12857
cest	-12858
chor	-12859
cnbc	-12860
crap	-12861
dabd	-12862
days	-12863
dddd	-12864
dies	-12865
dles	-12866
does	-12867
drop	-12868
ecap	-12869
edin	-12870
eels	-12871
eext	-12872
eled	-12873
elle	-12874
erwh	-12875
esto	-12876
etec	-12877
eure	-12878
fair	-12879
fdee	-12880
ffaf	-12881
fmog	-12882
fter	-12883
gain	-12884
hard	-12885
have	-12886
heat	-12887
heet	-12888
herd	-12889
hhby	-12890
icsc	-12891
iden	-12892
igns	-12893
igsh	-12894
ihil	-12895
ilit	-12896
inde	-12897
indu	-12898
inet	-12899
ineu	-12900
init	-12901
ioid	-12902
iris	-12903
izon	-12904
lore	-12905
love	-12906
mers	-12907
mind	-12908
nejm	-12909
note	-12910
ocgn	-12911
ocus	-12912
odys	-12913
ogob	-12914
omos	-12915
oons	-12916
osum	-12917
othe	-12918
otle	-12919
penc	-12920
phil	-12921
plus	-12922
pool	-12923
ppro	-12924
prim	-12925
reve	-12926
rick	-12927
scon	-12928
serv	-12929
spip	-12930
tail	-12931
tras	-12932
turn	-12933
ugpu	-12934
umin	-12935
umpp	-12936
upon	-12937
urls	-12938
vill	-12939
webs	-12940
webv	-12941
west	-12942
youn	-12943
▁aes	-12944
▁ail	-12945
▁aur	-12946
▁bax	-12947
▁bug	-12948
▁cst	-12949
▁cum	-12950
▁dnt	-12951
▁dol	-12952
▁dup	-12953
▁eag	-12954
▁fah	-12955
▁fbi	-12956
▁fkd	-12957
▁gil	-12958
▁gvt	-12959
▁hah	-12960
▁idc	-12961
▁itt	-12962
▁jos	-12963
▁joy	-12964
▁kal	-12965
▁kup	-12966
▁lee	-12967
▁len	-12968
▁mig	-12969
▁mio	-12970
▁mmm	-12971
▁mob	-12972
▁nar	-12973
▁nbc	-12974
▁nbd	-12975
▁nit	-12976
▁oak	-12977
▁ogi	-12978
▁ott	-12979
▁owl	-12980
▁pac	-12981
▁peg	-12982
▁pfi	-12983
▁qtr	-12984
▁rah	-12985
▁rav	-12986
▁ruh	-12987
▁ruk	-12988
▁rvr	-12989
▁ses	-12990
▁sha	-12991
▁sif	-12992
▁snd	-12993
▁sob	-12994
▁thu	-12995
▁tmo	-12996
▁tob	-12997
▁tok	-12998
▁tsm	-12999
▁tue	-13000
▁wfc	-13001
▁why	-13002
▁wil	-13003
▁wis	-13004
▁yoo	-13005
agets	-13006
ahhhh	-13007
alarm	-13008
amers	-13009
amily	-13010
ampts	-13011
andec	-13012
aries	-13013
atech	-13014
athan	-13015
athon	-13016
ausal	-13017
aylor	-13018
balls	-13019
batch	-13020
beats	-13021
benef	-13022
bhtml	-13023
bully	-13024
cking	-13025
ckpro	-13026
claim	-13027
dling	-13028
echmp	-13029
eding	-13030
elong	-13031
elung	-13032
endof	-13033
eneed	-13034
epage	-13035
ercos	-13036
erves	-13037
essim	-13038
ested	-13039
estim	-13040
etary	-13041
etest	-13042
ethey	-13043
facts	-13044
fdach	-13045
fdare	-13046
fects	-13047
fedex	-13048
ffort	-13049
fight	-13050
final	-13051
finds	-13052
hasel	-13053
hindu	-13054
holds	-13055
htmls	-13056
iasco	-13057
ibbnb	-13058
icorn	-13059
iddle	-13060
idrug	-13061
ifice	-13062
igans	-13063
igate	-13064
ighty	-13065
iguat	-13066
ihgov	-13067
imens	-13068
indad	-13069
inder	-13070
inics	-13071
irust	-13072
isthe	-13073
itted	-13074
ivorg	-13075
izzle	-13076
jvdty	-13077
kings	-13078
lemen	-13079
lived	-13080
march	-13081
micro	-13082
month	-13083
myers	-13084
navot	-13085
needs	-13086
niest	-13087
nnnnn	-13088
ocrit	-13089
odose	-13090
oever	-13091
ofits	-13092
olete	-13093
oncom	-13094
onths	-13095
ophpv	-13096
opics	-13097
orges	-13098
otegr	-13099
othes	-13100
outhe	-13101
outus	-13102
pivir	-13103
plane	-13104
plans	-13105
power	-13106
pprov	-13107
quick	-13108
rimer	-13109
ritis	-13110
robin	-13111
short	-13112
stave	-13113
stpfe	-13114
swiss	-13115
tards	-13116
uling	-13117
urfer	-13118
uthlq	-13119
uting	-13120
venue	-13121
vised	-13122
vites	-13123
wwwww	-13124
▁acid	-13125
▁acrs	-13126
▁adtx	-13127
▁akba	-13128
▁aktx	-13129
▁alph	-13130
▁appl	-13131
▁arkg	-13132
▁arvn	-13133
▁atnm	-13134
▁avar	-13135
▁avgr	-13136
▁avtr	-13137
▁aytu	-13138
▁bake	-13139
▁bars	-13140
▁bats	-13141
▁bcoz	-13142
▁bind	-13143
▁blsp	-13144
▁bone	-13145
▁brag	-13146
▁bush	-13147
▁cemi	-13148
▁cidm	-13149
▁coke	-13150
▁comb	-13151
▁cosm	-13152
▁cows	-13153
▁crew	-13154
▁cydy	-13155
▁deed	-13156
▁diff	-13157
▁dipp	-13158
▁dmtk	-13159
▁dope	-13160
▁dorm	-13161
▁ebay	-13162
▁epid	-13163
▁feye	-13164
▁fist	-13165
▁fkin	-13166
▁flop	-13167
▁ghiv	-13168
▁golf	-13169
▁grip	-13170
▁gull	-13171
▁hail	-13172
▁hanc	-13173
▁hgen	-13174
▁hoax	-13175
▁inks	-13176
▁insg	-13177
▁ipos	-13178
▁iraq	-13179
▁iron	-13180
▁jeff	-13181
▁jmia	-13182
▁kath	-13183
▁labd	-13184
▁lawy	-13185
▁legg	-13186
▁loll	-13187
▁mast	-13188
▁mayb	-13189
▁meds	-13190
▁ment	-13191
▁mile	-13192
▁mnra	-13193
▁moms	-13194
▁myot	-13195
▁nano	-13196
▁nood	-13197
▁omfg	-13198
▁opes	-13199
▁opex	-13200
▁opgn	-13201
▁opti	-13202
▁pacb	-13203
▁pair	-13204
▁panc	-13205
▁pfen	-13206
▁phen	-13207
▁pins	-13208
▁plot	-13209
▁pope	-13210
▁pref	-13211
▁pubm	-13212
▁puck	-13213
▁rein	-13214
▁rode	-13215
▁rude	-13216
▁salv	-13217
▁sars	-13218
▁sava	-13219
▁sbtx	-13220
▁seer	-13221
▁sera	-13222
▁sham	-13223
▁sixt	-13224
▁soup	-13225
▁splk	-13226
▁stem	-13227
▁stim	-13228
▁sums	-13229
▁tamp	-13230
▁tarn	-13231
▁tblt	-13232
▁thee	-13233
▁thew	-13234
▁thou	-13235
▁titt	-13236
▁tour	-13237
▁trim	-13238
▁trop	-13239
▁uavs	-13240
▁unve	-13241
▁upto	-13242
▁upup	-13243
▁vari	-13244
▁vinc	-13245
▁viro	-13246
▁ward	-13247
▁whew	-13248
▁whoa	-13249
▁xbio	-13250
▁xpev	-13251
▁xtrm	-13252
aconda	-13253
afters	-13254
agraph	-13255
ampaig	-13256
ankton	-13257
astock	-13258
backed	-13259
berdec	-13260
bsnews	-13261
buying	-13262
cdcgov	-13263
choose	-13264
cially	-13265
cramer	-13266
diseas	-13267
ectual	-13268
embers	-13269
encies	-13270
erglob	-13271
eshare	-13272
estudy	-13273
exclus	-13274
facing	-13275
fintel	-13276
florid	-13277
foruse	-13278
growth	-13279
haveto	-13280
idusln	-13281
idyhoo	-13282
ifully	-13283
ighing	-13284
images	-13285
imenti	-13286
imesco	-13287
inovio	-13288
iosity	-13289
ishing	-13290
itinib	-13291
itters	-13292
lishes	-13293
number	-13294
opolit	-13295
ostart	-13296
ostems	-13297
outcom	-13298
oworld	-13299
pauses	-13300
rading	-13301
reader	-13302
resent	-13303
rolled	-13304
roughs	-13305
shorts	-13306
ssssss	-13307
stance	-13308
stores	-13309
tedfor	-13310
totake	-13311
tqeron	-13312
trucks	-13313
trumps	-13314
uating	-13315
ulates	-13316
united	-13317
urevac	-13318
weekly	-13319
worker	-13320
wright	-13321
▁adult	-13322
▁advoc	-13323
▁arise	-13324
▁blahh	-13325
▁blues	-13326
▁boris	-13327
▁brave	-13328
▁brick	-13329
▁budge	-13330
▁burst	-13331
▁chlor	-13332
▁choke	-13333
▁cnbcs	-13334
▁corps	-13335
▁crown	-13336
▁cruis	-13337
▁dealt	-13338
▁delib	-13339
▁divor	-13340
▁doors	-13341
▁drawn	-13342
▁dutch	-13343
▁eaten	-13344
▁edges	-13345
▁effin	-13346
▁elite	-13347
▁enemy	-13348
▁erect	-13349
▁exhib	-13350
▁expon	-13351
▁farms	-13352
▁farts	-13353
▁feast	-13354
▁fewer	-13355
▁fruit	-13356
▁furth	-13357
▁goods	-13358
▁goood	-13359
▁grave	-13360
▁gucci	-13361
▁gurus	-13362
▁hadnt	-13363
▁hamps	-13364
▁hefty	-13365
▁heshe	-13366
▁hyper	-13367
▁inval	-13368
▁irony	-13369
▁joins	-13370
▁kitty	-13371
▁lilly	-13372
▁limbo	-13373
▁lmfbo	-13374
▁lobby	-13375
▁locks	-13376
▁lynch	-13377
▁macro	-13378
▁miles	-13379
▁monum	-13380
▁moral	-13381
▁negat	-13382
▁newer	-13383
▁nokia	-13384
▁nonex	-13385
▁obama	-13386
▁onced	-13387
▁parks	-13388
▁postp	-13389
▁preex	-13390
▁pride	-13391
▁puffy	-13392
▁pumps	-13393
▁quotp	-13394
▁retro	-13395
▁rhhby	-13396
▁rigor	-13397
▁rocks	-13398
▁rogue	-13399
▁rooms	-13400
▁rycey	-13401
▁scram	-13402
▁seats	-13403
▁seeks	-13404
▁shaft	-13405
▁shaky	-13406
▁simpl	-13407
▁skies	-13408
▁sloth	-13409
▁smack	-13410
▁smith	-13411
▁sniff	-13412
▁sogob	-13413
▁sperm	-13414
▁spoon	-13415
▁spray	-13416
▁srpts	-13417
▁suits	-13418
▁tally	-13419
▁teeth	-13420
▁theft	-13421
▁tiger	-13422
▁timed	-13423
▁tower	-13424
▁twits	-13425
▁unpun	-13426
▁upppp	-13427
▁veins	-13428
▁veric	-13429
▁waaaa	-13430
▁wagon	-13431
▁wipes	-13432
▁wives	-13433
▁woods	-13434
▁yeahh	-13435
alities	-13436
already	-13437
approve	-13438
arbucks	-13439
aredise	-13440
athhtml	-13441
atories	-13442
auciand	-13443
austral	-13444
balling	-13445
believe	-13446
cbinlmn	-13447
chicago	-13448
coaster	-13449
comwebv	-13450
country	-13451
distrib	-13452
enegoti	-13453
ereport	-13454
etrials	-13455
euregul	-13456
ificate	-13457
inclass	-13458
insouth	-13459
intheus	-13460
ireland	-13461
isusing	-13462
minutes	-13463
morning	-13464
natcher	-13465
navotio	-13466
outlook	-13467
pipelin	-13468
profits	-13469
renheit	-13470
reuters	-13471
seesnoc	-13472
spanorg	-13473
special	-13474
tdcfmog	-13475
tuesday	-13476
urchile	-13477
warnsof	-13478
wiuthlq	-13479
workerd	-13480
xpected	-13481
▁abbvie	-13482
▁acknow	-13483
▁agrees	-13484
▁amazed	-13485
▁ampion	-13486
▁anchor	-13487
▁appeal	-13488
▁assign	-13489
▁assist	-13490
▁astron	-13491
▁banned	-13492
▁bomber	-13493
▁boogie	-13494
▁boston	-13495
▁branch	-13496
▁bucket	-13497
▁budget	-13498
▁builds	-13499
▁burden	-13500
▁caller	-13501
▁cancun	-13502
▁causal	-13503
▁cheeks	-13504
▁contam	-13505
▁covids	-13506
▁damned	-13507
▁deeply	-13508
▁depend	-13509
▁devils	-13510
▁doable	-13511
▁dotted	-13512
▁dumber	-13513
▁emails	-13514
▁emphas	-13515
▁employ	-13516
▁erased	-13517
▁ethics	-13518
▁extent	-13519
▁favour	-13520
▁female	-13521
▁fiasco	-13522
▁folded	-13523
▁freely	-13524
▁fuking	-13525
▁gettin	-13526
▁harass	-13527
▁harris	-13528
▁hating	-13529
▁hedges	-13530
▁hourly	-13531
▁httpsd	-13532
▁hugely	-13533
▁huuuge	-13534
▁hyster	-13535
▁implic	-13536
▁insult	-13537
▁island	-13538
▁jajaja	-13539
▁kindly	-13540
▁lastly	-13541
▁laying	-13542
▁legend	-13543
▁length	-13544
▁limits	-13545
▁linear	-13546
▁lineup	-13547
▁lovely	-13548
▁lowers	-13549
▁madoff	-13550
▁moscow	-13551
▁object	-13552
▁opioid	-13553
▁ottawa	-13554
▁paypal	-13555
▁pessim	-13556
▁phases	-13557
▁porges	-13558
▁potato	-13559
▁quotit	-13560
▁rapcov	-13561
▁raping	-13562
▁regain	-13563
▁region	-13564
▁revenu	-13565
▁ripped	-13566
▁ruined	-13567
▁script	-13568
▁simult	-13569
▁sister	-13570
▁skills	-13571
▁smells	-13572
▁sports	-13573
▁squibb	-13574
▁stages	-13575
▁stakes	-13576
▁stockg	-13577
▁stroke	-13578
▁sucked	-13579
▁supers	-13580
▁suprem	-13581
▁survey	-13582
▁sweeps	-13583
▁takers	-13584
▁thrott	-13585
▁tiered	-13586
▁toying	-13587
▁unable	-13588
▁unanim	-13589
▁unknow	-13590
▁unmute	-13591
▁uptick	-13592
▁ursula	-13593
▁vision	-13594
▁voters	-13595
▁wayyyy	-13596
arantine	-13597
asepress	-13598
baboutus	-13599
breakapp	-13600
comartic	-13601
confirms	-13602
congress	-13603
contentv	-13604
duchenne	-13605
earticle	-13606
entative	-13607
estatuss	-13608
facility	-13609
fdachief	-13610
freezers	-13611
function	-13612
hereshow	-13613
ihgovpmc	-13614
iitjvdty	-13615
longterm	-13616
millions	-13617
modernas	-13618
nextyear	-13619
official	-13620
oncology	-13621
ostockss	-13622
ottopics	-13623
ourcesec	-13624
platform	-13625
riotimes	-13626
rovidean	-13627
skcomeng	-13628
spipelin	-13629
strading	-13630
trueampc	-13631
trumpall	-13632
▁abandon	-13633
▁acuitas	-13634
▁adviser	-13635
▁alleged	-13636
▁annihil	-13637
▁anomaly	-13638
▁antigen	-13639
▁arguing	-13640
▁ashamed	-13641
▁bandaid	-13642
▁bizarre	-13643
▁blatant	-13644
▁brazils	-13645
▁breathe	-13646
▁bristol	-13647
▁broader	-13648
▁callboy	-13649
▁carries	-13650
▁casinos	-13651
▁catches	-13652
▁chapter	-13653
▁cheated	-13654
▁context	-13655
▁convene	-13656
▁cruises	-13657
▁crystal	-13658
▁defects	-13659
▁defiant	-13660
▁defined	-13661
▁denying	-13662
▁diverse	-13663
▁dosages	-13664
▁easiest	-13665
▁edition	-13666
▁elected	-13667
▁eliquis	-13668
▁emailed	-13669
▁emerges	-13670
▁endorse	-13671
▁engaged	-13672
▁english	-13673
▁epstein	-13674
▁exosome	-13675
▁expands	-13676
▁factors	-13677
▁fellows	-13678
▁goahead	-13679
▁guessed	-13680
▁gustave	-13681
▁halting	-13682
▁happier	-13683
▁happily	-13684
▁httpsth	-13685
▁httpstr	-13686
▁httpsun	-13687
▁hurdles	-13688
▁idiotic	-13689
▁ignored	-13690
▁immense	-13691
▁inovios	-13692
▁intends	-13693
▁lmfaooo	-13694
▁lyophil	-13695
▁madness	-13696
▁melting	-13697
▁motherf	-13698
▁natures	-13699
▁needing	-13700
▁noodles	-13701
▁payable	-13702
▁posters	-13703
▁precise	-13704
▁pretend	-13705
▁prolong	-13706
▁prosper	-13707
▁ramping	-13708
▁rebuild	-13709
▁regards	-13710
▁retrace	-13711
▁revenge	-13712
▁routine	-13713
▁rubbish	-13714
▁rukobia	-13715
▁rushing	-13716
▁scaling	-13717
▁servers	-13718
▁shifted	-13719
▁sisters	-13720
▁slammed	-13721
▁sounded	-13722
▁sponsor	-13723
▁stacked	-13724
▁staring	-13725
▁statins	-13726
▁stboard	-13727
▁stckpro	-13728
▁stellar	-13729
▁storing	-13730
▁strings	-13731
▁studied	-13732
▁suicide	-13733
▁tempted	-13734
▁thawing	-13735
▁thenewb	-13736
▁ticking	-13737
▁tirrell	-13738
▁tomorow	-13739
▁twodose	-13740
▁unleash	-13741
▁upswing	-13742
▁vaccins	-13743
▁verdict	-13744
▁victims	-13745
▁vincine	-13746
▁weeklys	-13747
▁whiskey	-13748
▁wishful	-13749
▁wrecked	-13750
▁yearend	-13751
▁youquot	-13752
andpfizer	-13753
avaccines	-13754
californi	-13755
cientists	-13756
comaunews	-13757
couldbeab	-13758
dosesceos	-13759
generates	-13760
iduskbnvm	-13761
ilization	-13762
indadream	-13763
ipulation	-13764
iteidyhoo	-13765
onlinecom	-13766
ophpvwshh	-13767
ormoderna	-13768
otegravir	-13769
outhafric	-13770
promising	-13771
resistant	-13772
robinhood	-13773
rrrrrrrrr	-13774
todevelop	-13775
treatment	-13776
vaccinede	-13777
withustop	-13778
▁agreeing	-13779
▁airplane	-13780
▁almighty	-13781
▁altering	-13782
▁anaconda	-13783
▁applying	-13784
▁backhand	-13785
▁baffling	-13786
▁canceled	-13787
▁catholic	-13788
▁charting	-13789
▁chickens	-13790
▁cocktail	-13791
▁commonly	-13792
▁compound	-13793
▁consumer	-13794
▁contains	-13795
▁contrast	-13796
▁coprimer	-13797
▁darkpool	-13798
▁daughter	-13799
▁declines	-13800
▁dominate	-13801
▁doubting	-13802
▁elevator	-13803
▁encoding	-13804
▁ensemble	-13805
▁fainting	-13806
▁fakecine	-13807
▁finalize	-13808
▁finishes	-13809
▁flashing	-13810
▁focusing	-13811
▁fortunes	-13812
▁fullyear	-13813
▁gamestop	-13814
▁geoffrey	-13815
▁goodwill	-13816
▁grateful	-13817
▁gullible	-13818
▁handedly	-13819
▁hesitate	-13820
▁identify	-13821
▁inaccess	-13822
▁independ	-13823
▁infusion	-13824
▁insanity	-13825
▁instruct	-13826
▁linequot	-13827
▁location	-13828
▁managing	-13829
▁mandated	-13830
▁maneuver	-13831
▁massacre	-13832
▁midnight	-13833
▁miracles	-13834
▁moderate	-13835
▁monetary	-13836
▁moooooon	-13837
▁myotonic	-13838
▁notified	-13839
▁numerous	-13840
▁obsolete	-13841
▁overview	-13842
▁paradise	-13843
▁passport	-13844
▁performs	-13845
▁phenomen	-13846
▁plunging	-13847
▁practice	-13848
▁precious	-13849
▁prepping	-13850
▁puretech	-13851
▁quotwere	-13852
▁reacting	-13853
▁receptor	-13854
▁referred	-13855
▁reflects	-13856
▁refusing	-13857
▁register	-13858
▁relation	-13859
▁relaxing	-13860
▁reporter	-13861
▁reversed	-13862
▁reverses	-13863
▁seasonal	-13864
▁seizures	-13865
▁selloffs	-13866
▁sessions	-13867
▁setbacks	-13868
▁shakeout	-13869
▁shameful	-13870
▁shippers	-13871
▁shoulder	-13872
▁smartest	-13873
▁spammers	-13874
▁stalling	-13875
▁stanicky	-13876
▁stations	-13877
▁strangle	-13878
▁students	-13879
▁sweating	-13880
▁themquot	-13881
▁trailers	-13882
▁training	-13883
▁treasury	-13884
▁triggers	-13885
▁twilight	-13886
▁uploaded	-13887
▁warnings	-13888
▁whopping	-13889
alkpositiv	-13890
andecuador	-13891
bettreport	-13892
billionfor	-13893
combanking	-13894
commentary	-13895
comwebvide	-13896
conference	-13897
fdacommitt	-13898
fortunecom	-13899
hangoutcom	-13900
innovation	-13901
irdquarter	-13902
litigation	-13903
newsmercos	-13904
ooooooooom	-13905
opolitical	-13906
ostemsavir	-13907
pfizersays	-13908
regulators	-13909
reportedly	-13910
sentimenti	-13911
tqeronugpu	-13912
vaccinedos	-13913
vaccinepro	-13914
willpeople	-13915
▁accepting	-13916
▁affecting	-13917
▁attacking	-13918
▁bagholder	-13919
▁becareful	-13920
▁certainty	-13921
▁collected	-13922
▁competing	-13923
▁component	-13924
▁curiosity	-13925
▁deadliest	-13926
▁deserving	-13927
▁discounts	-13928
▁economics	-13929
▁endpoints	-13930
▁ethnicity	-13931
▁exercises	-13932
▁expedited	-13933
▁expertise	-13934
▁forecasts	-13935
▁frankfurt	-13936
▁gentlemen	-13937
▁genuinely	-13938
▁goverment	-13939
▁happiness	-13940
▁hesitancy	-13941
▁hibernate	-13942
▁indicates	-13943
▁inpatient	-13944
▁interpret	-13945
▁inventory	-13946
▁involving	-13947
▁judgement	-13948
▁licensing	-13949
▁marijuana	-13950
▁mechanism	-13951
▁mentality	-13952
▁miserable	-13953
▁mongering	-13954
▁motivated	-13955
▁nantkwest	-13956
▁naturally	-13957
▁naysayers	-13958
▁netanyahu	-13959
▁normality	-13960
▁oncedaily	-13961
▁paperwork	-13962
▁paragraph	-13963
▁performed	-13964
▁pfizerpfe	-13965
▁premature	-13966
▁preorders	-13967
▁prescribe	-13968
▁prominent	-13969
▁provision	-13970
▁recording	-13971
▁referring	-13972
▁rejection	-13973
▁renavotio	-13974
▁reputable	-13975
▁sacrifice	-13976
▁shortness	-13977
▁slaughter	-13978
▁sogobully	-13979
▁speculate	-13980
▁stockpile	-13981
▁stressful	-13982
▁substance	-13983
▁todaythis	-13984
▁topstonks	-13985
▁traveling	-13986
▁ultracold	-13987
▁upgrading	-13988
▁variation	-13989
▁warpspeed	-13990
▁wellknown	-13991
▁willingly	-13992
aauthorizes	-13993
acceptedfor	-13994
apantimesco	-13995
approvalfor	-13996
articlespmc	-13997
ceofauciand	-13998
combination	-13999
comtnewsmax	-14000
covidstrain	-14001
elungcancer	-14002
erecommends	-14003
filterioaae	-14004
filterioafc	-14005
healthcovid	-14006
ickerreport	-14007
iefingcomin	-14008
imescomnews	-14009
implywallst	-14010
nursefaints	-14011
partnership	-14012
ressrelease	-14013
resultsfrom	-14014
vitespublic	-14015
youtubeampv	-14016
▁acceptance	-14017
▁adrenaline	-14018
▁allocation	-14019
▁attachment	-14020
▁bagholding	-14021
▁blackberry	-14022
▁decreasing	-14023
▁disturbing	-14024
▁encouraged	-14025
▁enrollment	-14026
▁fahrenheit	-14027
▁girlfriend	-14028
▁hahahahaha	-14029
▁heartbreak	-14030
▁httpsreutr	-14031
▁ingredient	-14032
▁likelyhood	-14033
▁millennial	-14034
▁monumental	-14035
▁negatively	-14036
▁pancreatic	-14037
▁portfolios	-14038
▁preference	-14039
▁preordered	-14040
▁prioritize	-14041
▁quantities	-14042
▁regulation	-14043
▁requesting	-14044
▁responders	-14045
▁restaurant	-14046
▁scrutinize	-14047
▁skyrockets	-14048
▁speechless	-14049
▁statements	-14050
▁stationary	-14051
▁statistics	-14052
▁subsequent	-14053
▁subsidiary	-14054
▁suggesting	-14055
▁undergoing	-14056
▁unpunished	-14057
▁variations	-14058
▁vericiguat	-14059
▁whatsoever	-14060
▁wtffffffff	-14061
administered	-14062
afterworkers	-14063
ampsourcesec	-14064
ationsbefore	-14065
filterioacfc	-14066
filterioadfb	-14067
havetochoose	-14068
healthvaccin	-14069
investingcom	-14070
miamidoctord	-14071
modernacovid	-14072
oooooooooooo	-14073
patientswith	-14074
pfeffersucks	-14075
relationship	-14076
releasepress	-14077
seesnocausal	-14078
weighpfizers	-14079
williamhasel	-14080
▁antivaxxers	-14081
▁association	-14082
▁billionaire	-14083
▁booooooooom	-14084
▁bureaucracy	-14085
▁certificate	-14086
▁contractors	-14087
▁contributed	-14088
▁coordinated	-14089
▁criticizing	-14090
▁devastating	-14091
▁disgraceful	-14092
▁embarrassed	-14093
▁engineering	-14094
▁environment	-14095
▁experiences	-14096
▁financially	-14097
▁functioning	-14098
▁httpsfintel	-14099
▁httpssocial	-14100
▁incorrectly	-14101
▁interviewed	-14102
▁liabilities	-14103
▁lyophilized	-14104
▁negotiation	-14105
▁netherlands	-14106
▁obliterated	-14107
▁overlooking	-14108
▁pfebiontech	-14109
▁postvaccine	-14110
▁preexisting	-14111
▁protections	-14112
▁quotyesquot	-14113
▁recognition	-14114
▁restriction	-14115
▁spectacular	-14116
▁trademarked	-14117
▁translation	-14118
▁trustworthy	-14119
coronavirusch	-14120
covidvaccinep	-14121
encoronavirus	-14122
ivorgcontentv	-14123
liveupdatesus	-14124
orlatinibsnda	-14125
ormodernamrna	-14126
vaccinepfizer	-14127
warrenbuffett	-14128
willingtotake	-14129
zackscomstock	-14130
▁acquisitions	-14131
▁additionally	-14132
▁brainwashing	-14133
▁calculations	-14134
▁capitulation	-14135
▁computerized	-14136
▁considerable	-14137
▁consolidated	-14138
▁emergencyuse	-14139
▁historically	-14140
▁httpsmarkets	-14141
▁httpswwwthel	-14142
▁httpswwwynet	-14143
▁inaccessible	-14144
▁incompetence	-14145
▁incorporated	-14146
▁infringement	-14147
▁intellectual	-14148
▁intelligence	-14149
▁laboratories	-14150
▁microchipped	-14151
▁participated	-14152
▁pneumococcal	-14153
▁profittaking	-14154
▁retracements	-14155
ecandidatethat	-14156
eepochtimescom	-14157
epfizerfdahtml	-14158
foutputtypeamp	-14159
insouthamerica	-14160
modernavaccine	-14161
morehtmlsource	-14162
pfizerspipelin	-14163
pfizerstocknow	-14164
pfizervaccines	-14165
thecoronavirus	-14166
usatodaycomamp	-14167
▁automatically	-14168
▁chasindadream	-14169
▁comorbidities	-14170
▁conversations	-14171
▁fastspreading	-14172
▁httpsriotimes	-14173
▁httpsyoutubed	-14174
▁httpsyoutubef	-14175
▁immunizations	-14176
▁pennysnatcher	-14177
▁precautionary	-14178
▁psychological	-14179
▁revaccination	-14180
▁rollercoaster	-14181
▁stboardreader	-14182
biontechreceive	-14183
bourlapfizercom	-14184
britainbiontech	-14185
cbinlmnihgovpmc	-14186
myovantsciences	-14187
nytimescomworld	-14188
ofcovidvaccines	-14189
onlinecombrazil	-14190
stockmarketnews	-14191
▁capitalization	-14192
▁httpsunlimited	-14193
▁simultaneously	-14194
adversereactions	-14195
betweenpfizerpfe	-14196
canadaauthorizes	-14197
ciencemagorgnews	-14198
comnewshottopics	-14199
covidvaccinewith	-14200
dosesceosayshtml	-14201
guardiancomworld	-14202
oooooooooooooooo	-14203
ostockssymbolpfe	-14204
▁httpsmworldstar	-14205
cu	-14206
ea	-14207
fw	-14208
iu	-14209
js	-14210
jw	-14211
ki	-14212
mb	-14213
mh	-14214
mn	-14215
ni	-14216
nr	-14217
nz	-14218
qc	-14219
ql	-14220
qo	-14221
rw	-14222
vc	-14223
yc	-14224
yq	-14225
zb	-14226
▁+	-14227
▁6	-14228
▁7	-14229
▁;	-14230
011	-14231
abu	-14232
aea	-14233
agc	-14234
alt	-14235
ano	-14236
anu	-14237
aro	-14238
asp	-14239
asy	-14240
awb	-14241
bar	-14242
bbd	-14243
bbf	-14244
bcf	-14245
bdb	-14246
beh	-14247
bmj	-14248
bpp	-14249
bys	-14250
cam	-14251
ceb	-14252
clo	-14253
cmp	-14254
ctj	-14255
ctw	-14256
cvs	-14257
dbc	-14258
dem	-14259
dep	-14260
dtq	-14261
dvt	-14262
ecf	-14263
elv	-14264
epf	-14265
erp	-14266
fak	-14267
fca	-14268
fen	-14269
fic	-14270
gly	-14271
gob	-14272
gti	-14273
gtj	-14274
gwl	-14275
hai	-14276
hap	-14277
hel	-14278
hig	-14279
hog	-14280
hrt	-14281
hur	-14282
ibn	-14283
idt	-14284
ieb	-14285
iec	-14286
ien	-14287
ifi	-14288
imo	-14289
ini	-14290
inl	-14291
iov	-14292
isl	-14293
isp	-14294
ita	-14295
ito	-14296
ivi	-14297
jac	-14298
jim	-14299
jpg	-14300
kee	-14301
kyo	-14302
lap	-14303
ldo	-14304
lle	-14305
lls	-14306
lnj	-14307
los	-14308
mat	-14309
max	-14310
mus	-14311
nat	-14312
nce	-14313
nem	-14314
nib	-14315
nod	-14316
non	-14317
nty	-14318
oaf	-14319
obq	-14320
ogo	-14321
oic	-14322
omg	-14323
oor	-14324
ota	-14325
qez	-14326
ram	-14327
rdy	-14328
rig	-14329
rtx	-14330
run	-14331
sen	-14332
som	-14333
sop	-14334
tcl	-14335
thy	-14336
tof	-14337
toh	-14338
tth	-14339
ugs	-14340
uka	-14341
uru	-14342
vas	-14343
vox	-14344
wal	-14345
wod	-14346
xin	-14347
xst	-14348
ycl	-14349
zdz	-14350
zee	-14351
zsh	-14352
zzz	-14353
▁50	-14354
▁bw	-14355
▁cs	-14356
▁dw	-14357
▁dx	-14358
▁ff	-14359
▁gg	-14360
▁jv	-14361
▁ka	-14362
▁ku	-14363
▁ln	-14364
▁lq	-14365
▁lv	-14366
▁mx	-14367
▁nh	-14368
▁nj	-14369
▁ou	-14370
▁oz	-14371
▁qd	-14372
▁rr	-14373
▁tj	-14374
▁tt	-14375
▁tx	-14376
▁vu	-14377
▁wp	-14378
▁wy	-14379
aaad	-14380
aaec	-14381
aapl	-14382
abdb	-14383
abuy	-14384
acdc	-14385
aceb	-14386
aced	-14387
actt	-14388
adda	-14389
adyt	-14390
aebb	-14391
agan	-14392
aher	-14393
aite	-14394
aled	-14395
alyt	-14396
amay	-14397
amib	-14398
anas	-14399
andf	-14400
anew	-14401
ango	-14402
anti	-14403
aphs	-14404
apon	-14405
ardo	-14406
atem	-14407
atos	-14408
avac	-14409
avai	-14410
ayss	-14411
baac	-14412
bcfc	-14413
bdbb	-14414
bece	-14415
beed	-14416
befe	-14417
begs	-14418
belg	-14419
biot	-14420
bkfz	-14421
blah	-14422
blue	-14423
bors	-14424
bost	-14425
brdy	-14426
bvdt	-14427
camp	-14428
cdbb	-14429
cdct	-14430
cedc	-14431
chem	-14432
cler	-14433
cnnp	-14434
cola	-14435
comf	-14436
core	-14437
cris	-14438
ctys	-14439
cule	-14440
dney	-14441
door	-14442
echn	-14443
econ	-14444
eler	-14445
enan	-14446
enfe	-14447
enow	-14448
enth	-14449
enza	-14450
epic	-14451
erge	-14452
erne	-14453
esth	-14454
etos	-14455
etro	-14456
etst	-14457
expl	-14458
faad	-14459
faae	-14460
ffbc	-14461
gaov	-14462
gmuw	-14463
gulf	-14464
held	-14465
hmen	-14466
hrtu	-14467
hyet	-14468
iche	-14469
idal	-14470
iduk	-14471
igil	-14472
igit	-14473
ills	-14474
ilty	-14475
imas	-14476
inas	-14477
infl	-14478
inqu	-14479
iorx	-14480
iphy	-14481
ipin	-14482
isso	-14483
itys	-14484
izat	-14485
izza	-14486
jjaw	-14487
join	-14488
july	-14489
kids	-14490
kong	-14491
kore	-14492
ktop	-14493
lbry	-14494
leen	-14495
liam	-14496
linm	-14497
mand	-14498
mdke	-14499
meet	-14500
mich	-14501
mint	-14502
moon	-14503
much	-14504
mult	-14505
myov	-14506
nage	-14507
ncxc	-14508
obos	-14509
oeve	-14510
ofor	-14511
ohad	-14512
ojvd	-14513
olkk	-14514
ombm	-14515
omon	-14516
oong	-14517
opic	-14518
orrh	-14519
osph	-14520
ossc	-14521
otal	-14522
oted	-14523
ourt	-14524
oves	-14525
oyed	-14526
pain	-14527
panc	-14528
peer	-14529
phac	-14530
pion	-14531
plex	-14532
pric	-14533
pull	-14534
qffb	-14535
qual	-14536
reen	-14537
reon	-14538
resh	-14539
resp	-14540
rich	-14541
role	-14542
samp	-14543
scal	-14544
spir	-14545
spot	-14546
stok	-14547
stom	-14548
stot	-14549
tewv	-14550
thew	-14551
tick	-14552
twop	-14553
uall	-14554
udos	-14555
ugjl	-14556
ukwa	-14557
ulum	-14558
umby	-14559
uous	-14560
uple	-14561
uras	-14562
usch	-14563
uths	-14564
vard	-14565
vene	-14566
viiv	-14567
wkwk	-14568
wood	-14569
xlet	-14570
xtra	-14571
▁abr	-14572
▁adx	-14573
▁aiv	-14574
▁alf	-14575
▁ave	-14576
▁azd	-14577
▁bam	-14578
▁bch	-14579
▁boi	-14580
▁bow	-14581
▁brr	-14582
▁cav	-14583
▁cbc	-14584
▁clf	-14585
▁cmv	-14586
▁cpb	-14587
▁cus	-14588
▁dck	-14589
▁doo	-14590
▁duh	-14591
▁dum	-14592
▁dys	-14593
▁ech	-14594
▁eco	-14595
▁ecz	-14596
▁ell	-14597
▁eus	-14598
▁exx	-14599
▁fab	-14600
▁fom	-14601
▁ftw	-14602
▁fuq	-14603
▁fux	-14604
▁gay	-14605
▁ger	-14606
▁glu	-14607
▁gmt	-14608
▁gna	-14609
▁han	-14610
▁ibd	-14611
▁igc	-14612
▁ink	-14613
▁ira	-14614
▁ist	-14615
▁ivr	-14616
▁jaj	-14617
▁jkt	-14618
▁kam	-14619
▁kin	-14620
▁kne	-14621
▁kos	-14622
▁lap	-14623
▁les	-14624
▁lul	-14625
▁lun	-14626
▁lux	-14627
▁map	-14628
▁mgm	-14629
▁miy	-14630
▁mol	-14631
▁mun	-14632
▁nak	-14633
▁nav	-14634
▁nba	-14635
▁nda	-14636
▁nxt	-14637
▁oks	-14638
▁pas	-14639
▁pdt	-14640
▁pfz	-14641
▁pii	-14642
▁pod	-14643
▁por	-14644
▁qsr	-14645
▁rab	-14646
▁ril	-14647
▁riv	-14648
▁roi	-14649
▁sel	-14650
▁siz	-14651
▁sod	-14652
▁soo	-14653
▁spl	-14654
▁sup	-14655
▁swi	-14656
▁tam	-14657
▁tha	-14658
▁tin	-14659
▁tnx	-14660
▁tyr	-14661
▁uss	-14662
▁vid	-14663
▁vom	-14664
▁vxl	-14665
▁vyn	-14666
▁was	-14667
▁wht	-14668
▁xyz	-14669
▁zts	-14670
▁zur	-14671
aaaay	-14672
acher	-14673
acros	-14674
acsmh	-14675
adesh	-14676
adryl	-14677
ahuke	-14678
ained	-14679
allab	-14680
althy	-14681
alway	-14682
amper	-14683
ampsi	-14684
anche	-14685
ander	-14686
ankar	-14687
apppp	-14688
arbbc	-14689
arrrr	-14690
arted	-14691
arton	-14692
asser	-14693
assoc	-14694
asted	-14695
auges	-14696
autop	-14697
award	-14698
bezos	-14699
brate	-14700
bring	-14701
cdnam	-14702
cents	-14703
cheap	-14704
china	-14705
ckjgz	-14706
click	-14707
comed	-14708
comen	-14709
coron	-14710
cosal	-14711
daqel	-14712
ddfab	-14713
deada	-14714
defin	-14715
demic	-14716
derna	-14717
dwcom	-14718
ecure	-14719
edefe	-14720
edges	-14721
edica	-14722
emain	-14723
emdtq	-14724
emore	-14725
ender	-14726
endpt	-14727
endtv	-14728
enkap	-14729
epost	-14730
ereke	-14731
eries	-14732
ethyl	-14733
etics	-14734
[...]
